<pad>	0
<s>	0
</s>	0
<unk>	0
▁the	-3.06523
▁.	-3.16017
▁,	-3.23261
s	-3.30518
▁a	-3.85153
ed	-3.88436
▁to	-3.91935
▁of	-3.98163
▁in	-4.01705
▁and	-4.08206
ing	-4.2534
▁s	-4.42843
y	-4.7209
▁said	-4.80882
▁on	-4.92056
▁for	-5.00564
▁that	-5.01632
▁	-5.02322
d	-5.11763
ly	-5.14928
▁was	-5.22804
▁is	-5.26873
▁be	-5.2762
▁with	-5.2781
▁it	-5.40905
▁he	-5.46755
▁at	-5.54082
▁an	-5.62482
▁from	-5.63907
▁by	-5.66884
e	-5.68285
▁as	-5.74624
▁his	-5.75176
▁has	-5.80292
▁have	-5.80937
▁were	-5.93947
▁but	-5.94352
▁are	-5.9506
▁will	-5.97821
▁not	-6.03849
▁who	-6.06395
▁u	-6.13105
▁after	-6.19325
n	-6.19712
▁had	-6.20284
▁i	-6.22528
▁t	-6.25557
▁this	-6.31639
▁been	-6.32284
▁their	-6.32552
▁we	-6.33118
t	-6.33239
▁they	-6.3471
▁about	-6.35411
▁people	-6.3656
▁her	-6.38568
ies	-6.38851
▁more	-6.39522
▁year	-6.40562
▁cnn	-6.44617
▁new	-6.46072
▁two	-6.46667
▁she	-6.47941
▁one	-6.48158
▁which	-6.49598
▁its	-6.53327
▁or	-6.53396
▁would	-6.54918
▁up	-6.56277
er	-6.56683
▁al	-6.60047
▁than	-6.6163
▁also	-6.62027
▁when	-6.67273
▁police	-6.67334
a	-6.69042
es	-6.69608
▁out	-6.69739
▁other	-6.69965
▁government	-6.70217
an	-6.73664
▁president	-6.75402
▁last	-6.77195
▁day	-6.77297
▁over	-6.78505
▁man	-6.78524
▁all	-6.7903
al	-6.81147
▁first	-6.82246
▁told	-6.83386
r	-6.84161
▁into	-6.84201
▁there	-6.84656
▁no	-6.88696
▁world	-6.88943
▁some	-6.89098
▁m	-6.922
▁you	-6.94008
ce	-6.94853
▁time	-6.96616
▁percent	-6.97079
▁can	-6.98018
▁years	-7.01283
o	-7.03996
▁according	-7.0539
▁000	-7.05677
▁could	-7.05924
▁north	-7.07437
▁if	-7.07647
▁monday	-7.07945
▁1	-7.08076
▁like	-7.08355
▁state	-7.0981
▁tuesday	-7.10074
▁go	-7.10576
▁south	-7.12745
▁united	-7.13396
▁three	-7.1343
▁iraq	-7.14227
▁wednesday	-7.15464
ish	-7.1577
on	-7.15856
▁take	-7.16626
▁call	-7.16723
▁officials	-7.17029
▁what	-7.1748
▁them	-7.17931
▁million	-7.18097
▁sunday	-7.1894
▁country	-7.20668
▁him	-7.21551
▁old	-7.22699
▁most	-7.23525
▁korea	-7.23705
▁before	-7.24602
▁week	-7.26225
ese	-7.27101
▁where	-7.27821
▁near	-7.28041
▁militar	-7.28819
▁so	-7.29108
▁do	-7.29396
uch	-7.30136
▁obama	-7.30614
cause	-7.30821
▁group	-7.31955
▁kill	-7.33268
▁us	-7.33316
▁report	-7.3448
▁states	-7.35005
▁reported	-7.35019
▁thursday	-7.35436
▁against	-7.36498
▁minister	-7.36571
▁home	-7.36616
▁since	-7.36649
▁whil	-7.37746
▁dur	-7.37927
▁high	-7.38237
▁2	-7.3933
▁just	-7.3981
▁may	-7.39812
▁city	-7.404
▁back	-7.40457
▁re	-7.4075
▁now	-7.41028
▁four	-7.42449
▁official	-7.42595
▁20	-7.42715
▁off	-7.42899
▁under	-7.43884
▁china	-7.44382
▁down	-7.45597
▁american	-7.46192
▁bush	-7.46914
i	-7.4789
▁made	-7.48026
▁10	-7.49465
▁statement	-7.5081
▁part	-7.50884
▁national	-7.50976
tween	-7.51279
▁through	-7.51584
▁200	-7.51775
▁my	-7.52518
▁say	-7.53617
▁our	-7.5374
▁war	-7.53926
▁b	-7.53963
▁long	-7.54098
▁did	-7.54868
th	-7.5496
▁security	-7.55039
▁3	-7.55093
▁nation	-7.55706
▁any	-7.56568
▁5	-7.57252
▁set	-7.57665
▁japan	-7.58218
▁former	-7.58268
▁help	-7.59098
▁including	-7.59533
▁party	-7.5972
▁found	-7.6008
▁show	-7.60113
▁house	-7.6062
▁says	-7.62302
▁being	-7.6305
▁end	-7.63482
st	-7.64278
▁work	-7.64335
en	-7.64498
▁news	-7.64869
▁nuclear	-7.65207
▁international	-7.65323
▁un	-7.65361
▁how	-7.65976
▁women	-7.66028
▁month	-7.66071
▁attack	-7.67582
▁spokesm	-7.69235
▁five	-7.69632
▁six	-7.69647
l	-7.70051
▁death	-7.70064
▁p	-7.70318
ion	-7.70527
▁get	-7.70732
round	-7.70914
▁make	-7.71287
▁authorit	-7.71491
able	-7.71699
▁brit	-7.72557
▁second	-7.72956
in	-7.73287
▁afghan	-7.7386
hose	-7.7428
▁still	-7.77229
▁expect	-7.77459
▁want	-7.77465
▁site	-7.77745
▁clinton	-7.77756
▁prime	-7.77832
▁court	-7.78466
▁see	-7.80684
▁4	-7.80784
other	-7.8114
▁6	-7.8131
▁know	-7.81486
▁won	-7.82263
▁hour	-7.82361
▁friday	-7.82361
▁arm	-7.83286
▁troops	-7.83305
man	-7.83415
▁support	-7.83918
▁leader	-7.83928
▁children	-7.84348
▁n	-7.84475
▁issue	-7.8455
▁way	-7.84659
▁public	-7.84892
▁late	-7.84948
▁next	-7.85028
▁well	-7.85227
▁place	-7.85248
▁recent	-7.85887
▁lead	-7.86168
▁york	-7.86408
▁release	-7.86713
▁number	-7.87189
▁plan	-7.87742
▁believe	-7.87791
ther	-7.88013
▁close	-7.88683
▁come	-7.89014
out	-7.89569
▁korean	-7.89787
▁saturday	-7.90138
▁press	-7.90356
▁leas	-7.90462
very	-7.90736
▁use	-7.91326
▁health	-7.915
▁look	-7.91777
▁top	-7.91874
▁iraqi	-7.91881
▁iran	-7.91971
▁sever	-7.92152
▁even	-7.92234
ity	-7.92312
▁office	-7.92457
▁both	-7.9438
▁company	-7.94423
▁forces	-7.94897
▁died	-7.95413
▁de	-7.96636
▁follow	-7.96637
▁7	-7.96694
▁billion	-7.96823
▁should	-7.97027
est	-7.97325
▁good	-7.97396
▁car	-7.97466
▁large	-7.97629
▁family	-7.98086
▁earlie	-7.98459
▁later	-7.98719
▁30	-7.98749
▁agency	-7.9878
▁program	-7.98947
▁e	-7.99023
▁arrest	-7.99393
▁political	-7.99428
▁air	-7.995
▁men	-7.99976
way	-8.0006
▁campaign	-8.00153
▁chief	-8.00551
▁head	-8.01009
▁think	-8.01012
▁every	-8.01044
▁return	-8.01161
▁center	-8.0126
▁me	-8.01956
▁fire	-8.01957
▁left	-8.02384
▁london	-8.02904
m	-8.0296
▁ask	-8.03539
▁life	-8.0359
▁saying	-8.03648
▁space	-8.0368
▁don	-8.03752
▁members	-8.03792
▁then	-8.04381
c	-8.04576
▁took	-8.0481
▁pakistan	-8.04892
▁win	-8.05379
▁early	-8.05704
▁white	-8.06767
istan	-8.07101
▁washington	-8.07431
▁k	-8.07611
▁name	-8.08236
▁bank	-8.08774
▁force	-8.08827
▁your	-8.08856
▁chin	-8.08865
▁power	-8.09157
▁among	-8.09231
▁human	-8.09245
▁order	-8.09259
▁democratic	-8.09267
▁months	-8.09529
▁area	-8.09586
▁night	-8.09624
▁same	-8.09813
▁ago	-8.09851
▁film	-8.10146
▁countr	-8.10249
▁need	-8.11095
▁try	-8.11441
▁came	-8.11702
▁team	-8.11988
ers	-8.12426
▁per	-8.12485
▁com	-8.12537
ic	-8.12805
▁meeting	-8.12818
▁real	-8.12841
▁foreign	-8.13615
▁aid	-8.13687
▁put	-8.13759
▁region	-8.13996
▁german	-8.1406
▁record	-8.14145
▁hit	-8.1452
▁department	-8.14632
▁miles	-8.14915
▁face	-8.15192
▁run	-8.15215
▁turn	-8.15601
▁case	-8.15696
▁john	-8.15785
▁major	-8.15895
▁taliban	-8.16367
▁capital	-8.16429
▁water	-8.16621
▁result	-8.16757
▁oil	-8.16812
▁15	-8.1685
▁w	-8.16923
▁general	-8.17027
▁d	-8.17035
▁own	-8.1805
▁media	-8.18372
▁appear	-8.18725
▁past	-8.18758
▁play	-8.18809
▁local	-8.19131
▁sen	-8.19631
▁start	-8.20052
▁ministr	-8.2015
▁allow	-8.2063
▁few	-8.20749
▁liv	-8.20819
▁web	-8.21002
▁these	-8.21084
▁mccain	-8.21358
▁far	-8.21403
8	-8.21419
▁hospital	-8.21476
▁best	-8.21527
▁french	-8.21563
▁bomb	-8.22338
▁final	-8.22362
▁university	-8.22411
▁video	-8.22552
▁8	-8.22571
▁50	-8.22598
▁deal	-8.22827
▁f	-8.23076
▁presidential	-8.23254
▁100	-8.23321
le	-8.23417
▁dead	-8.23418
▁11	-8.24138
▁talks	-8.24373
▁third	-8.24688
▁election	-8.25129
▁small	-8.25327
ey	-8.25449
▁continue	-8.26027
gan	-8.26102
▁open	-8.26647
▁whe	-8.26727
ment	-8.27005
▁along	-8.27257
▁concern	-8.27261
▁sign	-8.27566
each	-8.2776
land	-8.27814
▁test	-8.27936
▁ban	-8.27966
▁count	-8.28049
▁killing	-8.28289
▁times	-8.28358
h	-8.28613
▁held	-8.28648
▁baghdad	-8.28797
▁soldier	-8.28802
▁clear	-8.29235
▁remain	-8.29642
▁great	-8.29682
▁led	-8.29838
▁bas	-8.29883
self	-8.30116
▁g	-8.30144
▁right	-8.30329
▁claim	-8.30354
▁half	-8.30406
▁watch	-8.31043
▁jan	-8.3107
▁visit	-8.31129
▁does	-8.31196
▁12	-8.31387
▁militant	-8.31477
▁article	-8.31701
▁town	-8.32115
read	-8.32314
▁school	-8.32553
▁director	-8.32628
▁market	-8.32674
▁co	-8.3291
▁mean	-8.33066
▁qa	-8.33168
▁palestinian	-8.33303
▁change	-8.34253
▁move	-8.34366
▁business	-8.34464
ation	-8.34624
▁secretar	-8.34948
▁vote	-8.34996
▁food	-8.35172
▁european	-8.35254
ry	-8.35353
▁become	-8.35404
▁hope	-8.35449
▁march	-8.35725
▁c	-8.35886
▁woman	-8.35946
▁increase	-8.36824
▁law	-8.37392
▁britain	-8.37545
▁workers	-8.37565
▁spokes	-8.376
▁hong	-8.37792
▁post	-8.37929
▁others	-8.38295
▁line	-8.38469
um	-8.38472
▁person	-8.38479
▁leaders	-8.38489
▁beijing	-8.38511
▁give	-8.38603
▁host	-8.38723
▁thousand	-8.39243
▁financial	-8.39243
▁african	-8.39363
▁province	-8.39446
▁civil	-8.39456
▁eight	-8.39492
▁main	-8.40337
▁offer	-8.40345
▁southern	-8.40477
▁michael	-8.40724
▁source	-8.40729
▁station	-8.40791
▁global	-8.40972
▁cause	-8.41074
▁france	-8.41299
ve	-8.41448
▁street	-8.4148
▁kong	-8.41737
▁announc	-8.41969
▁free	-8.42284
▁central	-8.42362
▁seven	-8.4248
▁attacks	-8.42783
f	-8.42894
▁keep	-8.43058
▁ap	-8.43084
▁base	-8.43171
▁9	-8.43359
▁rule	-8.4358
▁england	-8.44006
▁en	-8.44416
▁40	-8.44584
▁fly	-8.44709
4	-8.44915
across	-8.44984
▁control	-8.45022
▁defense	-8.45038
▁comment	-8.45071
▁system	-8.45081
▁must	-8.45354
▁mak	-8.45382
▁strong	-8.45587
▁added	-8.4572
▁candidate	-8.4582
▁service	-8.46144
▁gas	-8.46222
▁18	-8.46249
▁game	-8.46334
▁russia	-8.4641
▁travel	-8.46436
▁big	-8.46469
cy	-8.46702
▁decision	-8.47042
▁money	-8.4753
▁outside	-8.47733
▁violen	-8.4787
▁confirm	-8.48264
▁age	-8.48409
▁immediate	-8.48468
▁22	-8.48482
▁injur	-8.48511
▁total	-8.48795
▁weeks	-8.48841
formation	-8.48907
▁cost	-8.49027
▁never	-8.49566
▁attempt	-8.4982
▁internet	-8.4982
▁protest	-8.49905
▁economic	-8.49938
▁2006	-8.50118
▁operation	-8.50149
u	-8.5055
▁side	-8.50595
▁interview	-8.50719
▁promise	-8.50725
▁newspaper	-8.50916
▁northern	-8.50918
▁point	-8.50955
▁ve	-8.51022
▁consider	-8.51161
day	-8.51334
▁opposition	-8.51471
▁park	-8.51564
▁study	-8.5178
▁full	-8.52112
een	-8.52139
▁child	-8.52317
▁conference	-8.52589
▁lee	-8.526
▁500	-8.52601
▁25	-8.52611
▁double	-8.52991
▁israel	-8.53605
2	-8.5381
▁share	-8.53898
▁russian	-8.53917
uary	-8.54263
▁hard	-8.54275
▁rights	-8.54313
▁california	-8.54842
▁airport	-8.54844
▁morning	-8.54889
▁condition	-8.54966
▁member	-8.55117
▁target	-8.55128
▁find	-8.5527
▁little	-8.55428
▁cut	-8.55439
ber	-8.55487
▁however	-8.55724
▁israeli	-8.55755
▁east	-8.55965
▁talk	-8.56138
▁race	-8.56235
raf	-8.56246
▁launch	-8.56354
▁border	-8.56577
▁father	-8.56594
▁se	-8.57108
▁hundred	-8.57157
▁might	-8.57158
▁union	-8.57279
▁fall	-8.57288
▁cit	-8.57778
▁sea	-8.57819
▁19	-8.57884
▁plann	-8.58505
▁west	-8.58562
▁economy	-8.58632
▁islam	-8.58663
▁star	-8.58669
▁federal	-8.58683
▁24	-8.58874
▁stop	-8.58924
ous	-8.59072
▁couple	-8.59236
us	-8.59824
▁short	-8.59878
▁199	-8.60436
▁include	-8.60619
▁research	-8.6067
▁peace	-8.61017
▁body	-8.61352
▁organization	-8.61353
▁musha	-8.6147
eda	-8.6159
▁action	-8.61696
▁previous	-8.61956
▁young	-8.62033
▁los	-8.62093
▁heart	-8.62176
son	-8.62238
▁judge	-8.62396
▁speak	-8.62548
went	-8.62555
▁committee	-8.62588
▁cha	-8.62598
▁ever	-8.62691
▁red	-8.63146
▁shot	-8.63397
▁poll	-8.63594
▁black	-8.63658
▁emergency	-8.63863
▁14	-8.64176
▁kenya	-8.64245
▁13	-8.64431
▁charge	-8.64488
▁plane	-8.64615
▁wide	-8.65018
▁investigation	-8.65076
▁television	-8.65081
▁read	-8.65093
▁scientist	-8.65394
▁search	-8.65394
▁16	-8.65486
▁bill	-8.65562
ard	-8.65563
▁prices	-8.65688
▁crime	-8.65731
▁energ	-8.6574
▁train	-8.65916
▁september	-8.66032
▁parliament	-8.66047
▁students	-8.66359
▁direct	-8.6642
▁involv	-8.66516
▁victory	-8.66755
▁carry	-8.66842
▁estimate	-8.66892
▁island	-8.67044
▁rate	-8.67107
▁0	-8.6712
▁process	-8.6727
▁cash	-8.67326
▁june	-8.67347
▁reporters	-8.6754
▁o	-8.67569
one	-8.67602
▁angel	-8.67639
▁live	-8.67733
▁america	-8.67773
▁key	-8.67838
woman	-8.67877
▁building	-8.67909
▁less	-8.68138
▁whose	-8.68209
▁mother	-8.68243
▁grow	-8.68272
▁lot	-8.68413
ntil	-8.6842
▁western	-8.68474
▁bring	-8.68495
▁companies	-8.68625
▁medical	-8.68636
▁points	-8.68663
▁son	-8.68699
▁hold	-8.6871
▁damage	-8.68726
▁europe	-8.68831
▁minutes	-8.68995
go	-8.69011
▁boy	-8.69177
▁again	-8.69223
▁vehicle	-8.69284
▁question	-8.69321
ough	-8.69333
▁develop	-8.69431
▁associat	-8.69678
age	-8.69708
hind	-8.69756
▁hav	-8.6992
▁animal	-8.69959
known	-8.70246
▁working	-8.70262
▁shift	-8.70317
▁suspect	-8.70352
ton	-8.7051
▁sex	-8.70724
▁administration	-8.70951
▁weapons	-8.71011
▁tour	-8.71231
▁hand	-8.71322
▁flight	-8.71395
▁got	-8.71554
▁inside	-8.71894
z	-8.71931
▁current	-8.71968
▁congress	-8.72304
▁david	-8.72305
▁storm	-8.72364
▁too	-8.72408
▁provide	-8.72652
▁fuel	-8.72656
▁letter	-8.72678
▁barack	-8.7299
▁important	-8.73005
▁hotel	-8.73336
▁interest	-8.73337
vez	-8.73362
▁award	-8.73454
▁weekend	-8.73476
▁wounded	-8.73638
▁terrorist	-8.7378
▁australia	-8.73824
▁commission	-8.74023
▁better	-8.74045
ness	-8.74348
▁debut	-8.7437
▁serious	-8.7437
▁coast	-8.74511
▁am	-8.74749
▁break	-8.74829
▁elections	-8.75068
▁player	-8.75149
most	-8.75153
te	-8.7541
▁crisis	-8.75419
▁republican	-8.7547
▁flu	-8.7564
▁tv	-8.75677
▁suicide	-8.75778
▁foot	-8.75806
▁happen	-8.75835
▁toward	-8.75909
▁anti	-8.76137
▁problems	-8.76257
▁jackson	-8.76484
▁suggest	-8.76772
▁front	-8.76915
5	-8.76929
▁paris	-8.77226
▁explain	-8.77475
▁walk	-8.77561
▁project	-8.7777
▁accus	-8.77948
▁role	-8.7805
▁senior	-8.78271
▁goal	-8.78284
▁room	-8.78376
▁alleged	-8.78431
▁council	-8.79362
▁efforts	-8.79656
▁executive	-8.7973
▁jail	-8.79734
▁mid	-8.79893
▁here	-8.7991
▁agreement	-8.79938
to	-8.79939
▁supporter	-8.80037
▁season	-8.80095
▁suffer	-8.80108
▁paul	-8.80124
▁list	-8.80181
▁charges	-8.80218
ought	-8.80327
▁cd	-8.8034
ally	-8.80441
▁different	-8.80475
▁r	-8.80483
▁reduced	-8.80535
▁possible	-8.80572
▁ahead	-8.80747
▁pay	-8.80844
▁prison	-8.81121
▁draft	-8.81207
▁dozen	-8.81207
▁2005	-8.81257
▁mission	-8.81267
▁rebel	-8.8159
ra	-8.81692
▁level	-8.81725
▁join	-8.81773
▁brun	-8.8188
▁ground	-8.8199
▁term	-8.82107
▁india	-8.82656
or	-8.82669
▁together	-8.82732
▁wif	-8.82952
▁incident	-8.83055
▁iranian	-8.83104
▁voter	-8.83208
mar	-8.83237
▁december	-8.83467
▁round	-8.83486
▁60	-8.83686
▁apri	-8.83694
▁san	-8.83791
▁resident	-8.84007
▁light	-8.84028
▁summer	-8.84232
ive	-8.84247
▁strike	-8.84294
▁august	-8.84341
▁though	-8.84429
▁history	-8.84622
▁demand	-8.84804
▁problem	-8.84858
though	-8.84866
1	-8.85052
▁movie	-8.85282
▁future	-8.8534
▁match	-8.85398
▁yet	-8.85453
▁fighting	-8.85466
▁started	-8.85555
▁series	-8.85645
▁fund	-8.85935
▁octo	-8.86179
▁brown	-8.86219
▁send	-8.86234
▁road	-8.86341
▁due	-8.86362
p	-8.86383
▁given	-8.8652
▁district	-8.86956
▁sent	-8.87124
▁complete	-8.87414
▁tried	-8.87427
▁act	-8.87529
▁primar	-8.87654
▁games	-8.87658
▁passenger	-8.87748
▁crowd	-8.87757
▁daughter	-8.87773
▁cross	-8.87809
▁broke	-8.87993
▁protect	-8.88104
▁sarkozy	-8.88146
▁gen	-8.88254
▁stock	-8.88272
▁pakistani	-8.88323
▁figure	-8.88346
side	-8.88905
ten	-8.88918
▁expert	-8.88948
▁february	-8.88948
less	-8.88976
▁victims	-8.89157
▁tell	-8.89205
▁further	-8.89353
came	-8.89451
▁17	-8.89832
▁africa	-8.89964
▁pull	-8.90069
▁chance	-8.90329
▁meet	-8.90365
▁industry	-8.9057
▁risk	-8.90573
▁church	-8.90578
▁parent	-8.90599
▁soon	-8.90685
▁fee	-8.90704
▁blood	-8.9072
▁areas	-8.90841
▁serve	-8.90964
▁gave	-8.90984
▁releas	-8.91117
x	-8.913
▁forecaster	-8.91441
▁cage	-8.91453
▁wall	-8.91585
▁thought	-8.91586
▁cup	-8.91828
▁olympic	-8.9192
ves	-8.92134
▁situation	-8.92221
▁nine	-8.92298
▁popular	-8.92641
▁cell	-8.92659
▁gaza	-8.92663
▁ship	-8.92779
w	-8.92969
▁stay	-8.93189
▁fan	-8.93334
▁crash	-8.93476
▁turkey	-8.93496
▁something	-8.93546
▁girl	-8.93669
by	-8.93833
k	-8.93899
▁prevent	-8.94321
▁susan	-8.94337
▁view	-8.94343
▁technology	-8.94348
▁gold	-8.94477
▁policy	-8.94558
▁australian	-8.94565
▁bearing	-8.94743
▁servant	-8.9475
▁27	-8.94775
▁trip	-8.9487
rice	-8.94904
▁special	-8.95004
▁disease	-8.95031
▁sentence	-8.95151
▁missile	-8.95175
▁leave	-8.95227
nato	-8.95361
▁online	-8.95493
7	-8.95502
0	-8.95519
▁trade	-8.95575
▁tokyo	-8.95616
▁position	-8.95623
▁let	-8.95748
▁met	-8.95843
▁loss	-8.95904
▁thwart	-8.96034
▁florida	-8.96035
▁glove	-8.96036
wide	-8.96155
▁rival	-8.96478
▁fell	-8.965
▁21	-8.96738
▁private	-8.96905
▁crew	-8.96911
▁royal	-8.96911
coming	-8.97206
▁markets	-8.97245
▁phone	-8.97294
▁husband	-8.97338
▁title	-8.97341
▁threaten	-8.97377
▁23	-8.97436
▁address	-8.97628
▁reach	-8.97692
▁fight	-8.97702
▁evidence	-8.97777
▁orphanage	-8.97778
▁wanted	-8.97945
▁destroy	-8.97988
lost	-8.98025
▁seek	-8.98201
▁quick	-8.98219
▁bus	-8.98223
▁saw	-8.98301
▁researcher	-8.98311
▁democrat	-8.98572
▁job	-8.98574
▁attorney	-8.9866
▁lawyer	-8.98668
▁analyst	-8.987
▁production	-8.98702
ary	-8.98931
co	-8.99067
▁coalition	-8.99105
▁middle	-8.99106
▁league	-8.99128
▁feel	-8.99276
▁rise	-8.99316
▁officer	-8.9935
▁missing	-8.99444
▁hostage	-8.99584
▁link	-8.99941
▁computer	-8.99986
▁warn	-9.0015
ty	-9.00325
▁eastern	-9.00358
▁prep	-9.00422
▁cover	-9.00429
▁dollar	-9.00453
▁rock	-9.00567
▁step	-9.00738
▁climat	-9.01027
▁lower	-9.01047
▁battle	-9.01077
▁camp	-9.01244
▁ama	-9.01323
▁heavy	-9.01356
▁leban	-9.01357
▁shiite	-9.01358
▁gain	-9.01392
▁caus	-9.01603
▁scene	-9.01827
ongdo	-9.0199
▁attend	-9.02222
▁pro	-9.02246
▁conduct	-9.02277
▁mov	-9.02444
▁flak	-9.02451
▁price	-9.02483
▁elepha	-9.02723
▁meetin	-9.02769
▁officers	-9.0281
▁image	-9.0283
▁asia	-9.02852
▁music	-9.03085
▁earth	-9.03203
▁effort	-9.03258
biggest	-9.03298
▁cat	-9.03411
▁198	-9.03543
▁j	-9.03588
▁sell	-9.03669
▁lives	-9.04094
▁murder	-9.04122
▁justice	-9.04138
▁board	-9.04545
▁kilometer	-9.04598
▁nomination	-9.04608
▁bad	-9.04748
▁seat	-9.04808
▁saudi	-9.0507
▁treat	-9.05095
▁model	-9.0512
▁ll	-9.0513
▁love	-9.05608
ley	-9.05621
▁product	-9.05674
hutto	-9.05849
▁neighbor	-9.06017
▁prosecutor	-9.06021
▁needed	-9.06165
▁exchange	-9.06245
▁rose	-9.06493
▁pressure	-9.06542
bc	-9.06545
▁river	-9.06822
▁development	-9.07032
▁tourist	-9.07049
▁ra	-9.07057
▁scor	-9.07244
▁land	-9.07337
ful	-9.0746
▁muslim	-9.07462
▁hillary	-9.07472
▁getting	-9.07501
▁care	-9.07559
▁community	-9.07635
▁village	-9.07719
▁often	-9.0772
▁prince	-9.07816
▁book	-9.07828
▁seem	-9.0785
▁delegates	-9.07882
mber	-9.07929
▁texas	-9.07947
▁pound	-9.07957
▁rais	-9.08016
▁fail	-9.08021
▁agree	-9.08093
▁receive	-9.08118
▁le	-9.08129
▁vice	-9.08267
▁identified	-9.08305
▁idea	-9.08377
▁buy	-9.08465
▁king	-9.08477
▁hama	-9.08562
▁done	-9.08716
▁intelligen	-9.09215
▁things	-9.0929
▁discuss	-9.09347
▁jon	-9.09405
▁appeal	-9.09421
▁message	-9.09794
▁debate	-9.09817
▁low	-9.09887
▁announce	-9.09904
▁speech	-9.09913
▁ju	-9.1015
▁focus	-9.10219
▁pick	-9.10357
▁begin	-9.1041
▁similar	-9.1041
▁blast	-9.10414
▁beat	-9.10424
▁turk	-9.10487
▁kind	-9.10727
▁wear	-9.10763
▁drug	-9.10832
3	-9.10885
▁story	-9.10972
▁mark	-9.11235
▁malik	-9.11412
▁ruling	-9.11415
▁measure	-9.11601
▁st	-9.11772
▁airline	-9.11834
▁plant	-9.11889
▁runn	-9.12014
▁included	-9.12147
▁stage	-9.12295
▁minute	-9.12362
▁embass	-9.12426
▁moment	-9.12448
▁drive	-9.12797
yang	-9.12816
▁services	-9.12821
oul	-9.12854
▁wait	-9.12894
▁matter	-9.12959
▁george	-9.12963
▁h	-9.13201
▁rescue	-9.13306
▁receiv	-9.13336
▁lawmaker	-9.13452
▁population	-9.13458
▁poor	-9.13465
▁request	-9.13965
▁trial	-9.13981
▁2003	-9.14015
▁2007	-9.14023
▁warm	-9.14046
▁why	-9.14074
▁approv	-9.14313
▁robert	-9.14435
▁apparent	-9.14483
6	-9.14563
▁manager	-9.14612
▁dr	-9.14782
▁fact	-9.149
▁boyl	-9.14942
▁senator	-9.15016
▁staff	-9.15062
▁polls	-9.1527
▁democrac	-9.15527
▁suspend	-9.15527
▁tak	-9.1574
▁ceremon	-9.15968
▁personal	-9.16022
▁network	-9.16238
▁protesters	-9.16289
▁published	-9.16309
▁stand	-9.16534
▁square	-9.16584
▁prize	-9.16676
▁commander	-9.16738
▁kim	-9.16773
▁contain	-9.16916
▁fighter	-9.17126
▁interior	-9.17168
▁form	-9.17376
taken	-9.17603
▁bid	-9.17618
ance	-9.17859
pent	-9.17963
▁arab	-9.17994
▁initial	-9.18193
▁express	-9.18221
▁event	-9.1839
▁movement	-9.1879
▁difficult	-9.18919
hua	-9.19037
▁design	-9.19097
▁date	-9.19174
▁famili	-9.1926
▁afternoon	-9.19271
▁safety	-9.19286
▁spend	-9.19473
▁relations	-9.19608
▁material	-9.19609
▁sales	-9.19687
▁sexual	-9.19828
▁burn	-9.19879
▁civilians	-9.19905
▁safe	-9.19952
▁threat	-9.1999
▁70	-9.20188
▁illegal	-9.20366
▁certain	-9.20385
▁spoke	-9.20393
▁raise	-9.20477
▁reached	-9.20555
wood	-9.20783
▁finish	-9.20798
▁green	-9.2082
▁cars	-9.20877
▁rest	-9.20922
g	-9.20998
▁nove	-9.212
▁fear	-9.21206
▁course	-9.21556
▁average	-9.21668
truck	-9.21856
ways	-9.22003
▁accident	-9.22007
▁deput	-9.22041
▁code	-9.2207
▁radio	-9.22164
▁chi	-9.22209
▁draw	-9.22326
▁details	-9.22485
▁8212	-9.22595
▁brother	-9.22612
▁consumer	-9.22702
▁deep	-9.23124
ism	-9.23185
▁investigator	-9.23199
▁italy	-9.23237
▁26	-9.23369
▁mail	-9.23505
▁field	-9.23525
down	-9.23539
▁shooting	-9.23642
▁growth	-9.2382
▁asian	-9.24247
▁communist	-9.24303
▁journalist	-9.24316
▁ice	-9.24631
▁survey	-9.24765
▁majorit	-9.24859
▁italian	-9.24883
▁quarter	-9.24889
▁lift	-9.24916
▁association	-9.2493
▁account	-9.25333
▁terror	-9.25364
▁nasa	-9.25396
▁friend	-9.25405
▁brain	-9.25458
▁usual	-9.25459
▁opening	-9.25699
▁elect	-9.25721
▁played	-9.25731
night	-9.25843
taking	-9.25851
▁taiwan	-9.26034
▁relationship	-9.26037
▁doctors	-9.26039
▁experience	-9.26267
▁29	-9.26383
▁transport	-9.26618
▁declar	-9.26619
▁limit	-9.26631
▁club	-9.26639
▁credit	-9.26642
▁300	-9.26675
▁visitor	-9.26772
▁fired	-9.26878
pain	-9.26964
▁describ	-9.27028
▁pe	-9.27035
▁nominee	-9.27207
▁contact	-9.27207
▁winning	-9.27225
▁baby	-9.27245
▁leav	-9.27293
as	-9.27337
▁calls	-9.27475
▁track	-9.27576
▁marine	-9.2769
▁insurgent	-9.27798
el	-9.27802
▁paper	-9.27847
▁bodie	-9.27877
▁31	-9.28096
▁arriv	-9.2811
abe	-9.28111
rought	-9.28176
stead	-9.28223
▁explosion	-9.28394
▁barrel	-9.28403
▁actor	-9.2844
▁rare	-9.28464
▁la	-9.28579
▁broadcast	-9.28647
ng	-9.28827
▁80	-9.28835
▁shows	-9.28911
mid	-9.28983
▁detain	-9.28984
▁chairm	-9.29002
▁data	-9.29022
▁index	-9.2903
▁driver	-9.29181
▁urg	-9.29209
▁chica	-9.29354
▁satellite	-9.29597
▁delay	-9.2962
▁labor	-9.2983
▁indian	-9.2987
▁injuries	-9.29934
▁legal	-9.30052
▁access	-9.30056
▁35	-9.30079
▁inter	-9.301
▁friends	-9.30279
▁decided	-9.30461
▁natural	-9.30514
▁understand	-9.3074
▁success	-9.30777
▁mountain	-9.30848
re	-9.30991
rote	-9.31028
▁color	-9.31227
▁crack	-9.31339
▁increasing	-9.31424
▁carolina	-9.31424
▁virginia	-9.31445
▁avoid	-9.31465
▁normal	-9.31542
▁check	-9.31616
▁truck	-9.31643
▁ki	-9.31937
▁potential	-9.32042
▁impact	-9.32044
ar	-9.3218
▁sold	-9.3221
ble	-9.32397
▁opened	-9.32526
harry	-9.32781
ri	-9.32915
▁single	-9.32976
▁availab	-9.32999
▁thing	-9.33052
▁deliver	-9.33667
▁present	-9.33895
▁occurr	-9.33953
▁camera	-9.33967
▁espe	-9.33996
▁related	-9.34091
▁forward	-9.3411
▁non	-9.34334
▁sure	-9.34431
▁chen	-9.34487
▁driving	-9.3455
▁abo	-9.34589
cially	-9.34644
▁nothing	-9.34662
▁refus	-9.34667
▁honor	-9.34891
▁common	-9.34975
▁trad	-9.34978
▁critical	-9.35114
▁contract	-9.35135
▁treatment	-9.3522
▁century	-9.35416
ability	-9.35815
▁patient	-9.35864
▁rising	-9.35891
▁discovered	-9.35985
▁rain	-9.36071
▁sun	-9.36127
▁grand	-9.36371
▁helicopter	-9.36473
▁summit	-9.36473
▁aim	-9.36537
▁despi	-9.36671
▁require	-9.36698
▁born	-9.36713
▁enter	-9.37082
▁xin	-9.37137
▁probabl	-9.37179
▁2001	-9.37208
▁hill	-9.37263
ist	-9.37266
bi	-9.37266
▁challenge	-9.37421
▁fast	-9.37446
up	-9.37472
▁levels	-9.37552
▁social	-9.3759
▁store	-9.37637
▁28	-9.37668
▁english	-9.37775
▁independent	-9.37936
▁huge	-9.38079
ia	-9.3808
▁writ	-9.3814
▁value	-9.38156
▁span	-9.38222
▁decades	-9.38415
▁museum	-9.38437
▁speed	-9.38493
▁separate	-9.38504
▁wound	-9.38515
▁thai	-9.38766
▁involve	-9.38804
▁leg	-9.38806
▁themsel	-9.39047
▁combat	-9.39076
▁rich	-9.39089
▁associate	-9.39098
ever	-9.3921
spite	-9.39248
▁toll	-9.39552
▁factor	-9.39584
▁female	-9.39762
▁particular	-9.39763
▁science	-9.39817
▁everyone	-9.39843
▁holding	-9.39923
▁adding	-9.39939
▁ran	-9.39952
whil	-9.40012
▁size	-9.40078
▁period	-9.40119
▁agre	-9.40203
▁buil	-9.40298
▁ben	-9.40398
▁reject	-9.40433
▁te	-9.40828
▁contest	-9.41076
▁pennsylvania	-9.41109
▁response	-9.41109
▁attention	-9.41111
▁significant	-9.41125
▁worth	-9.41205
▁original	-9.41312
yong	-9.41489
▁employees	-9.41544
▁corp	-9.41628
▁guard	-9.41673
putin	-9.41754
▁brazil	-9.41783
▁mexico	-9.41789
▁actual	-9.41791
▁mo	-9.41798
tp	-9.41811
▁responsibl	-9.41813
▁electric	-9.41822
ial	-9.42091
▁joint	-9.42105
▁illi	-9.42122
▁push	-9.42172
▁flood	-9.42284
ne	-9.42434
▁boat	-9.42516
▁evening	-9.42529
▁mass	-9.42558
▁accept	-9.42618
▁reason	-9.4263
▁pop	-9.42797
▁winner	-9.43014
▁larges	-9.43076
▁class	-9.43139
▁festival	-9.43173
▁eu	-9.43634
▁tibet	-9.43735
▁finding	-9.43753
▁resolution	-9.4386
▁represent	-9.43865
▁blue	-9.43899
▁400	-9.43916
▁anything	-9.43918
oft	-9.43983
▁produce	-9.441
▁sanction	-9.44567
▁negotiation	-9.44584
▁create	-9.44911
▁nav	-9.45006
▁planet	-9.45023
▁progress	-9.45262
▁brief	-9.45272
nois	-9.45437
▁additional	-9.45459
▁ma	-9.4548
thing	-9.45503
▁l	-9.45595
▁45	-9.45804
▁refugee	-9.45819
▁facilit	-9.45904
▁professor	-9.45972
▁aircraft	-9.45985
▁pai	-9.4612
is	-9.46193
▁bit	-9.46199
▁provid	-9.46325
▁bin	-9.46361
▁hands	-9.46473
▁dail	-9.46554
such	-9.46563
▁oscar	-9.46642
▁respect	-9.46659
▁earthquake	-9.46685
▁militia	-9.46686
▁lack	-9.467
▁block	-9.46734
▁continu	-9.46777
▁annual	-9.46809
▁hyun	-9.46828
▁build	-9.46865
▁bear	-9.47045
▁vot	-9.47124
▁stopp	-9.47196
▁canno	-9.47285
▁student	-9.47389
▁author	-9.47662
▁90	-9.47664
▁ht	-9.47709
▁whom	-9.47768
▁spread	-9.47894
▁colombia	-9.47931
▁queen	-9.47932
▁responsibilit	-9.48132
▁jump	-9.48133
▁giant	-9.48143
▁hearing	-9.48235
▁jer	-9.48246
▁page	-9.48267
ine	-9.4836
▁independen	-9.4868
▁insist	-9.48737
▁hear	-9.48774
▁warning	-9.48834
▁quit	-9.48844
body	-9.48847
▁slow	-9.4895
▁id	-9.48977
kept	-9.49
▁micros	-9.49129
ney	-9.4924
za	-9.4935
▁climate	-9.49409
▁magazine	-9.49595
▁opportunit	-9.49603
▁dangerous	-9.49607
▁announcement	-9.49653
▁forest	-9.49743
▁po	-9.49768
▁fish	-9.4984
▁drink	-9.50003
▁fine	-9.5005
▁terroris	-9.50056
▁addition	-9.50129
▁indonesia	-9.50135
▁quake	-9.50336
▁massive	-9.50351
▁christian	-9.50389
▁secret	-9.50453
▁investigat	-9.50548
▁cases	-9.50763
▁difference	-9.51082
▁firm	-9.51084
▁answer	-9.51096
▁abbas	-9.51266
▁dispute	-9.51283
▁williams	-9.51326
▁engineer	-9.51332
▁standard	-9.5136
▁georgia	-9.5163
▁gun	-9.51722
aught	-9.51787
▁defeat	-9.51834
▁james	-9.51861
▁die	-9.51883
▁exist	-9.51904
▁tree	-9.51919
▁gather	-9.51976
▁customer	-9.52138
▁operat	-9.52141
▁kille	-9.52335
▁ii	-9.5237
▁mind	-9.52385
▁criminal	-9.52591
▁device	-9.52596
▁schedul	-9.52649
▁zone	-9.5268
▁decline	-9.52993
▁environment	-9.53028
▁ba	-9.53121
▁critic	-9.53136
▁environmental	-9.5319
▁port	-9.53324
▁societ	-9.53355
▁coach	-9.53368
▁rally	-9.53412
▁super	-9.5407
▁disaster	-9.54138
▁bridge	-9.54187
▁activities	-9.54259
▁screen	-9.54278
ak	-9.54291
▁prisoner	-9.54308
▁francis	-9.54313
▁raid	-9.54574
▁sunni	-9.54585
▁shown	-9.54728
▁questions	-9.5482
▁stone	-9.54883
▁cabinet	-9.54899
▁sale	-9.54928
▁fair	-9.54937
▁fill	-9.54975
▁buildings	-9.55016
▁committ	-9.5506
▁asp	-9.55094
dai	-9.55306
▁mosco	-9.55334
ship	-9.55346
na	-9.55574
▁convict	-9.55624
▁neighborhood	-9.55684
▁peaceful	-9.5571
▁weather	-9.55713
▁investment	-9.55736
▁remains	-9.55809
▁unit	-9.55813
▁intend	-9.55825
▁export	-9.55905
▁mil	-9.55911
▁repeated	-9.56025
▁et	-9.56155
▁richard	-9.56227
▁trouble	-9.56286
▁75	-9.56314
▁ambassador	-9.56468
▁madrid	-9.56468
ung	-9.5662
▁ex	-9.56646
▁jul	-9.56697
▁range	-9.56774
▁approach	-9.56785
time	-9.57242
▁astronaut	-9.57261
▁institute	-9.57261
▁monitor	-9.57261
▁maintain	-9.57261
▁leadership	-9.57305
▁banks	-9.57341
▁pass	-9.57362
▁created	-9.57445
▁miss	-9.57723
▁peter	-9.57915
▁pre	-9.58014
▁prompt	-9.58061
▁ohio	-9.58062
▁ball	-9.58162
giving	-9.58173
▁jobs	-9.58197
▁recover	-9.58242
▁nor	-9.58381
ur	-9.58431
▁deni	-9.58476
▁commercial	-9.5853
ler	-9.58601
▁traffic	-9.58679
▁route	-9.58757
▁college	-9.5887
▁mug	-9.58888
▁telephone	-9.58976
▁piece	-9.59007
▁kar	-9.59157
▁beach	-9.59168
▁spot	-9.59331
▁review	-9.59377
▁violent	-9.59385
▁uk	-9.59427
▁establish	-9.59534
▁session	-9.59681
▁voice	-9.59691
▁education	-9.5974
▁compar	-9.6004
▁reform	-9.60495
▁conflict	-9.605
▁custody	-9.605
da	-9.60506
▁severe	-9.60688
▁picture	-9.60731
▁describe	-9.60752
▁dropp	-9.60814
▁sound	-9.60965
men	-9.61173
▁con	-9.61298
▁chung	-9.61334
▁beginning	-9.61335
▁fashion	-9.61336
▁fifth	-9.61345
▁holly	-9.61426
▁citizens	-9.61434
▁discussion	-9.61446
▁career	-9.61679
▁produc	-9.61723
▁girls	-9.61899
▁republic	-9.62037
▁wor	-9.62147
▁communication	-9.62168
▁management	-9.62173
▁character	-9.62345
▁na	-9.62496
▁mi	-9.62567
▁37	-9.6265
▁bar	-9.62823
▁snow	-9.62847
▁card	-9.62888
▁premier	-9.62889
▁specific	-9.62966
▁hop	-9.62994
▁window	-9.63003
▁panel	-9.63011
▁performance	-9.63011
▁cap	-9.63049
▁powerful	-9.63054
▁cancer	-9.63087
▁el	-9.63104
▁bombing	-9.63153
ory	-9.63236
▁jo	-9.63444
▁condemn	-9.63848
▁guilt	-9.63876
▁smith	-9.63881
▁option	-9.63891
▁passed	-9.64309
▁euro	-9.6445
board	-9.64494
▁suspects	-9.6453
▁shop	-9.64548
▁schedule	-9.64654
▁wrong	-9.64658
▁discover	-9.64682
▁investor	-9.64724
▁carri	-9.6473
▁sadr	-9.6479
▁perform	-9.64795
▁marri	-9.64806
▁cho	-9.6492
▁clean	-9.65061
▁bay	-9.65075
▁syria	-9.65121
▁del	-9.65193
▁twic	-9.65322
▁th	-9.65336
▁effect	-9.65375
ie	-9.65441
▁necessar	-9.65565
▁kosov	-9.65567
▁activist	-9.65575
▁sleep	-9.65623
▁quot	-9.65723
▁diplomatic	-9.65744
ither	-9.65804
▁owner	-9.65845
▁training	-9.65877
▁blame	-9.66108
▁moon	-9.662
▁affected	-9.66235
▁prove	-9.66238
▁partie	-9.66283
▁civilian	-9.66317
▁32	-9.66323
▁broad	-9.66332
▁birth	-9.66429
▁recall	-9.66434
▁apple	-9.66438
▁marriage	-9.66448
▁style	-9.66555
▁van	-9.66594
▁tax	-9.66611
ni	-9.6672
▁traditional	-9.66805
▁tom	-9.66851
▁terms	-9.66971
▁olympics	-9.67068
▁feature	-9.67179
▁carrie	-9.67255
▁individual	-9.67311
▁crude	-9.67312
▁palace	-9.67313
▁alliance	-9.67314
▁corruption	-9.67314
▁allegation	-9.67316
▁felt	-9.67319
▁save	-9.67522
▁senat	-9.67552
▁rocket	-9.67554
▁showing	-9.67625
▁abuse	-9.6797
▁ka	-9.67989
▁score	-9.6813
▁journal	-9.68188
▁positive	-9.68197
▁regard	-9.68198
▁extend	-9.68304
den	-9.68396
▁mine	-9.68498
▁hurt	-9.68794
▁academ	-9.68859
▁kurd	-9.68877
rt	-9.69016
▁audience	-9.69054
▁behavior	-9.69095
▁true	-9.69358
▁gates	-9.69486
▁seed	-9.69549
▁band	-9.69683
▁meters	-9.69725
▁hous	-9.69817
ian	-9.69854
hran	-9.69873
▁doctor	-9.69982
▁surprise	-9.6999
▁competition	-9.6999
▁display	-9.69991
▁enem	-9.69999
▁shar	-9.70012
▁partner	-9.70016
▁di	-9.70116
▁steps	-9.70131
▁relie	-9.70191
▁wild	-9.70263
▁millions	-9.70375
▁fears	-9.70412
▁cent	-9.70419
▁art	-9.70427
▁wi	-9.70453
▁jet	-9.70565
▁parliamentar	-9.70843
▁vi	-9.70849
▁affair	-9.70899
▁pacifi	-9.70899
▁decade	-9.70929
▁diana	-9.70934
▁drop	-9.70939
▁appearance	-9.70948
hi	-9.71021
▁drugs	-9.71069
▁determine	-9.71175
▁heat	-9.71376
rac	-9.71448
▁champions	-9.71637
rdon	-9.71643
▁feder	-9.71736
aba	-9.71813
▁shuttle	-9.71823
▁virtual	-9.71824
▁industrial	-9.71858
▁chang	-9.71912
▁activit	-9.71925
▁sometime	-9.71935
▁ali	-9.72385
▁regime	-9.7249
▁arabia	-9.72561
▁koreans	-9.72675
▁profit	-9.72743
▁stadium	-9.72743
▁portug	-9.72743
▁conservative	-9.72743
▁failure	-9.72749
▁agent	-9.72782
▁surgery	-9.72783
▁admitted	-9.72912
▁photograph	-9.73092
ham	-9.73342
▁christ	-9.73362
enna	-9.73423
▁sharp	-9.73473
▁fac	-9.7352
▁forecast	-9.73566
▁dow	-9.73623
▁language	-9.73677
▁fresh	-9.73681
▁supreme	-9.73682
▁else	-9.73694
▁famous	-9.73718
▁tony	-9.73833
▁shari	-9.73873
▁pa	-9.74136
▁wave	-9.74142
▁command	-9.74246
nt	-9.74266
▁wen	-9.74374
▁remov	-9.74438
▁highway	-9.74451
▁pilot	-9.74639
▁location	-9.74664
▁600	-9.74676
▁welcome	-9.74815
▁mayor	-9.74834
▁touch	-9.74851
▁arrive	-9.74931
▁hot	-9.74977
▁self	-9.75019
nel	-9.7512
town	-9.75194
▁eye	-9.75306
▁remarks	-9.75317
▁kids	-9.75358
▁boost	-9.75435
▁changes	-9.7544
▁troop	-9.75441
▁alcohol	-9.75545
▁opinion	-9.75573
▁soviet	-9.75573
▁channel	-9.75574
▁mosque	-9.75574
▁potter	-9.75584
▁male	-9.7563
▁48	-9.7571
▁active	-9.75746
▁martin	-9.75803
new	-9.75868
▁pack	-9.7587
▁spear	-9.76055
ahoo	-9.76128
▁li	-9.76152
▁william	-9.76231
▁advance	-9.76242
▁words	-9.76313
▁las	-9.76485
▁tournament	-9.76534
▁reveal	-9.76535
▁sudan	-9.76539
▁supply	-9.76552
▁referr	-9.76572
▁vega	-9.76603
▁protection	-9.7664
▁witnesses	-9.76676
▁word	-9.76832
▁shut	-9.7703
▁farmer	-9.77061
▁slight	-9.77202
▁pictures	-9.77233
▁producer	-9.77265
▁events	-9.77281
▁formal	-9.77295
▁supplie	-9.77395
▁rio	-9.77419
▁jose	-9.77457
▁box	-9.77495
▁degree	-9.77505
▁straight	-9.77505
▁penalt	-9.77518
▁replace	-9.7755
eastern	-9.77701
▁ocean	-9.77712
▁wing	-9.77723
▁hu	-9.77835
▁adult	-9.77838
▁36	-9.77866
▁prepared	-9.77901
▁resume	-9.77906
▁governor	-9.78023
▁33	-9.78156
▁territor	-9.78305
▁bag	-9.78327
▁witness	-9.78343
▁singapore	-9.78353
▁liver	-9.78471
▁dream	-9.78489
▁solution	-9.78499
▁cruise	-9.78499
▁exile	-9.78501
▁chair	-9.78502
▁1999	-9.78504
▁adviser	-9.78588
▁type	-9.78806
▁sky	-9.78827
▁amount	-9.78941
▁trail	-9.79014
▁schools	-9.7915
▁zoo	-9.79441
▁blair	-9.79476
▁beckham	-9.79477
▁choice	-9.79523
▁charles	-9.79535
▁tech	-9.79564
▁qualit	-9.79603
▁influence	-9.79694
▁wors	-9.79739
▁reduce	-9.79853
▁150	-9.80111
▁votes	-9.80379
▁entire	-9.80476
▁software	-9.80476
▁assault	-9.80476
▁freedom	-9.80481
▁spring	-9.80783
▁controll	-9.80866
▁flow	-9.80916
▁da	-9.80999
▁dis	-9.81006
ma	-9.8108
▁stars	-9.81116
ner	-9.81119
▁flights	-9.8118
▁tie	-9.81311
▁islami	-9.81332
▁zimbabwe	-9.8136
▁roll	-9.81392
▁dress	-9.81457
▁actress	-9.81486
▁eventual	-9.81488
▁sister	-9.81519
▁secure	-9.81539
▁dark	-9.81556
▁googl	-9.81561
9	-9.81594
▁learn	-9.81613
▁sub	-9.81689
▁52	-9.81737
▁musa	-9.8174
▁yang	-9.81988
▁easi	-9.82062
▁net	-9.8215
▁door	-9.82338
▁collapsed	-9.82419
▁resign	-9.82486
▁nadal	-9.82511
▁resort	-9.82512
▁daniel	-9.82514
▁orbit	-9.82522
▁deployment	-9.82527
▁below	-9.82543
▁restriction	-9.82545
▁fil	-9.82562
▁computers	-9.82562
▁ring	-9.82604
▁197	-9.82706
▁foundation	-9.82736
mobile	-9.82878
▁unti	-9.82888
lew	-9.82922
▁southeast	-9.82954
▁victim	-9.83
▁maker	-9.83037
▁cancel	-9.83254
▁song	-9.83443
ribal	-9.83491
▁hurricane	-9.83537
▁complex	-9.83538
▁adopt	-9.8355
▁halt	-9.83626
▁joined	-9.83628
▁setting	-9.83667
ota	-9.83707
▁hall	-9.83735
azir	-9.84048
▁god	-9.84363
▁accuse	-9.84415
la	-9.8447
▁headquarter	-9.84579
▁dubai	-9.8458
▁representative	-9.84581
▁atmospher	-9.84583
▁extreme	-9.84587
▁machine	-9.84657
▁beyon	-9.84694
▁arms	-9.84891
tan	-9.84919
▁improve	-9.8499
▁speci	-9.85027
▁documents	-9.85029
▁books	-9.85037
▁surface	-9.85081
ester	-9.85119
▁politic	-9.85193
▁struggl	-9.85227
▁rat	-9.85362
▁ten	-9.85372
▁pain	-9.85397
▁founder	-9.85484
▁indicate	-9.85569
▁photos	-9.85613
▁temperature	-9.85632
▁studio	-9.85632
▁nicola	-9.85632
▁holiday	-9.85633
▁concert	-9.85636
▁assistant	-9.85636
▁guild	-9.85647
▁carbon	-9.85656
▁culture	-9.85719
▁whole	-9.85851
▁doubt	-9.85866
▁row	-9.86031
salem	-9.86088
▁motor	-9.86168
uters	-9.86231
▁content	-9.86263
▁minor	-9.86444
▁edge	-9.86446
▁withdraw	-9.86629
▁remote	-9.86696
▁possibilit	-9.86728
▁forc	-9.86823
▁bomber	-9.8695
▁sa	-9.8697
▁51	-9.86995
pool	-9.87001
▁cold	-9.87256
▁singer	-9.87414
▁artist	-9.87539
▁bann	-9.87687
ium	-9.87705
▁makes	-9.87727
▁winds	-9.87736
▁chelsea	-9.87771
▁construction	-9.87777
▁800	-9.87812
▁hilton	-9.87817
▁kick	-9.87824
haps	-9.87837
▁import	-9.87838
▁inc	-9.87936
▁tibetan	-9.87963
▁sides	-9.87994
▁resolve	-9.88037
▁min	-9.88134
cer	-9.88209
▁riot	-9.88341
▁bombings	-9.88384
▁ky	-9.884
▁organizer	-9.88552
▁spark	-9.88577
▁surrounding	-9.88672
lin	-9.88684
▁rush	-9.88742
▁object	-9.88761
▁hussein	-9.88858
▁trigger	-9.88858
▁respond	-9.88876
▁1980	-9.88885
▁version	-9.88888
▁generation	-9.88895
▁assembly	-9.88982
▁mile	-9.89
▁weight	-9.8904
▁princess	-9.89156
▁users	-9.89301
▁brand	-9.89383
▁practice	-9.89396
▁surge	-9.89576
▁presen	-9.8966
well	-9.89776
▁blow	-9.89776
▁suit	-9.89954
▁happy	-9.89957
▁regular	-9.89959
▁vow	-9.89971
▁commitment	-9.89972
▁survivor	-9.8998
▁dutch	-9.89994
▁qala	-9.90008
▁rough	-9.90042
▁flame	-9.9006
▁sports	-9.90061
▁apartment	-9.90072
▁physical	-9.90091
▁smok	-9.9016
▁alert	-9.90181
it	-9.90253
▁modern	-9.90349
id	-9.90466
▁tear	-9.90498
▁criticiz	-9.90563
▁jew	-9.90577
ent	-9.9059
▁gunm	-9.90671
▁hole	-9.90715
▁venezuela	-9.90868
▁ye	-9.90898
▁lake	-9.90933
▁tensions	-9.91041
▁fled	-9.91054
▁indicat	-9.91059
▁abandon	-9.91068
▁assistance	-9.91075
▁nevada	-9.9109
▁wolf	-9.91109
▁escape	-9.91135
▁remove	-9.91172
▁entering	-9.9123
▁gov	-9.91293
▁affect	-9.91353
▁theater	-9.91519
▁losing	-9.91602
▁provinc	-9.91724
▁nepal	-9.91989
▁explosives	-9.92001
▁decide	-9.92095
▁rank	-9.92106
▁reactor	-9.92201
▁mount	-9.92204
▁nobel	-9.9222
▁capture	-9.9239
▁writer	-9.92427
▁survive	-9.92443
▁determined	-9.92519
spread	-9.92579
▁charg	-9.92878
▁constitution	-9.92979
▁55	-9.93005
▁closer	-9.93061
▁torch	-9.93067
▁weapon	-9.93122
▁complain	-9.9313
▁earn	-9.93146
cient	-9.933
▁mccann	-9.93328
▁various	-9.93329
▁demonstrator	-9.9334
▁successful	-9.93349
dna	-9.93359
▁demonstrations	-9.93524
▁finance	-9.93633
ro	-9.93646
ami	-9.93657
▁virus	-9.93662
▁climb	-9.93685
ized	-9.93824
▁declin	-9.93873
olar	-9.93927
▁studie	-9.9396
gone	-9.93979
▁license	-9.93994
ch	-9.93999
▁movies	-9.94028
▁sense	-9.94138
▁football	-9.94158
▁wood	-9.94182
▁electronic	-9.94296
▁runner	-9.94314
▁ray	-9.94412
▁egypt	-9.9447
▁floor	-9.94481
▁criticism	-9.94489
▁batter	-9.9451
▁split	-9.94522
ado	-9.94633
▁colombian	-9.94796
▁kidnapped	-9.94963
▁rape	-9.95019
▁collapse	-9.95022
▁ensure	-9.95038
off	-9.95053
▁imposed	-9.95178
▁possibl	-9.95301
▁fa	-9.9531
▁cast	-9.95394
▁systems	-9.95447
▁diplomat	-9.95463
▁peninsula	-9.9564
▁enjoy	-9.95641
▁winter	-9.95681
▁tough	-9.95718
▁frank	-9.9577
field	-9.95821
▁serving	-9.95883
▁gar	-9.95982
▁blam	-9.96093
zai	-9.96107
▁olme	-9.96139
▁38	-9.96158
▁historic	-9.96265
▁rome	-9.96289
▁ko	-9.96316
▁demanding	-9.96346
ter	-9.96425
▁43	-9.96451
line	-9.96505
▁steve	-9.96537
▁pair	-9.96591
▁44	-9.96617
▁teen	-9.96714
▁chose	-9.96734
▁42	-9.96807
▁obtain	-9.96816
▁guy	-9.9682
▁throw	-9.96826
▁works	-9.97074
▁casualt	-9.97167
▁ver	-9.97248
ong	-9.97258
▁lad	-9.97259
▁scale	-9.97293
▁mate	-9.97797
▁km	-9.97834
▁nov	-9.9784
ntagon	-9.9785
▁danger	-9.98001
▁exact	-9.98007
▁suburb	-9.98007
niversa	-9.98007
▁equipment	-9.98008
▁relay	-9.98014
▁fellow	-9.98015
▁effective	-9.98067
▁mohamm	-9.98077
▁trust	-9.98116
▁196	-9.98168
▁sport	-9.98261
ida	-9.98283
ical	-9.98348
▁34	-9.98529
▁gay	-9.98552
▁standing	-9.99106
▁extra	-9.99121
▁album	-9.99169
▁disappoint	-9.99212
▁airstrike	-9.99212
▁ethnic	-9.99218
▁championship	-9.99223
▁hair	-9.99224
▁plus	-9.99287
ari	-9.99317
▁inspector	-9.9934
junta	-9.99352
abul	-9.99493
where	-9.99503
overall	-9.99706
▁dan	-9.99841
▁plot	-9.99895
▁none	-9.99903
▁rad	-10.0013
▁propos	-10.002
▁cuba	-10.003
▁era	-10.004
▁subject	-10.0043
▁michigan	-10.0043
▁sheriff	-10.0043
▁simpson	-10.0043
▁task	-10.0043
▁ongoing	-10.0044
▁religious	-10.0044
▁perfect	-10.0044
▁division	-10.0044
▁assassination	-10.0044
▁abu	-10.0045
▁add	-10.0061
han	-10.0062
▁treasur	-10.0072
▁mars	-10.0075
ack	-10.0089
▁mad	-10.0091
▁clashe	-10.0091
berg	-10.0091
▁items	-10.0101
▁har	-10.0102
▁signal	-10.0104
▁path	-10.0148
▁tens	-10.0162
▁magnitude	-10.0167
▁compound	-10.0167
▁dialogue	-10.0167
▁louis	-10.0167
▁heavi	-10.0168
▁unlike	-10.0168
▁negotiator	-10.0169
ily	-10.0169
▁berlin	-10.0169
▁example	-10.0171
mas	-10.0194
▁label	-10.0198
▁thank	-10.0203
▁reserve	-10.0227
▁ending	-10.0231
▁dut	-10.0247
ani	-10.0249
▁northeast	-10.0253
▁map	-10.0255
▁ru	-10.0264
mph	-10.0265
▁wind	-10.0291
▁error	-10.0292
▁purpose	-10.0292
▁envoy	-10.0292
▁rapid	-10.0292
▁exit	-10.0293
▁brazilian	-10.0293
▁isn	-10.0296
▁auction	-10.0298
▁basic	-10.0308
▁feeling	-10.0309
▁propert	-10.0318
▁seiz	-10.0327
▁whale	-10.0366
▁handed	-10.0373
▁smoke	-10.0379
▁nam	-10.038
▁aware	-10.0383
▁accepted	-10.039
▁colleague	-10.0418
▁monk	-10.0419
▁medicine	-10.0421
▁guest	-10.0421
▁rang	-10.0423
▁violation	-10.0424
▁roh	-10.0429
▁via	-10.0438
▁simpl	-10.0438
▁62	-10.0447
▁pledg	-10.0448
▁evacuated	-10.0453
▁southwest	-10.0463
▁jur	-10.0477
▁defend	-10.0498
▁identify	-10.0546
▁opponent	-10.0546
▁vietnam	-10.0546
▁sudden	-10.0546
▁advantage	-10.0546
▁domestic	-10.0546
▁ronald	-10.0546
▁remember	-10.0547
western	-10.055
▁iowa	-10.0551
▁lea	-10.0551
▁1990	-10.0552
▁jack	-10.0553
▁khan	-10.0555
▁champion	-10.0571
▁dog	-10.0571
▁relative	-10.0571
▁detail	-10.0572
▁catch	-10.0579
▁designer	-10.0584
back	-10.0594
▁mu	-10.0594
b	-10.0595
▁aide	-10.0596
▁organiz	-10.0611
▁table	-10.0621
▁stoo	-10.063
▁sh	-10.0638
yone	-10.0641
▁meant	-10.0645
▁patrol	-10.0645
700	-10.0652
▁tall	-10.0655
ang	-10.0656
▁memor	-10.0667
▁attract	-10.067
rizon	-10.0676
▁frequent	-10.0676
▁sector	-10.0678
▁globe	-10.0679
▁celebrit	-10.0681
▁encourage	-10.0684
▁birds	-10.069
▁manch	-10.07
huse	-10.0702
▁string	-10.0704
▁pc	-10.0721
▁soc	-10.0721
▁su	-10.0722
▁predict	-10.0736
▁tape	-10.0745
▁offering	-10.0759
ol	-10.077
▁pledge	-10.0778
▁tank	-10.078
▁drama	-10.0788
▁confiden	-10.0796
▁massac	-10.0801
▁shock	-10.0802
madeleine	-10.0808
▁presum	-10.0809
▁declaration	-10.0813
▁connection	-10.0814
▁1994	-10.0816
▁proposal	-10.0817
▁violat	-10.0821
▁phones	-10.0844
▁lt	-10.0849
▁guards	-10.0853
▁struggle	-10.0859
enko	-10.0865
atomic	-10.0867
▁scot	-10.0874
▁unclea	-10.0904
▁wonder	-10.0913
over	-10.0913
▁relatives	-10.0916
▁kingdom	-10.0941
▁emission	-10.0942
▁register	-10.0942
▁proud	-10.0942
▁enrich	-10.0942
▁budget	-10.0942
▁internal	-10.0944
▁innocent	-10.0946
▁elder	-10.095
▁notice	-10.0955
▁withdrawal	-10.0955
▁package	-10.0964
▁ride	-10.0967
▁write	-10.097
▁tight	-10.0972
live	-10.0975
▁ahmadi	-10.099
▁fit	-10.1007
▁runway	-10.1008
▁lady	-10.1014
▁250	-10.1021
ier	-10.1026
▁convention	-10.1033
▁mix	-10.1038
▁worrie	-10.105
tts	-10.1054
▁canad	-10.1073
▁girlfriend	-10.1076
▁kennedy	-10.1076
▁jordan	-10.1076
▁babies	-10.1078
▁valley	-10.108
▁edward	-10.1081
▁2009	-10.1083
▁meaning	-10.1084
sh	-10.11
▁divorce	-10.1114
▁hospitaliz	-10.1118
▁estimat	-10.1122
ick	-10.1132
▁gang	-10.1134
▁bone	-10.1141
▁argu	-10.1142
aid	-10.1146
▁simple	-10.1192
▁disappear	-10.1212
▁condoleez	-10.1213
▁strategy	-10.1213
▁temporar	-10.1213
▁narrow	-10.1213
▁lawsuit	-10.1214
▁edition	-10.1215
▁calm	-10.1217
▁firefighter	-10.1227
▁writing	-10.1231
▁trapped	-10.1248
▁politicians	-10.125
▁kidnapping	-10.1256
ll	-10.1274
▁shape	-10.1278
▁ro	-10.1285
▁strip	-10.1291
▁traveler	-10.1303
▁64	-10.1316
▁favor	-10.1317
▁thanks	-10.1328
▁sydn	-10.133
▁flag	-10.133
corporate	-10.133
▁buri	-10.1348
▁mahmoud	-10.1352
▁superdelegate	-10.1352
▁unusual	-10.1352
▁canadian	-10.1353
▁knee	-10.1353
▁nature	-10.1353
▁chemical	-10.1356
▁urani	-10.136
▁multi	-10.1374
▁ranking	-10.1386
▁acre	-10.1391
▁dub	-10.1394
▁affiliate	-10.1411
▁65	-10.1416
space	-10.1435
▁boycott	-10.1438
▁explod	-10.1443
erson	-10.1447
▁fata	-10.147
▁landing	-10.1478
▁dismiss	-10.1482
▁youth	-10.1482
▁pregnan	-10.1487
▁convince	-10.1493
▁invasion	-10.1493
▁guarantee	-10.1493
▁diamond	-10.1493
▁philippine	-10.1493
▁favorite	-10.1494
▁destruction	-10.1495
▁devastat	-10.1495
▁abdullah	-10.1496
▁matche	-10.1497
▁fortune	-10.1498
▁professional	-10.15
▁54	-10.1514
▁featur	-10.1515
▁conspira	-10.1522
▁improv	-10.1524
▁reflect	-10.1536
ez	-10.1554
▁argentin	-10.1561
▁waters	-10.1584
▁santa	-10.1593
10	-10.1619
▁indiana	-10.1622
▁counter	-10.163
▁deploy	-10.1633
▁anonymity	-10.1636
▁barcelon	-10.1636
▁shelter	-10.1636
▁youtube	-10.1636
▁technical	-10.1636
▁cleric	-10.1636
▁bottle	-10.1639
▁deadline	-10.164
▁alme	-10.1646
▁speaker	-10.1659
▁stake	-10.1662
▁homeland	-10.1676
▁46	-10.1682
▁lose	-10.1693
▁promote	-10.1703
water	-10.1706
▁rescuer	-10.1713
▁locat	-10.1721
▁zealand	-10.1723
▁gore	-10.1735
▁categor	-10.1754
▁jak	-10.1771
▁sw	-10.1771
▁govern	-10.1779
▁implement	-10.1781
▁journey	-10.1781
▁obvious	-10.1781
▁convoy	-10.1781
▁scandal	-10.1781
▁faith	-10.1781
▁vacation	-10.1781
▁invite	-10.1781
▁tiger	-10.1781
▁ceo	-10.1783
▁root	-10.1788
▁denie	-10.1803
▁venezuelan	-10.1807
▁sample	-10.1813
▁cia	-10.1825
▁fed	-10.1826
▁holy	-10.1855
agan	-10.1877
witz	-10.1887
ground	-10.1887
tt	-10.1895
▁alaska	-10.1906
ified	-10.1911
arta	-10.1911
▁manufactur	-10.1913
▁campus	-10.1919
▁erupt	-10.1922
▁advertis	-10.1923
▁mayb	-10.1926
itarian	-10.1928
▁catholic	-10.1928
▁delegation	-10.1928
▁crucial	-10.1928
▁recession	-10.1928
▁friendly	-10.1929
▁putt	-10.193
attle	-10.1936
▁loan	-10.1941
▁mike	-10.1955
▁angr	-10.1956
▁cable	-10.1968
▁41	-10.197
▁waste	-10.198
▁x	-10.1983
▁acknowledg	-10.2008
▁ticket	-10.201
hai	-10.2013
▁col	-10.2032
seas	-10.2035
▁wealth	-10.2049
▁serbia	-10.2058
▁strength	-10.2072
▁corporation	-10.2077
▁entertainment	-10.2077
▁profile	-10.2089
▁boss	-10.2089
ah	-10.2089
▁arrival	-10.21
▁effects	-10.2108
▁presiden	-10.2111
▁structure	-10.2112
▁reasons	-10.2118
▁restaurants	-10.2137
▁47	-10.2139
▁peru	-10.2143
▁sponsor	-10.2147
▁stores	-10.2158
▁crop	-10.2164
▁document	-10.2166
oline	-10.2166
▁restaurant	-10.2168
▁threats	-10.2168
▁photo	-10.2171
▁kenyan	-10.2173
▁teacher	-10.2175
▁farm	-10.2184
▁proper	-10.22
▁eyes	-10.2204
▁jane	-10.2214
▁dai	-10.2216
▁pet	-10.2218
jad	-10.2219
ural	-10.2224
▁lock	-10.2227
▁abdul	-10.2228
▁fraud	-10.2229
▁saddam	-10.2229
▁drove	-10.2229
▁currenc	-10.2229
▁memorial	-10.223
▁delta	-10.223
▁jesu	-10.223
▁numer	-10.223
▁wedding	-10.2231
▁outbreak	-10.2231
ence	-10.2232
▁strain	-10.2234
▁shortage	-10.2238
▁sentenc	-10.2239
▁tire	-10.2243
▁roads	-10.2253
▁fix	-10.2256
▁polic	-10.2258
▁ill	-10.2271
▁percentage	-10.2272
kk	-10.2278
▁boe	-10.2287
baki	-10.2296
▁classic	-10.2297
ling	-10.2303
▁boom	-10.2306
▁manag	-10.2311
at	-10.2316
▁yes	-10.2318
▁scott	-10.2327
▁engine	-10.2331
▁allie	-10.2337
▁responded	-10.2342
▁northwest	-10.235
suu	-10.2354
▁palm	-10.2366
▁weigh	-10.2366
ure	-10.2367
▁battl	-10.2376
▁boston	-10.2383
▁cyclone	-10.2383
ea	-10.2383
▁shirt	-10.2384
▁wake	-10.2385
▁birthday	-10.2386
▁digital	-10.239
▁choose	-10.2399
▁easy	-10.2403
▁gmt	-10.2414
▁detonat	-10.242
▁fay	-10.2437
▁resources	-10.2438
▁stable	-10.2443
▁il	-10.2476
▁benefit	-10.2487
▁highlight	-10.249
iro	-10.2496
ersey	-10.2499
▁eating	-10.25
ana	-10.2503
away	-10.2506
▁stress	-10.2506
▁osam	-10.2508
▁equal	-10.2513
beth	-10.2517
▁learned	-10.252
▁landed	-10.2531
do	-10.2535
▁client	-10.2539
▁captain	-10.2539
▁desert	-10.2539
▁sustain	-10.2539
▁mohammad	-10.2539
ization	-10.254
▁typical	-10.254
▁gulf	-10.2541
▁formed	-10.2541
▁filmmaker	-10.2549
▁section	-10.2549
▁columbia	-10.2551
▁expand	-10.2555
▁rail	-10.2557
▁lie	-10.2558
▁haven	-10.2571
▁ne	-10.2579
▁delivery	-10.2602
cliff	-10.262
▁employ	-10.2624
▁hung	-10.2627
▁ei	-10.2637
▁corner	-10.2653
▁freed	-10.2655
▁marked	-10.267
▁dogs	-10.2671
▁sit	-10.2681
▁agenci	-10.2686
▁stepp	-10.2689
▁ukrain	-10.2697
▁participant	-10.2697
▁funeral	-10.2697
▁laptop	-10.2697
▁phoeni	-10.2697
▁venue	-10.2697
▁assist	-10.27
▁temple	-10.27
▁clinic	-10.2701
▁income	-10.2705
▁shang	-10.2706
▁ji	-10.2722
▁gonzale	-10.2724
di	-10.2724
ant	-10.2725
▁creat	-10.2738
▁loh	-10.2743
tah	-10.2756
tic	-10.2762
▁nas	-10.2773
▁cheer	-10.2783
ious	-10.279
▁clash	-10.2797
▁cool	-10.2814
ta	-10.2815
ger	-10.2843
▁declare	-10.2846
▁unveil	-10.2859
▁endanger	-10.2859
▁christophe	-10.2859
▁agricultur	-10.2859
▁automaker	-10.2859
▁uniform	-10.2859
▁plastic	-10.2859
▁pump	-10.286
▁gallon	-10.286
▁arsenal	-10.286
▁vast	-10.2861
▁execution	-10.2862
ville	-10.2864
▁firing	-10.2872
▁johnson	-10.2876
▁hunt	-10.2876
▁bright	-10.2877
▁chile	-10.2877
▁chain	-10.2887
▁sort	-10.2892
▁musical	-10.2897
▁expectation	-10.2897
work	-10.2898
▁reporter	-10.2906
▁drew	-10.2909
▁cb	-10.2915
▁ease	-10.2924
ican	-10.2929
▁che	-10.2945
▁dam	-10.297
▁vessel	-10.2986
▁lab	-10.2989
▁except	-10.3017
▁detect	-10.3017
▁disney	-10.3022
▁landslide	-10.3023
▁ballot	-10.3023
▁ultimate	-10.3023
▁element	-10.3023
▁reaction	-10.3026
▁congo	-10.3028
▁grew	-10.3028
▁switch	-10.303
▁teenager	-10.3034
▁renew	-10.3034
▁morgan	-10.3041
▁listen	-10.3045
▁institution	-10.305
▁complaint	-10.3053
▁mouth	-10.3056
▁ca	-10.3065
chuan	-10.3073
▁belong	-10.3082
▁reading	-10.3084
▁thin	-10.3084
▁retir	-10.3094
▁lay	-10.313
▁excit	-10.3141
▁39	-10.3141
▁taxe	-10.3142
▁59	-10.3153
▁mary	-10.3155
▁abe	-10.3157
▁probe	-10.3159
▁demonstration	-10.3162
ka	-10.3167
▁cultur	-10.3184
▁alternative	-10.3189
▁darfur	-10.3189
▁michel	-10.3189
▁swiss	-10.319
▁method	-10.319
▁athlete	-10.319
▁dvd	-10.319
▁select	-10.319
▁hick	-10.3191
▁maryland	-10.3192
▁neck	-10.3193
▁stall	-10.3194
▁strengthen	-10.3195
▁shoot	-10.3201
tiny	-10.3201
▁dramatic	-10.3205
▁clothe	-10.3205
▁surround	-10.3219
▁statu	-10.3223
▁floods	-10.3237
▁apolog	-10.324
▁participate	-10.325
▁soar	-10.3253
▁anger	-10.326
▁caucuse	-10.3263
▁operate	-10.3264
▁younger	-10.3265
▁mr	-10.3268
craft	-10.3279
ember	-10.3287
▁photographer	-10.3295
▁exercise	-10.3298
▁direction	-10.331
▁file	-10.3319
▁pose	-10.3324
▁grave	-10.3326
ities	-10.3335
▁citizen	-10.3336
▁wheel	-10.3342
▁cooperati	-10.3343
▁demanded	-10.3344
▁collect	-10.335
▁length	-10.3353
▁restore	-10.3355
▁skin	-10.3358
▁offensive	-10.3359
▁preliminar	-10.3359
▁suspicion	-10.3359
▁roger	-10.3359
▁lama	-10.3359
▁froze	-10.336
▁radical	-10.336
▁regulation	-10.336
▁bull	-10.3361
▁connect	-10.3362
▁distance	-10.3362
▁yard	-10.3364
▁debt	-10.3367
▁warnings	-10.3377
▁variet	-10.3378
▁generate	-10.3416
▁chad	-10.3424
ular	-10.3444
broad	-10.3453
▁194	-10.3454
▁wine	-10.3464
▁corps	-10.3464
▁garden	-10.3484
▁knock	-10.3487
▁heads	-10.3494
▁refuse	-10.3497
▁58	-10.3499
▁barr	-10.3509
ei	-10.3514
▁beating	-10.3516
▁glass	-10.3517
▁vladimir	-10.3517
▁cave	-10.3526
▁coffee	-10.3531
▁permanent	-10.3531
▁wildlife	-10.3531
▁capacity	-10.3532
▁pushing	-10.3533
▁illness	-10.3533
▁resignation	-10.3535
▁weaken	-10.3536
▁56	-10.3536
light	-10.354
▁solve	-10.3542
▁medal	-10.3543
bed	-10.3553
▁visiting	-10.3558
▁oppose	-10.356
▁afford	-10.3562
▁oust	-10.3574
▁comed	-10.3593
burg	-10.3597
▁stretch	-10.3609
▁carrier	-10.3629
▁tradition	-10.3633
▁please	-10.3637
▁margin	-10.3643
▁maxim	-10.3648
▁prepar	-10.3657
▁harm	-10.3661
▁metal	-10.3662
lie	-10.3664
▁53	-10.3668
▁pr	-10.3673
▁120	-10.3675
▁laws	-10.3678
▁ski	-10.3685
▁transfer	-10.3687
▁du	-10.3691
▁legislat	-10.3693
▁flee	-10.3697
erland	-10.3705
▁recruit	-10.3707
▁scientific	-10.3707
▁verdict	-10.3707
▁laborator	-10.3707
▁yellow	-10.3707
▁boyfriend	-10.3707
▁bullet	-10.3707
▁bi	-10.3712
▁peak	-10.3713
▁collection	-10.3714
▁vat	-10.3719
▁bond	-10.3725
▁antoni	-10.3732
▁plead	-10.3737
▁195	-10.3741
▁striker	-10.3778
▁somali	-10.3798
▁assets	-10.3805
▁print	-10.3836
itting	-10.384
▁commit	-10.385
ren	-10.3869
▁chao	-10.3869
▁volcano	-10.3883
▁cloud	-10.3885
▁dinner	-10.3885
▁controversial	-10.3886
▁outcome	-10.3886
▁prett	-10.3888
▁squad	-10.3889
▁shopping	-10.3891
▁defendant	-10.3892
▁chole	-10.3895
▁atlantic	-10.3897
▁text	-10.3899
▁cloth	-10.3911
▁ways	-10.3912
▁unknown	-10.3916
▁islands	-10.3918
▁dick	-10.392
▁leak	-10.3927
▁maj	-10.3931
▁fat	-10.3936
▁riding	-10.395
▁beer	-10.3951
▁nei	-10.3965
▁spy	-10.3994
▁starr	-10.3995
▁hat	-10.3999
▁note	-10.4014
▁stan	-10.402
▁mar	-10.4028
▁nin	-10.4035
▁wish	-10.4047
▁conservation	-10.4067
▁bureau	-10.4067
▁knowledge	-10.4067
▁succeed	-10.4067
▁surrender	-10.4067
▁detention	-10.4067
▁routine	-10.4067
▁eliza	-10.4067
▁rallie	-10.4067
▁thomas	-10.4067
▁stole	-10.4069
▁cutting	-10.4071
▁glacier	-10.4071
▁mention	-10.4072
▁extremist	-10.4075
▁pregnancy	-10.4075
▁rebuild	-10.4078
eath	-10.4079
▁intense	-10.4082
▁rafa	-10.4088
▁basi	-10.409
▁cart	-10.4104
▁earning	-10.4106
iana	-10.411
▁guide	-10.4113
▁celebrat	-10.414
▁storie	-10.4144
▁closing	-10.4146
▁dala	-10.4148
▁ghaz	-10.4151
▁acknowledge	-10.4152
▁ha	-10.4154
▁rowl	-10.4165
▁bombers	-10.4175
▁chris	-10.4177
▁mur	-10.4197
▁damag	-10.4203
▁bird	-10.4211
▁apologize	-10.4212
▁gree	-10.4213
▁tru	-10.4216
▁par	-10.4223
▁spirit	-10.4252
▁veteran	-10.4252
▁identit	-10.4252
▁testimon	-10.4253
▁shield	-10.4256
▁eat	-10.4259
▁sweet	-10.4262
▁carlo	-10.4263
going	-10.4265
daq	-10.4267
▁recovery	-10.4268
▁pitt	-10.4271
▁shin	-10.4279
▁outrage	-10.4294
▁130	-10.4295
▁fun	-10.431
ire	-10.433
▁tend	-10.4336
▁unity	-10.4339
▁coordinat	-10.4342
▁revolutionar	-10.435
iri	-10.4363
iya	-10.4366
▁divers	-10.4374
▁euros	-10.4379
▁bigge	-10.438
▁appoint	-10.4386
▁gul	-10.4393
▁49	-10.4402
▁settle	-10.4406
ept	-10.4413
▁pos	-10.4422
▁tool	-10.4424
▁joe	-10.4426
▁spott	-10.4431
▁coup	-10.4438
▁caribbean	-10.4441
▁hybrid	-10.4441
▁quarterfinal	-10.4441
▁unfortunate	-10.4441
▁multiple	-10.4441
▁speculation	-10.4442
▁pirate	-10.4442
▁1970	-10.4444
▁truth	-10.4445
house	-10.4447
▁familiar	-10.4448
▁recommend	-10.445
▁lowest	-10.4455
▁charit	-10.4457
▁urge	-10.4461
▁auto	-10.4465
fare	-10.4466
▁beaut	-10.4468
▁miner	-10.4469
▁95	-10.4475
▁fatal	-10.4486
▁61	-10.4487
▁alexand	-10.4494
▁novel	-10.4495
▁compete	-10.4511
▁celebrate	-10.4551
ina	-10.4555
▁stephen	-10.4564
▁symbol	-10.4569
quo	-10.457
▁bound	-10.4574
▁rockets	-10.4581
im	-10.4585
▁seal	-10.4585
▁liter	-10.4592
▁captur	-10.46
▁stands	-10.4606
▁hills	-10.4614
▁bangladesh	-10.462
▁introduc	-10.4626
ford	-10.463
▁henr	-10.4632
▁aggressive	-10.4633
▁hampshire	-10.4633
▁counterpart	-10.4633
▁agenda	-10.4633
▁legend	-10.4633
▁checkpoint	-10.4634
▁orange	-10.4635
▁chart	-10.4635
▁bottom	-10.4637
▁genetic	-10.4638
▁inflation	-10.4639
anthem	-10.464
▁shark	-10.4642
▁native	-10.4642
▁skill	-10.4649
▁pursu	-10.465
▁fox	-10.4651
▁transition	-10.4653
▁petr	-10.4654
▁worse	-10.4657
▁delegate	-10.4659
ga	-10.4661
▁debri	-10.4663
▁sad	-10.4671
▁cuban	-10.4671
▁indonesian	-10.4686
▁depressi	-10.4692
▁shoe	-10.4692
imed	-10.4694
▁constitutional	-10.4701
▁appropriate	-10.4709
▁spa	-10.4714
▁fame	-10.4729
▁handl	-10.4732
▁roman	-10.4734
▁cow	-10.4737
llah	-10.4742
▁provinces	-10.4748
▁stem	-10.4768
▁ho	-10.4779
▁sp	-10.478
▁failing	-10.4804
▁complet	-10.4807
▁robot	-10.4827
▁wage	-10.4827
▁editor	-10.4829
▁convert	-10.4829
▁antarctic	-10.4829
▁reconciliation	-10.4829
▁quiet	-10.4829
▁darwin	-10.4829
▁galax	-10.483
▁dump	-10.483
▁conversation	-10.483
▁jungle	-10.483
kovic	-10.4831
▁punishment	-10.4831
▁gap	-10.4833
▁rodrigue	-10.4834
▁grant	-10.4842
▁cafe	-10.4843
▁rom	-10.4847
▁pace	-10.4847
▁realit	-10.4848
▁blaze	-10.4851
▁seconds	-10.4856
▁lin	-10.4861
▁explosive	-10.4863
▁infect	-10.4864
▁63	-10.4874
▁moderate	-10.4878
▁copy	-10.4878
har	-10.4882
▁observer	-10.4883
▁accord	-10.4895
▁bail	-10.4895
▁villa	-10.4898
▁larr	-10.4902
▁twin	-10.4906
▁paint	-10.4911
▁57	-10.4918
the	-10.4927
▁guns	-10.4938
▁realize	-10.4948
court	-10.4954
▁emerged	-10.4967
▁painting	-10.497
▁swimm	-10.4971
▁69	-10.4974
▁promis	-10.4978
▁brutal	-10.498
▁gathering	-10.4995
▁ire	-10.5008
▁contribute	-10.5025
▁documentar	-10.5028
▁episode	-10.5029
▁mortgage	-10.5029
▁pilgrim	-10.5029
▁mccorm	-10.5029
▁separatist	-10.503
▁panama	-10.503
▁elevator	-10.503
▁rumor	-10.5031
▁socialist	-10.5032
▁nak	-10.5032
mbled	-10.5037
▁urban	-10.5039
▁mental	-10.5041
▁payment	-10.5043
erdog	-10.5044
▁solid	-10.5049
▁fate	-10.5056
▁tale	-10.5091
▁steven	-10.5096
efa	-10.5098
lone	-10.5107
bul	-10.5113
▁somalia	-10.5128
tion	-10.5128
▁investigate	-10.5149
▁wal	-10.5193
hud	-10.5197
surance	-10.5202
▁resist	-10.5225
▁sovereign	-10.5233
▁experiment	-10.5233
▁technique	-10.5233
▁luxur	-10.5233
▁shareholder	-10.5234
▁await	-10.5234
▁stern	-10.5234
▁ryan	-10.5235
▁greek	-10.5235
▁slump	-10.5236
▁hezb	-10.5238
▁clark	-10.5239
▁arti	-10.5243
▁legislati	-10.5243
▁substantial	-10.5246
▁castro	-10.5246
▁steel	-10.5247
lor	-10.5251
▁hid	-10.5253
▁islamist	-10.5256
▁sch	-10.5269
mi	-10.5275
bus	-10.5278
▁ti	-10.5285
▁prayer	-10.5288
▁messages	-10.5295
ca	-10.5305
▁rob	-10.5306
▁enforce	-10.5312
▁lung	-10.5317
evin	-10.5331
▁villager	-10.5332
▁divide	-10.5332
▁cry	-10.5341
▁pal	-10.5348
▁shoulder	-10.535
▁manage	-10.5357
▁citi	-10.5368
▁68	-10.5369
ptive	-10.5377
12	-10.5381
gun	-10.5395
▁kid	-10.5397
▁patric	-10.54
led	-10.541
▁yi	-10.541
▁ordinar	-10.5411
▁custom	-10.5412
aks	-10.5414
▁participat	-10.542
▁malaysia	-10.5422
oney	-10.5431
▁kuwait	-10.5432
unami	-10.5432
▁czech	-10.5442
▁tennesse	-10.5442
▁hawaii	-10.5442
▁constant	-10.5442
▁benedict	-10.5442
▁departure	-10.5442
▁buddhist	-10.5442
▁huck	-10.5443
▁disappearance	-10.5443
▁taxi	-10.5444
▁sailor	-10.5444
▁1960	-10.5444
▁blitz	-10.5446
▁runoff	-10.5447
▁federation	-10.5447
▁emirate	-10.5447
arctic	-10.5454
▁conviction	-10.5457
▁rac	-10.5458
▁continent	-10.5462
▁im	-10.5462
▁copie	-10.5465
▁colon	-10.5468
▁fever	-10.547
▁dop	-10.5486
▁hen	-10.5486
▁apologiz	-10.5512
▁saving	-10.5519
rs	-10.5525
der	-10.5539
▁diet	-10.5553
▁broadcaster	-10.5564
▁laho	-10.5571
hood	-10.5586
▁hang	-10.5591
▁67	-10.5595
▁recognize	-10.5598
▁aren	-10.5602
▁clo	-10.5619
ny	-10.562
▁alex	-10.5621
▁handle	-10.5621
▁tropic	-10.5625
stein	-10.563
▁spill	-10.5648
▁depart	-10.5652
▁jeff	-10.5654
▁guerrilla	-10.5654
▁mexican	-10.5654
▁giuli	-10.5655
▁cease	-10.5655
▁toilet	-10.5655
▁strict	-10.5655
▁assessment	-10.5655
▁possession	-10.5657
▁davis	-10.566
▁roof	-10.5661
▁slam	-10.5663
▁scar	-10.5672
▁breath	-10.5674
ament	-10.5676
▁toys	-10.5692
▁hug	-10.5695
▁bo	-10.5704
▁masters	-10.5705
▁benefits	-10.5725
▁deny	-10.5726
▁regions	-10.5731
upper	-10.5741
▁mel	-10.5746
▁sao	-10.575
▁secular	-10.5752
▁strik	-10.5752
▁worker	-10.5754
▁greet	-10.5759
▁historical	-10.5763
▁66	-10.5768
ze	-10.5778
▁han	-10.578
tv	-10.5801
▁bal	-10.5801
▁jim	-10.5808
▁surviv	-10.5809
▁swede	-10.5809
▁cooper	-10.5812
ippi	-10.5818
ison	-10.582
▁inch	-10.5823
▁wins	-10.5824
▁balance	-10.5825
▁overcom	-10.5831
hattan	-10.5844
▁negotiat	-10.5846
▁austria	-10.5852
▁sole	-10.5852
▁andrew	-10.5859
▁72	-10.5868
▁vaccine	-10.5872
▁merkel	-10.5872
▁evil	-10.5872
▁muscle	-10.5872
▁false	-10.5872
▁toxic	-10.5872
▁creature	-10.5872
▁crown	-10.5873
owitz	-10.5874
▁estate	-10.5874
▁conclude	-10.5874
▁essential	-10.5874
▁liquid	-10.5874
▁inquest	-10.5878
▁exhibit	-10.588
▁mississ	-10.5885
▁accusation	-10.5888
▁absolutely	-10.5888
▁transferr	-10.5897
ki	-10.5898
▁confident	-10.59
▁tsv	-10.5905
▁electronics	-10.5906
▁intention	-10.5908
▁lo	-10.591
▁employee	-10.5952
▁teachers	-10.5962
▁react	-10.5964
▁mal	-10.5964
ional	-10.5969
ated	-10.5969
▁goalkeep	-10.5974
▁engag	-10.5977
▁instance	-10.5979
▁soil	-10.5986
▁fires	-10.599
▁weak	-10.599
▁mis	-10.5995
▁frame	-10.6
▁hitt	-10.6003
rew	-10.6003
ius	-10.6008
▁ahmad	-10.6012
00	-10.6025
▁whal	-10.6025
▁polan	-10.6025
▁function	-10.6027
▁oppos	-10.6036
▁85	-10.6047
▁viewers	-10.605
her	-10.6053
wright	-10.6057
▁dry	-10.6067
▁sri	-10.607
▁inform	-10.6079
▁invest	-10.6091
▁semifinal	-10.6093
▁ecuador	-10.6094
▁negative	-10.6094
▁surveill	-10.6094
▁caution	-10.6094
▁application	-10.6094
▁sweep	-10.6095
▁coca	-10.6098
▁graham	-10.6099
▁swed	-10.6099
▁expensive	-10.61
▁amazon	-10.6102
▁peacekeep	-10.6102
▁maca	-10.6104
▁flash	-10.6111
▁gray	-10.6117
ha	-10.612
▁owners	-10.6125
▁whit	-10.6125
▁sensitiv	-10.6126
fre	-10.6128
▁hero	-10.6134
ko	-10.6135
ably	-10.6136
viation	-10.6141
▁mistake	-10.6157
▁shore	-10.6158
▁chest	-10.6161
▁trend	-10.6175
▁revenue	-10.6177
losi	-10.6186
▁issu	-10.6196
▁pitch	-10.6213
▁anticipat	-10.6215
▁glas	-10.6233
▁bob	-10.6234
ova	-10.6234
▁comfort	-10.6243
▁dealing	-10.6246
▁hunting	-10.6248
▁inde	-10.6268
amid	-10.6278
▁ia	-10.6282
▁roma	-10.6287
lated	-10.6289
▁liberal	-10.6289
▁nur	-10.6309
▁prepare	-10.631
▁restrict	-10.6313
▁priva	-10.6319
▁authoriz	-10.6321
▁tunnel	-10.6322
▁initiative	-10.6322
sterol	-10.6322
▁vitamin	-10.6322
▁sheikh	-10.6323
▁greenhouse	-10.6323
▁apply	-10.6323
▁contrast	-10.6324
▁float	-10.6325
▁gear	-10.6327
▁ramo	-10.633
▁operator	-10.6331
▁reference	-10.6333
▁icon	-10.6335
▁vital	-10.6335
▁immigrat	-10.6338
▁cartoon	-10.6343
▁circumstances	-10.6343
▁cargo	-10.6345
more	-10.6351
▁der	-10.6356
30	-10.6359
▁mourn	-10.636
dev	-10.6363
▁hide	-10.6364
▁ag	-10.6368
▁fre	-10.6376
put	-10.6385
▁shipp	-10.6391
▁wale	-10.6391
▁endur	-10.6395
▁foreigner	-10.6397
▁warner	-10.6412
▁dominate	-10.642
▁settlement	-10.6423
▁achieve	-10.6431
▁coal	-10.6431
▁engage	-10.6439
▁syrian	-10.6443
50	-10.6445
▁plate	-10.6471
wise	-10.6474
▁attacker	-10.6483
▁dat	-10.6491
▁promot	-10.6492
▁atlant	-10.6497
▁meter	-10.6503
▁uni	-10.651
▁bell	-10.6511
▁peer	-10.6519
▁dominat	-10.6531
hdi	-10.6531
▁libya	-10.6534
▁replac	-10.654
▁relax	-10.6554
▁bangkok	-10.6554
▁volume	-10.6554
▁repair	-10.6554
▁exposure	-10.6554
▁economist	-10.6554
▁clock	-10.6555
▁egyptian	-10.6555
▁harsh	-10.6556
▁inspection	-10.6556
▁aftershock	-10.6556
▁pattern	-10.6558
▁panda	-10.6558
▁ioc	-10.6559
▁serb	-10.6559
yongbyon	-10.656
▁careful	-10.6561
▁fierce	-10.6561
▁collins	-10.6563
▁loyal	-10.6564
▁indication	-10.6564
▁communit	-10.6566
ran	-10.6572
▁brad	-10.6575
▁tim	-10.6576
▁inspir	-10.6586
▁visibl	-10.6592
▁publication	-10.6596
▁sick	-10.6596
▁shell	-10.6606
▁simon	-10.661
▁accounts	-10.661
▁winners	-10.6614
▁marks	-10.6618
▁slipp	-10.6619
fp	-10.6628
chi	-10.6629
▁bu	-10.6631
▁approve	-10.6631
aeus	-10.6639
▁goods	-10.664
▁worry	-10.665
▁burma	-10.6663
▁z	-10.6671
▁metropoli	-10.6678
▁maria	-10.6681
▁praise	-10.6681
▁robber	-10.6683
▁orchestra	-10.6688
arah	-10.669
▁prospect	-10.671
▁si	-10.6719
▁abduct	-10.6751
▁correct	-10.6761
▁tomb	-10.6767
▁ja	-10.6768
▁lanka	-10.6771
▁fisher	-10.6771
orrow	-10.679
▁encounter	-10.6792
▁benchmark	-10.6792
▁follower	-10.6792
▁drown	-10.6792
▁alarm	-10.6793
▁torture	-10.6793
▁impossible	-10.6793
▁stuff	-10.6793
▁lord	-10.6793
▁evacuation	-10.6794
▁indict	-10.6794
▁barrier	-10.6795
▁punish	-10.6795
▁bailout	-10.6797
▁bitter	-10.6797
▁argument	-10.6797
▁deadlie	-10.6803
▁pole	-10.6804
▁hopeful	-10.6804
▁negotiate	-10.6809
▁purchase	-10.6809
▁76	-10.681
▁tho	-10.6812
▁chant	-10.6814
▁emotional	-10.6817
▁nair	-10.6824
obi	-10.6829
▁overwhelming	-10.6839
indi	-10.6861
oil	-10.6861
▁lion	-10.6869
▁organ	-10.6873
onna	-10.6882
▁rodd	-10.6882
▁diya	-10.6884
▁frontier	-10.6888
▁shots	-10.6891
▁desire	-10.6904
▁hindu	-10.6904
▁promotion	-10.6911
▁reverse	-10.6911
ell	-10.6917
▁shi	-10.6929
▁phase	-10.693
▁hub	-10.695
▁centur	-10.695
▁athen	-10.6955
▁flower	-10.6959
▁reserved	-10.697
▁airway	-10.7002
east	-10.7004
▁believ	-10.7011
pol	-10.7018
▁teenage	-10.7023
▁gamb	-10.7025
▁latin	-10.7028
▁confront	-10.703
▁anchor	-10.7031
▁virgin	-10.7031
▁demonstrate	-10.7033
▁disorder	-10.7036
▁evolution	-10.7036
▁mitchell	-10.7036
▁mammal	-10.7036
▁offense	-10.7036
▁conclusion	-10.7036
▁joseph	-10.7036
▁typhoon	-10.7036
▁reduction	-10.7036
▁dawn	-10.7039
▁moore	-10.704
▁partners	-10.7041
▁meat	-10.7044
▁rath	-10.7047
▁yuan	-10.7048
▁alien	-10.7048
▁load	-10.7049
▁reward	-10.7049
▁1992	-10.7051
▁hospitals	-10.7054
▁interfer	-10.7055
▁zero	-10.7057
▁mont	-10.7061
▁flags	-10.7065
▁kent	-10.7078
▁matt	-10.7085
▁priorit	-10.7086
▁chip	-10.7087
▁zar	-10.71
▁99	-10.7103
et	-10.7109
380	-10.7119
▁decisions	-10.7124
sterda	-10.7144
▁crush	-10.7145
▁87	-10.7153
▁quote	-10.7165
▁doors	-10.7171
▁cons	-10.7176
▁albert	-10.718
arachi	-10.7184
▁requir	-10.7188
▁depend	-10.7194
▁sir	-10.7199
▁71	-10.72
▁joy	-10.7208
▁fi	-10.7215
▁fo	-10.7217
▁beef	-10.722
▁wa	-10.7225
▁securit	-10.7233
▁gerr	-10.7252
▁philip	-10.7253
que	-10.7262
▁yel	-10.7264
▁moham	-10.7273
▁wrap	-10.7279
▁disrupt	-10.728
▁televis	-10.7282
▁conclud	-10.7285
▁wreck	-10.7286
▁precaution	-10.7286
▁skull	-10.7286
▁rifle	-10.7286
▁absence	-10.7286
▁referendum	-10.7286
▁definite	-10.7286
▁spiritual	-10.7286
▁clinch	-10.7286
▁terminal	-10.7287
▁wilson	-10.7287
▁exclusive	-10.7287
▁visa	-10.7288
▁puert	-10.7289
▁warrant	-10.729
▁preparation	-10.729
nancy	-10.7293
▁fin	-10.7296
▁leftist	-10.7298
▁140	-10.7299
▁statistics	-10.7301
pped	-10.7303
▁portion	-10.7304
▁railway	-10.7305
▁slamm	-10.7307
▁sons	-10.7308
▁amaz	-10.7308
▁offender	-10.7313
▁fleet	-10.7314
▁upset	-10.732
▁deliberate	-10.7326
▁influ	-10.7327
standing	-10.733
▁apart	-10.7339
▁thinking	-10.7347
▁ok	-10.735
▁minorit	-10.7351
▁hunter	-10.7355
long	-10.7362
▁locate	-10.7375
crete	-10.738
▁pool	-10.7388
ches	-10.7394
▁seize	-10.7396
▁gate	-10.7397
▁adam	-10.74
▁passport	-10.7425
▁gift	-10.7427
▁shake	-10.7427
▁81	-10.7429
▁88	-10.7433
▁trick	-10.7435
▁rains	-10.7436
▁bru	-10.7446
▁amounts	-10.746
ball	-10.7463
▁habitat	-10.7465
ries	-10.7465
▁retail	-10.7468
▁resolv	-10.7487
▁pray	-10.7488
li	-10.7488
▁volunteers	-10.7495
▁wo	-10.7513
opec	-10.7514
drew	-10.7519
▁mountains	-10.7519
▁feed	-10.752
ek	-10.7525
lmand	-10.7531
▁granted	-10.7535
▁blog	-10.7535
▁dictator	-10.7542
▁enterprise	-10.7542
▁genocid	-10.7542
▁netherlands	-10.7542
▁occupation	-10.7542
▁sprawl	-10.7542
▁belief	-10.7542
▁inquir	-10.7543
▁dissident	-10.7543
▁spaniard	-10.7544
▁shara	-10.7547
▁specialist	-10.7547
luton	-10.7548
▁regulator	-10.7548
▁walter	-10.7549
▁dust	-10.7552
▁kath	-10.7555
▁sect	-10.7558
▁flat	-10.756
▁sha	-10.7564
▁opposit	-10.7565
▁sacr	-10.7569
▁harr	-10.757
▁grass	-10.7575
▁77	-10.7585
▁v	-10.7615
irai	-10.7627
▁lights	-10.763
no	-10.7634
▁91	-10.7637
▁powers	-10.7647
▁93	-10.7647
▁kans	-10.7662
▁argue	-10.7674
▁mart	-10.7681
▁trader	-10.7689
▁gu	-10.769
ehouse	-10.7692
▁nurse	-10.7704
▁compet	-10.7708
room	-10.7713
▁elector	-10.7714
▁ram	-10.7715
▁bolt	-10.7717
▁harv	-10.7727
precedent	-10.7727
▁theft	-10.7735
▁forum	-10.7742
confirmed	-10.7742
ral	-10.7767
▁yun	-10.7767
▁isolat	-10.7772
omar	-10.7784
▁iron	-10.7798
▁yemen	-10.7799
▁consult	-10.78
▁imprison	-10.7805
▁breakthrough	-10.7806
▁controversy	-10.7806
▁tabloid	-10.7806
▁tissue	-10.7806
▁dolphin	-10.7806
▁qualify	-10.7806
▁ambush	-10.7806
▁suspension	-10.7806
▁orlean	-10.7806
▁bodyguard	-10.7806
▁expansion	-10.7806
▁retain	-10.7806
▁kanda	-10.7807
▁turm	-10.7808
oprah	-10.7808
▁wireless	-10.7808
▁midfielder	-10.7808
▁supposed	-10.7809
▁traged	-10.7809
▁priest	-10.7809
▁amnes	-10.781
▁mer	-10.781
▁extraordinar	-10.781
▁detainee	-10.7811
▁timor	-10.7811
▁albanian	-10.7812
▁ahmed	-10.7814
▁gross	-10.7818
▁restor	-10.7822
▁matters	-10.7822
▁landscape	-10.7823
tsin	-10.7824
▁concept	-10.7826
▁86	-10.7828
▁limb	-10.7842
▁plays	-10.7843
▁medi	-10.7847
▁portray	-10.7853
▁ga	-10.7855
▁afterward	-10.7856
▁ker	-10.7856
▁pan	-10.7856
ting	-10.7857
▁universal	-10.786
▁core	-10.7863
▁nice	-10.7865
▁wel	-10.7865
▁stressed	-10.7866
ada	-10.7867
▁ugl	-10.7868
▁wire	-10.7868
vili	-10.7875
▁hir	-10.7882
▁headline	-10.7896
▁pleas	-10.7915
▁uncover	-10.7919
ants	-10.7925
▁mob	-10.7926
▁missou	-10.7933
▁rod	-10.7936
▁160	-10.7937
▁nazi	-10.7941
▁trace	-10.7942
iest	-10.7945
▁statue	-10.7966
nell	-10.7968
▁sand	-10.7971
▁attach	-10.7972
▁chancell	-10.7972
▁forget	-10.7981
ible	-10.7984
▁moral	-10.7989
▁tower	-10.7992
▁fift	-10.7992
▁900	-10.7993
ribe	-10.8005
▁abus	-10.801
▁ku	-10.8027
ay	-10.803
lain	-10.8034
▁geologic	-10.8046
▁breed	-10.8051
▁touris	-10.8054
▁hasn	-10.8066
▁craft	-10.8069
▁grenad	-10.8071
▁bloom	-10.8071
▁infant	-10.8075
▁dispatch	-10.8076
▁asteroid	-10.8076
▁crocodile	-10.8076
▁minimum	-10.8076
▁marathon	-10.8076
▁motorcycle	-10.8076
▁escort	-10.8076
▁cigarette	-10.8076
▁tornado	-10.8076
▁twenty	-10.8077
▁foster	-10.8078
▁dalla	-10.8078
▁suspicious	-10.8078
▁snake	-10.8079
fish	-10.8079
▁hamid	-10.8081
▁freeze	-10.8085
▁creation	-10.8086
▁efficient	-10.8091
▁guan	-10.8093
head	-10.8095
▁mom	-10.8099
▁180	-10.8101
cation	-10.8112
▁serbian	-10.8113
ul	-10.8131
▁78	-10.8134
▁sevill	-10.8134
▁clay	-10.814
ioxid	-10.8141
▁belgi	-10.8156
▁sung	-10.8157
▁habit	-10.8158
anamo	-10.816
▁rivers	-10.8185
waz	-10.8185
▁banner	-10.8185
▁primari	-10.8191
▁proceed	-10.82
▁joke	-10.8209
▁divid	-10.8221
un	-10.8222
▁communicate	-10.8224
phy	-10.8228
med	-10.8238
▁burst	-10.8255
▁oversee	-10.8259
col	-10.8263
fall	-10.8275
identified	-10.8279
▁escap	-10.828
▁inspire	-10.8299
tada	-10.83
▁stick	-10.8303
ification	-10.8311
tar	-10.832
ose	-10.8321
▁analys	-10.834
▁aids	-10.834
▁industri	-10.8343
▁undergo	-10.8343
ological	-10.8349
▁spectac	-10.8351
▁fulfill	-10.8354
▁platform	-10.8354
▁beautiful	-10.8354
▁vermont	-10.8354
▁mortar	-10.8354
▁archaeologist	-10.8354
▁courage	-10.8354
▁mercur	-10.8355
▁guideline	-10.8356
held	-10.8356
▁fuji	-10.8357
▁afr	-10.8357
▁katrin	-10.8358
▁1950	-10.8359
▁empty	-10.8359
▁residence	-10.8359
overt	-10.836
▁musician	-10.8361
▁iphone	-10.8361
▁mask	-10.8364
▁background	-10.8365
▁chamber	-10.837
▁oscars	-10.8371
▁stroke	-10.8374
▁astronomer	-10.8382
itis	-10.8382
▁rep	-10.8386
▁odd	-10.8389
▁lend	-10.8392
▁bang	-10.8393
▁bron	-10.8394
▁entry	-10.8395
▁imagine	-10.8406
▁towns	-10.8411
manuel	-10.8412
▁sam	-10.8418
▁nominat	-10.842
sen	-10.8421
▁stag	-10.8421
▁ph	-10.8422
▁eric	-10.8428
ward	-10.8456
▁anna	-10.8464
▁electora	-10.8465
delphi	-10.8465
▁tackle	-10.8475
▁tickets	-10.848
▁embrace	-10.8502
▁combin	-10.8506
▁hack	-10.8511
▁82	-10.8517
tery	-10.8518
▁confrontation	-10.8538
▁kyo	-10.8539
▁classifie	-10.8551
▁mon	-10.8556
ishu	-10.8558
▁chase	-10.856
▁politician	-10.8564
▁laugh	-10.8569
▁decid	-10.8575
▁ke	-10.8577
▁cooperate	-10.8593
▁impose	-10.8601
gen	-10.8613
▁shah	-10.8616
▁contribut	-10.8636
▁raped	-10.8638
▁immigrant	-10.8639
▁religion	-10.8639
▁superior	-10.8639
▁technologies	-10.8639
▁composite	-10.8639
▁campbell	-10.8639
▁harbor	-10.8639
▁depth	-10.8639
▁petition	-10.8639
▁destination	-10.864
▁salmon	-10.864
▁biologist	-10.864
▁abortion	-10.864
▁download	-10.864
▁73	-10.864
▁medication	-10.8641
▁moga	-10.8643
▁prominent	-10.8644
▁shrine	-10.8645
▁disruption	-10.8646
▁retract	-10.8646
▁adapt	-10.8647
▁legitimate	-10.8647
▁phila	-10.8649
▁torre	-10.8655
▁permissi	-10.8661
▁defending	-10.8666
▁79	-10.867
▁110	-10.8671
▁attitude	-10.8672
▁spray	-10.8675
▁melt	-10.8678
▁castle	-10.8679
ood	-10.868
cut	-10.8681
▁turnout	-10.8694
ita	-10.8698
▁pig	-10.87
▁smash	-10.8708
▁rent	-10.871
▁undermine	-10.8715
▁bowl	-10.8718
wa	-10.872
▁taste	-10.8735
ullah	-10.8738
ppp	-10.8752
▁revolution	-10.8761
▁deteriorat	-10.8766
rio	-10.8777
▁argentine	-10.879
▁pen	-10.8796
▁inmate	-10.8804
▁recognized	-10.8814
▁faction	-10.8819
▁libert	-10.8822
kate	-10.8822
▁fl	-10.8826
half	-10.8859
ach	-10.8862
▁impo	-10.8868
▁pointed	-10.8872
▁victoria	-10.8876
fire	-10.8876
▁master	-10.8887
▁battles	-10.8903
▁advi	-10.8904
▁pursue	-10.8906
▁bei	-10.8911
▁uganda	-10.8912
▁ta	-10.892
pov	-10.8922
▁prais	-10.8925
▁confess	-10.8927
▁191	-10.8928
▁watcher	-10.8929
eva	-10.8931
▁dinosaur	-10.8933
▁transplant	-10.8933
▁extensive	-10.8933
▁monarch	-10.8933
▁restrain	-10.8933
▁prosper	-10.8934
▁zawah	-10.8934
▁blanket	-10.8934
▁prestig	-10.8934
▁infra	-10.8934
▁substance	-10.8934
▁obligation	-10.8934
▁saint	-10.8934
▁instant	-10.8934
burgh	-10.8934
▁epic	-10.8934
▁strategic	-10.8934
▁descend	-10.8935
▁honest	-10.8935
▁univers	-10.8936
▁appointment	-10.8937
▁recycl	-10.8937
▁insult	-10.8938
▁recommendation	-10.8938
▁resistance	-10.8938
▁audio	-10.8939
▁launder	-10.8939
▁elephant	-10.894
▁everywhere	-10.8943
ad	-10.8943
▁introduce	-10.8944
▁utilit	-10.8945
▁brook	-10.8947
▁350	-10.8947
▁silver	-10.8948
▁attraction	-10.8949
▁loud	-10.8949
lanta	-10.8952
ov	-10.896
▁pour	-10.8964
▁unna	-10.8965
▁publisher	-10.8965
▁drawing	-10.8968
▁bon	-10.8974
▁proceedings	-10.8985
▁elaborate	-10.8988
▁mor	-10.8988
▁graduate	-10.8989
ver	-10.8993
▁tries	-10.8996
▁micro	-10.9001
ev	-10.9013
▁challeng	-10.9018
▁retailer	-10.902
▁lov	-10.9031
▁oh	-10.9031
▁emp	-10.9041
▁samar	-10.9048
dog	-10.9049
▁mud	-10.9054
ila	-10.9059
▁pav	-10.906
▁sight	-10.9072
▁bow	-10.9073
▁fake	-10.908
sburg	-10.9081
▁comfortabl	-10.9087
▁achiev	-10.9088
veral	-10.9097
▁raz	-10.9138
▁mara	-10.9139
rut	-10.914
▁jewel	-10.9144
ba	-10.9163
▁wav	-10.9164
▁ranch	-10.9165
hook	-10.9175
▁infection	-10.9176
shore	-10.9178
▁nicole	-10.9181
▁criticize	-10.9184
▁wrapp	-10.9185
mumba	-10.9191
▁consum	-10.9192
sumption	-10.9196
▁preserve	-10.9199
▁transform	-10.9199
mond	-10.9207
▁ri	-10.9208
▁traffick	-10.9211
▁happening	-10.9215
▁victor	-10.9216
▁occur	-10.9216
▁encourag	-10.9217
▁pyo	-10.923
▁cult	-10.9233
▁embarrass	-10.9236
▁ambulance	-10.9236
▁concession	-10.9236
▁eagle	-10.9236
▁instrument	-10.9236
▁unacceptabl	-10.9236
▁videotape	-10.9236
▁testify	-10.9236
▁crater	-10.9236
▁tumor	-10.9237
▁copyright	-10.9237
▁balloon	-10.9237
▁trillion	-10.9237
▁fault	-10.9237
▁pipeline	-10.9237
▁johannes	-10.9237
▁economies	-10.9237
▁reconstruction	-10.9237
▁consequence	-10.9238
▁surprising	-10.9238
▁trademark	-10.9238
▁tribute	-10.9238
▁archive	-10.9238
▁ibm	-10.9239
▁baseball	-10.924
▁consistent	-10.924
▁dragg	-10.9241
▁urgent	-10.9241
v	-10.9241
▁polar	-10.9243
mpson	-10.9248
▁successor	-10.9248
▁kang	-10.9248
▁ruin	-10.9249
▁strand	-10.9256
▁plent	-10.926
▁canne	-10.9267
▁au	-10.9267
▁pollut	-10.9273
ebay	-10.9279
latter	-10.928
▁reiterat	-10.9302
▁refuge	-10.9302
▁bars	-10.9304
▁smil	-10.931
▁topic	-10.9312
▁sink	-10.9316
▁hostil	-10.932
▁ge	-10.9336
clusive	-10.9339
oding	-10.9345
▁remarkabl	-10.9349
▁sin	-10.9349
▁wash	-10.9362
olmer	-10.9362
bility	-10.9362
athrow	-10.9368
▁fatalit	-10.937
▁penn	-10.9377
▁tay	-10.9386
79	-10.9389
kara	-10.941
nce	-10.9424
▁amin	-10.9424
▁newly	-10.9431
ulu	-10.9432
ate	-10.9452
▁giv	-10.9452
▁193	-10.9456
989	-10.9464
▁ac	-10.9466
harto	-10.9467
skirt	-10.9468
cef	-10.947
▁je	-10.9474
▁74	-10.9487
he	-10.9492
▁sat	-10.9496
dari	-10.9497
▁bacteria	-10.9498
front	-10.9499
▁swor	-10.9514
▁thu	-10.9517
▁thick	-10.9522
▁nigeria	-10.9529
▁cheap	-10.9535
▁slip	-10.9544
▁counsel	-10.9545
▁ab	-10.9548
▁oxygen	-10.9549
▁pichushkin	-10.9549
▁widow	-10.9549
▁convey	-10.9549
▁lynch	-10.9549
▁ballistic	-10.9549
▁chicken	-10.955
iscons	-10.955
▁expell	-10.955
▁diabet	-10.955
▁implication	-10.955
ronto	-10.9551
▁barbara	-10.9551
▁brick	-10.9552
▁distribution	-10.9553
▁tribunal	-10.9553
▁rebound	-10.9553
▁burden	-10.9553
▁grenade	-10.9556
▁steal	-10.9557
▁drift	-10.9557
▁lone	-10.9558
bo	-10.9559
▁ethiopian	-10.9562
▁insurgenc	-10.9563
▁belgian	-10.9563
▁stalin	-10.9563
akash	-10.9565
▁observation	-10.9567
▁spur	-10.957
▁contractor	-10.9575
▁libyan	-10.9576
▁petrole	-10.9577
ella	-10.9578
▁shap	-10.9578
▁nh	-10.9582
▁personalit	-10.9584
▁jacque	-10.9584
▁laid	-10.959
▁magic	-10.9598
▁nikk	-10.9603
▁tanker	-10.9617
▁spike	-10.9635
▁clue	-10.964
▁advanc	-10.9646
inho	-10.9657
mo	-10.9663
▁hood	-10.9664
▁pun	-10.9671
air	-10.9678
▁tr	-10.9685
▁dad	-10.9695
stone	-10.9712
▁kiss	-10.9712
▁displac	-10.9721
gged	-10.9723
▁84	-10.9723
ors	-10.9752
▁posting	-10.9756
▁sec	-10.9764
▁jam	-10.9768
ud	-10.9783
▁clip	-10.9784
▁prior	-10.9784
▁venture	-10.9787
▁expos	-10.979
▁execut	-10.9792
dona	-10.9793
▁br	-10.9809
▁plac	-10.9835
▁inaugurat	-10.9838
▁hike	-10.9838
▁grab	-10.9852
uri	-10.9855
▁stead	-10.9855
▁equit	-10.9861
▁tap	-10.9864
▁briefing	-10.9868
▁component	-10.9871
▁norwegian	-10.9871
▁predecessor	-10.9871
▁volatil	-10.9871
▁telescope	-10.9872
▁lewis	-10.9872
▁globo	-10.9872
▁amendment	-10.9873
▁donald	-10.9873
▁unique	-10.9874
▁detective	-10.9874
▁lobby	-10.9874
▁partnership	-10.9874
▁motion	-10.9875
▁romantic	-10.9877
▁contribution	-10.9877
▁pronounce	-10.9878
▁rawal	-10.9878
▁principal	-10.9878
▁grace	-10.9878
▁monkey	-10.9879
horta	-10.9879
ssels	-10.988
▁guess	-10.988
▁herald	-10.988
▁ferg	-10.988
ending	-10.9881
▁proliferat	-10.9881
▁replacement	-10.9881
tive	-10.9883
▁eruption	-10.9884
▁commuter	-10.9891
▁cape	-10.9891
▁muq	-10.9894
▁charter	-10.9895
▁dirt	-10.99
▁useful	-10.9902
▁rider	-10.991
▁toba	-10.9914
▁mice	-10.9918
▁luis	-10.9918
▁boxes	-10.992
▁homeless	-10.9924
▁donation	-10.993
▁krem	-10.9936
▁disable	-10.9939
not	-10.9939
▁fred	-10.9939
mate	-10.9939
▁occasion	-10.994
▁worsen	-10.9941
▁mall	-10.9944
▁crossing	-10.9947
▁defender	-10.9952
▁chat	-10.9953
▁cre	-10.9954
▁rudd	-10.9956
ega	-10.9959
▁propose	-10.9961
▁sheet	-10.9969
▁linds	-10.9984
▁theme	-10.9987
▁juan	-10.9997
▁hail	-10.9998
▁menu	-11.0004
ke	-11.001
▁ch	-11.001
mon	-11.0038
▁disarm	-11.0039
dale	-11.0057
▁compromise	-11.0068
▁meal	-11.0088
▁briton	-11.0091
▁qu	-11.0103
ps	-11.0105
world	-11.0109
▁golf	-11.0127
stream	-11.0127
▁clon	-11.0127
am	-11.0129
▁monte	-11.013
004	-11.0133
ho	-11.0137
▁125	-11.0149
kat	-11.0152
pel	-11.0155
▁violate	-11.0157
▁glen	-11.0157
▁twist	-11.0162
▁83	-11.0168
▁principles	-11.017
▁dun	-11.0175
▁visual	-11.0176
▁pres	-11.0176
▁horse	-11.0179
▁polici	-11.0199
▁103	-11.02
tarian	-11.02
refore	-11.0204
▁psycholog	-11.0205
▁greenpeace	-11.0205
▁sophisticat	-11.0205
▁yonhap	-11.0205
▁aquarium	-11.0205
▁crocker	-11.0205
▁autonom	-11.0205
▁retreat	-11.0205
▁mercedes	-11.0205
▁strait	-11.0205
▁steep	-11.0205
▁incredibl	-11.0205
▁landmark	-11.0205
▁probation	-11.0206
▁tripoli	-11.0206
▁classroom	-11.0206
▁prosecution	-11.0206
▁embryo	-11.0206
▁surf	-11.0206
▁motive	-11.0206
▁airplane	-11.0206
▁kidney	-11.0206
▁strategist	-11.0207
▁haul	-11.0207
▁weakness	-11.0207
▁installation	-11.0207
▁ibrahim	-11.0209
▁circuit	-11.0209
▁acid	-11.0209
▁assertion	-11.0211
▁tu	-11.0211
used	-11.0212
▁objective	-11.0212
▁respective	-11.0214
ubble	-11.0215
▁smuggl	-11.0216
▁smart	-11.0216
▁pride	-11.0217
▁jean	-11.0218
ou	-11.022
▁proof	-11.022
▁opt	-11.0221
11	-11.0223
sul	-11.0231
▁burial	-11.0232
▁woods	-11.0237
em	-11.024
▁hiv	-11.0241
gt	-11.0248
▁congratulat	-11.026
▁examin	-11.0262
▁suggestion	-11.0265
▁zoe	-11.0266
▁admit	-11.0269
▁futures	-11.0269
ential	-11.027
▁expire	-11.0272
▁baham	-11.0273
▁luna	-11.0273
▁strange	-11.0275
▁hud	-11.028
▁ash	-11.0284
▁distribut	-11.0287
▁vers	-11.0291
▁bhut	-11.0297
cher	-11.0311
▁interfere	-11.0328
▁slide	-11.0331
▁define	-11.0333
▁lu	-11.0343
ficial	-11.0346
▁fe	-11.0348
▁shouted	-11.0349
▁endorse	-11.035
▁deck	-11.036
▁kell	-11.0371
▁developer	-11.0374
▁kat	-11.0375
▁jin	-11.0395
armament	-11.0398
▁persuade	-11.0405
if	-11.0406
och	-11.0416
▁financ	-11.0455
be	-11.0463
▁samsun	-11.0463
▁drum	-11.0472
▁exploit	-11.0472
▁massacre	-11.0488
▁vision	-11.049
▁201	-11.0504
▁manufacturers	-11.0509
▁circle	-11.0512
orry	-11.0518
▁inche	-11.0522
▁polluti	-11.0522
station	-11.0539
▁vulnerab	-11.0543
▁prohibit	-11.0545
▁enormous	-11.055
▁coincide	-11.055
▁desperate	-11.055
▁eager	-11.055
▁absent	-11.055
▁bolster	-11.055
▁gunshot	-11.055
▁casino	-11.055
▁animated	-11.055
▁echo	-11.055
▁outdoor	-11.055
▁admission	-11.055
▁scatter	-11.055
▁reputation	-11.055
▁entrance	-11.055
▁interrogation	-11.0551
▁drill	-11.0551
▁eve	-11.0552
▁zap	-11.0552
▁examination	-11.0552
▁kph	-11.0552
▁curb	-11.0552
▁endorsement	-11.0553
▁polish	-11.0553
▁brewer	-11.0559
verish	-11.0561
▁celebration	-11.0561
▁branches	-11.0562
▁chrys	-11.0567
like	-11.0568
▁grabb	-11.0571
▁ron	-11.0576
▁sideline	-11.0581
▁escalat	-11.0585
▁repatriat	-11.0588
▁complicat	-11.059
▁silv	-11.0597
ware	-11.0599
▁allen	-11.0606
udh	-11.0622
▁rigg	-11.0626
▁challenger	-11.0641
▁armor	-11.0642
▁importan	-11.0652
▁terr	-11.0665
▁richards	-11.0666
▁ignore	-11.0669
▁hijack	-11.0677
▁89	-11.0678
ago	-11.0687
titude	-11.0691
▁98	-11.0699
▁hearts	-11.0701
▁kissing	-11.0706
▁ripp	-11.072
nke	-11.0721
ks	-11.0728
▁theory	-11.0732
▁ideal	-11.0738
▁killer	-11.0753
can	-11.0764
▁cats	-11.0777
▁swing	-11.0792
▁gi	-11.0796
math	-11.0806
bourne	-11.0808
▁capabilit	-11.0808
▁tea	-11.0811
▁cop	-11.0817
ola	-11.0826
▁ni	-11.0833
mori	-11.0837
▁inner	-11.0846
▁silence	-11.085
pact	-11.0852
▁accompani	-11.0863
▁expanding	-11.0869
▁bak	-11.0872
▁biolog	-11.0881
▁rash	-11.0883
▁spare	-11.0889
mer	-11.0896
▁fernand	-11.0898
▁cleve	-11.0898
▁hidd	-11.0899
▁exam	-11.0902
▁possess	-11.0903
▁catastroph	-11.0907
▁fossil	-11.0907
▁unsuccessful	-11.0907
▁historian	-11.0907
▁yield	-11.0907
▁deficit	-11.0907
▁incursion	-11.0907
▁sierra	-11.0907
▁inhabit	-11.0907
▁bathroom	-11.0907
▁perception	-11.0907
▁prophet	-11.0907
▁bedroom	-11.0907
droe	-11.0908
▁unfair	-11.0908
▁mirror	-11.0908
▁sentiment	-11.0908
▁height	-11.0908
▁hint	-11.0909
▁combination	-11.091
▁gender	-11.0911
▁poison	-11.0911
▁scream	-11.0912
▁leonard	-11.0912
▁breach	-11.0912
▁fertil	-11.0913
▁engagement	-11.0913
▁outlook	-11.0914
▁timetable	-11.0914
▁abduction	-11.0914
▁impression	-11.0917
▁ivor	-11.0918
▁presentation	-11.0921
▁assert	-11.0922
▁greenland	-11.0923
▁accidental	-11.0924
▁sensor	-11.0926
▁mere	-11.0928
ucky	-11.0928
▁mill	-11.0931
▁veto	-11.0932
▁torn	-11.0936
▁drought	-11.0937
▁cle	-11.0939
▁intervene	-11.0939
▁horses	-11.0941
ogge	-11.0942
▁mac	-11.0942
lum	-11.0942
▁milk	-11.0944
▁mumm	-11.0945
iego	-11.0949
ning	-11.095
▁marie	-11.0957
▁pad	-11.0958
henin	-11.0958
▁fence	-11.0988
▁vessels	-11.0991
▁patriot	-11.1003
▁mines	-11.1007
ala	-11.1007
▁pla	-11.1012
▁pure	-11.1012
▁lender	-11.1013
▁eggs	-11.1015
▁bever	-11.102
▁punch	-11.103
▁amy	-11.1036
▁pat	-11.1041
▁rings	-11.1055
lisa	-11.1057
▁plung	-11.106
▁exhibition	-11.1068
elite	-11.1069
ture	-11.1073
▁ar	-11.1074
▁install	-11.1077
▁nose	-11.1082
▁jets	-11.1087
▁parker	-11.1091
▁launching	-11.1099
▁matsu	-11.1101
ider	-11.1103
cantil	-11.1127
▁meteor	-11.1146
▁lope	-11.1152
tti	-11.1161
▁05	-11.1166
viel	-11.1168
mouth	-11.1189
▁brave	-11.1213
▁disabl	-11.1218
▁harris	-11.1222
maker	-11.1226
▁berna	-11.1228
▁johnsto	-11.1239
▁marr	-11.1244
ron	-11.1246
▁luc	-11.1248
▁dar	-11.1251
▁mini	-11.1256
▁arrang	-11.1256
▁clos	-11.1263
▁connecti	-11.1267
▁drunk	-11.1272
▁phenomen	-11.1273
▁disagree	-11.1275
▁triumph	-11.1277
▁household	-11.1277
▁approximate	-11.1277
▁cathedral	-11.1277
▁equivalent	-11.1277
▁judiciar	-11.1277
▁paparazz	-11.1277
▁transaction	-11.1277
▁unexpected	-11.1277
▁ultra	-11.1277
▁cricket	-11.1277
▁carpet	-11.1277
▁bargain	-11.1277
▁epicenter	-11.1277
▁migrant	-11.1277
▁margaret	-11.1277
▁aspect	-11.1277
▁unemploy	-11.1277
▁sued	-11.1277
▁pepper	-11.1277
▁oregon	-11.1277
▁brigade	-11.1277
▁ftse	-11.1277
▁physician	-11.1278
▁anonymous	-11.1278
▁exceed	-11.1278
▁lifestyle	-11.1278
▁facebook	-11.1278
▁copper	-11.1279
▁holland	-11.1279
▁talent	-11.1279
▁correspondent	-11.128
▁protein	-11.128
▁pardon	-11.128
▁respondent	-11.1281
ement	-11.1281
▁tip	-11.1282
▁constitute	-11.1282
▁minus	-11.1285
rbala	-11.1285
▁fernando	-11.1287
▁finger	-11.1292
nforcement	-11.1295
▁inventor	-11.1296
▁rover	-11.1297
▁explorer	-11.1298
▁miller	-11.13
raig	-11.1306
▁dave	-11.1307
▁bankruptc	-11.1309
▁emerg	-11.1312
▁tension	-11.1312
▁malaysian	-11.1313
▁assured	-11.1316
▁slaughter	-11.1318
▁outfit	-11.1326
▁brian	-11.1329
▁lecture	-11.133
▁manner	-11.1335
▁pali	-11.1349
▁mood	-11.1356
▁kam	-11.1358
▁reviv	-11.1359
▁partial	-11.1363
▁lesson	-11.1377
▁cri	-11.1384
▁ear	-11.1389
nmark	-11.1392
il	-11.1393
▁signing	-11.14
▁diseases	-11.1404
▁morocc	-11.1411
▁mous	-11.1413
egger	-11.1413
▁penguins	-11.1415
▁ignor	-11.142
children	-11.1425
▁emb	-11.1442
▁plott	-11.1446
▁broker	-11.1454
▁juni	-11.1463
ilateral	-11.1466
▁cook	-11.1471
▁arena	-11.1485
▁populat	-11.1488
▁carac	-11.1489
▁troubl	-11.1498
▁plunge	-11.15
▁rev	-11.1505
▁om	-11.1512
▁lamp	-11.1512
▁hanging	-11.1528
▁lean	-11.155
▁holder	-11.1554
▁opera	-11.1559
furt	-11.1566
▁phil	-11.1573
structure	-11.1578
▁emi	-11.1579
▁neil	-11.1582
specifi	-11.1583
▁jay	-11.1587
wai	-11.1588
▁coll	-11.1612
tten	-11.1615
eeth	-11.1616
▁retire	-11.164
▁cambodia	-11.1641
ked	-11.1646
▁tips	-11.1654
▁depict	-11.1657
▁bust	-11.1657
ecutive	-11.1661
▁intent	-11.1661
judicial	-11.1661
▁consensu	-11.1662
▁invitation	-11.1662
▁pistol	-11.1662
▁rhode	-11.1662
▁schwarz	-11.1662
▁script	-11.1662
▁croatia	-11.1662
▁pioneer	-11.1662
▁bmw	-11.1662
▁kuznetsov	-11.1662
▁hazard	-11.1662
▁keith	-11.1662
▁regain	-11.1662
▁wildfire	-11.1662
▁random	-11.1663
▁constructive	-11.1663
▁hamper	-11.1663
▁prolong	-11.1664
▁duck	-11.1664
▁gibbon	-11.1665
▁tayyi	-11.1665
▁foment	-11.1667
▁knut	-11.1667
▁bel	-11.1667
ampa	-11.1668
▁spell	-11.1669
▁borrow	-11.1671
▁operative	-11.1672
▁billionaire	-11.1673
▁thirty	-11.1674
▁coverage	-11.1676
▁thriller	-11.1678
ino	-11.1679
▁survival	-11.1679
▁defect	-11.1682
ario	-11.1686
▁procedure	-11.1686
▁hometown	-11.1688
▁wayne	-11.169
▁saga	-11.1693
kia	-11.1694
▁submitt	-11.1694
▁deepen	-11.1696
▁austrian	-11.1698
▁premiere	-11.17
▁shooter	-11.1705
▁conscious	-11.1706
▁bonds	-11.1708
▁contender	-11.1709
▁bur	-11.1709
▁minne	-11.171
▁pend	-11.1715
▁rand	-11.1726
▁capt	-11.1726
▁coat	-11.1728
▁shattered	-11.1728
▁leap	-11.1737
mann	-11.1745
▁patroll	-11.1756
▁shelve	-11.1764
▁scrambl	-11.1767
▁knowing	-11.1767
cc	-11.1769
▁spice	-11.1789
▁nori	-11.1789
▁ethan	-11.1796
▁explode	-11.1802
nan	-11.1807
▁marc	-11.1809
▁terra	-11.1811
lando	-11.1821
▁bath	-11.1826
▁buyer	-11.1826
▁surpass	-11.1836
▁format	-11.1837
▁bout	-11.1838
▁usa	-11.1841
uc	-11.1844
▁sta	-11.1844
▁rid	-11.1844
▁soul	-11.1845
▁ward	-11.1846
ot	-11.1858
itz	-11.1858
▁determin	-11.1863
onica	-11.1864
▁lunch	-11.1867
rous	-11.187
tray	-11.1883
llo	-11.1887
▁concede	-11.1892
▁pri	-11.1897
▁measur	-11.1899
▁experienc	-11.1902
▁immun	-11.1903
▁anim	-11.1903
lena	-11.1905
▁nud	-11.191
▁condon	-11.1915
▁origin	-11.1922
ster	-11.1923
▁ark	-11.1938
▁dropping	-11.1943
ok	-11.1946
▁ir	-11.1966
teen	-11.1969
teria	-11.1975
nba	-11.1982
munition	-11.1984
▁screening	-11.199
▁portra	-11.1998
aro	-11.2003
▁secur	-11.2004
▁tent	-11.2009
▁advise	-11.2011
▁emerge	-11.2011
▁rely	-11.2012
ef	-11.2024
▁grandm	-11.2025
▁remind	-11.2032
▁purchas	-11.2033
▁cla	-11.2035
▁almo	-11.2043
04	-11.2048
▁woo	-11.2048
▁jihad	-11.2052
▁buzz	-11.2054
▁observ	-11.2055
cal	-11.2057
▁bride	-11.2061
▁administrator	-11.2062
▁comprehensive	-11.2062
▁curfew	-11.2062
▁expense	-11.2062
▁explanation	-11.2062
▁fortress	-11.2062
▁subsequent	-11.2062
▁swift	-11.2062
▁crystal	-11.2062
▁swallow	-11.2062
▁starbuck	-11.2062
▁intervention	-11.2062
▁distress	-11.2062
▁notorious	-11.2062
▁prescription	-11.2062
▁psychiatr	-11.2062
▁steam	-11.2062
▁slogan	-11.2062
▁expedition	-11.2062
dorf	-11.2063
▁donkey	-11.2063
▁toddler	-11.2063
▁orthodox	-11.2064
▁pocket	-11.2064
▁coroner	-11.2064
▁dementi	-11.2065
▁slugg	-11.2065
▁pornograph	-11.2066
▁attractive	-11.2066
▁painful	-11.2066
▁eligib	-11.2067
▁equipp	-11.2068
▁mode	-11.2068
bani	-11.2068
▁overturn	-11.2069
▁warehouse	-11.207
▁ufo	-11.207
▁impress	-11.207
▁occupie	-11.2073
rk	-11.2074
▁divert	-11.2075
▁mullah	-11.2076
▁brush	-11.2076
▁agenc	-11.2079
▁lifetime	-11.2079
▁wheat	-11.2079
▁knight	-11.208
▁belov	-11.2082
▁investigations	-11.2085
▁passion	-11.2085
ini	-11.2087
▁favorable	-11.2092
▁101	-11.2092
▁gravit	-11.2094
▁mobil	-11.2094
▁hire	-11.2098
▁hawk	-11.2098
▁advisor	-11.21
▁ze	-11.21
▁principle	-11.2105
port	-11.2111
▁procession	-11.2117
j	-11.2117
ck	-11.2123
▁publish	-11.2127
▁user	-11.2134
▁tuck	-11.2138
▁adventure	-11.2151
▁sum	-11.2158
stance	-11.2159
▁ivan	-11.2162
▁yoo	-11.2162
▁surg	-11.2173
▁salt	-11.2173
▁panic	-11.2194
ail	-11.2196
ello	-11.2198
istic	-11.2203
▁solt	-11.2206
▁fisherm	-11.2214
ington	-11.2219
▁denounc	-11.2224
▁reduc	-11.2242
▁thron	-11.2246
▁oak	-11.2247
▁sars	-11.2248
▁drinker	-11.2252
▁therap	-11.2253
ulous	-11.2259
abao	-11.226
allah	-11.2265
▁medic	-11.2267
▁sponsors	-11.2283
▁mandate	-11.2284
▁mandat	-11.2285
▁spat	-11.2286
▁files	-11.2286
▁ya	-11.2295
▁identifi	-11.2298
▁din	-11.23
die	-11.2302
arian	-11.2305
▁endors	-11.2306
eta	-11.2308
▁cub	-11.2309
▁bare	-11.2313
care	-11.2317
hou	-11.2319
▁sav	-11.2321
▁mistakes	-11.2321
▁slid	-11.2327
▁wipe	-11.2327
▁noon	-11.2331
▁moo	-11.2343
ara	-11.2352
soo	-11.236
▁racial	-11.2368
▁hip	-11.2385
▁plea	-11.2397
prime	-11.2404
▁swim	-11.2406
▁canal	-11.2407
▁shak	-11.2411
rell	-11.2412
▁donors	-11.2424
▁eliminate	-11.2427
▁radi	-11.2427
▁browne	-11.2428
▁provision	-11.2431
yodo	-11.2434
▁submit	-11.2446
▁diploma	-11.2456
▁digit	-11.246
▁thrill	-11.2461
▁flick	-11.2462
▁branch	-11.2465
ions	-11.2467
tor	-11.2468
▁welcom	-11.2473
▁extinct	-11.2474
▁interpret	-11.2476
▁adjust	-11.2476
▁fundamental	-11.2478
▁indefinite	-11.2478
▁inflict	-11.2478
▁oklahoma	-11.2478
▁pyramid	-11.2478
▁reckless	-11.2478
▁tattoo	-11.2478
▁shrink	-11.2478
▁incentive	-11.2478
▁justify	-11.2479
▁blind	-11.2479
▁staunch	-11.2479
▁potato	-11.2479
▁harper	-11.2479
▁monster	-11.2479
▁yankee	-11.2479
▁summon	-11.2479
▁breast	-11.2479
▁loot	-11.2479
▁mcdonald	-11.2479
▁nelson	-11.2479
▁predominant	-11.2479
▁stronghold	-11.2479
▁basket	-11.2479
▁solomon	-11.248
▁confine	-11.248
caust	-11.248
▁alfred	-11.248
▁overrun	-11.2481
▁citizenship	-11.2481
▁outpost	-11.2481
▁idol	-11.2482
▁dug	-11.2483
mus	-11.2483
▁extinction	-11.2483
▁sheep	-11.2483
▁captor	-11.2485
▁grammy	-11.2486
▁hydro	-11.2487
▁glow	-11.2487
▁laurea	-11.2488
▁shopper	-11.2488
▁selection	-11.2494
▁modest	-11.2499
▁kle	-11.2506
mura	-11.2509
▁ak	-11.2512
▁pink	-11.2514
▁guin	-11.2515
▁pastor	-11.2516
▁observe	-11.2517
▁expression	-11.2521
▁ads	-11.2529
▁tala	-11.2532
▁leone	-11.2534
▁comic	-11.2538
▁blessing	-11.2543
▁lane	-11.2555
▁yan	-11.2557
stock	-11.2561
▁coin	-11.2568
▁frustrat	-11.2572
▁stream	-11.2574
▁popp	-11.2574
▁donor	-11.2576
▁dance	-11.2576
▁belt	-11.258
▁kurdis	-11.2581
▁manufacturer	-11.2583
▁marry	-11.259
▁bil	-11.2595
▁intens	-11.2596
▁sore	-11.2597
▁decrease	-11.2607
▁worri	-11.2611
▁stunning	-11.2615
▁imp	-11.2619
▁alan	-11.2635
rotti	-11.264
▁entit	-11.2646
▁repeat	-11.2649
▁parade	-11.265
▁yong	-11.2655
▁grade	-11.2657
cco	-11.2658
▁natal	-11.2664
▁med	-11.2666
▁assassinat	-11.2672
▁92	-11.2675
▁cole	-11.2676
▁christi	-11.2676
▁prostitute	-11.2677
bel	-11.2683
▁dak	-11.2702
▁bri	-11.2706
▁installed	-11.2706
▁caucus	-11.2722
▁sequence	-11.2724
residential	-11.2727
▁observat	-11.2736
▁compensati	-11.2737
▁regret	-11.2745
▁bett	-11.2751
me	-11.2752
uci	-11.2752
▁generat	-11.2758
com	-11.2766
▁pipe	-11.277
▁compare	-11.2771
▁mc	-11.2778
bama	-11.2784
▁kerr	-11.2785
▁hui	-11.2786
▁stunn	-11.2787
▁ross	-11.2791
rry	-11.2791
▁underst	-11.2794
folk	-11.2797
▁marking	-11.2806
▁treasure	-11.2808
▁anne	-11.281
▁examine	-11.2812
dicap	-11.2813
▁nationalist	-11.2815
▁revive	-11.2819
place	-11.2825
▁danc	-11.2831
▁dignit	-11.2835
piece	-11.2839
▁ci	-11.2839
▁ruler	-11.2846
▁evacuate	-11.2848
▁sail	-11.2849
▁belonging	-11.2849
▁mat	-11.2857
▁denucleariz	-11.2858
▁emphasiz	-11.2863
▁happens	-11.2866
ratt	-11.2867
▁moneta	-11.2869
▁update	-11.2871
my	-11.2874
▁tai	-11.2874
▁sympath	-11.2888
▁spin	-11.2889
▁hate	-11.2893
▁tut	-11.2893
▁endeavo	-11.2894
rmed	-11.2898
▁cyber	-11.2905
▁paralyz	-11.291
nati	-11.2911
▁rove	-11.2912
▁accompany	-11.2913
▁avenue	-11.2913
▁douglas	-11.2913
▁jirga	-11.2913
▁revenge	-11.2913
▁wizard	-11.2913
▁definition	-11.2913
▁gradual	-11.2913
▁cousin	-11.2913
▁lodge	-11.2913
▁competitive	-11.2913
▁tamil	-11.2913
▁vegetable	-11.2913
▁breakfast	-11.2913
▁conceal	-11.2914
▁smell	-11.2914
▁mystery	-11.2914
▁unanimous	-11.2914
▁hormone	-11.2914
▁haiti	-11.2914
▁parole	-11.2914
▁disturb	-11.2914
▁judgment	-11.2914
▁humor	-11.2914
▁click	-11.2914
▁psychologist	-11.2914
▁atleti	-11.2915
▁psychological	-11.2915
▁intensive	-11.2915
▁pearl	-11.2915
yama	-11.2916
rd	-11.2916
▁787	-11.2916
▁cinc	-11.2916
▁serena	-11.2917
▁trash	-11.2918
▁shutdown	-11.2918
▁workplace	-11.2918
▁achievement	-11.2919
▁isolation	-11.2919
▁candidacy	-11.2919
▁robotic	-11.292
▁wat	-11.2926
▁wang	-11.2927
▁450	-11.2929
▁flin	-11.2931
▁ambition	-11.2932
▁cal	-11.2934
▁santi	-11.2935
ura	-11.2936
▁symptoms	-11.2939
▁subway	-11.2942
works	-11.2943
▁gesture	-11.2946
▁keat	-11.295
▁skinn	-11.2955
chum	-11.2963
▁cecil	-11.297
▁alter	-11.2971
ich	-11.2974
▁eliminat	-11.2975
▁closure	-11.2978
▁automatic	-11.298
▁mccart	-11.2984
▁seller	-11.2991
▁territories	-11.2993
▁supplier	-11.2994
▁volunteer	-11.2994
▁deposit	-11.2995
raul	-11.3001
▁commerc	-11.3005
▁turns	-11.301
▁lucky	-11.3011
ira	-11.3013
imer	-11.3016
▁projection	-11.3016
▁ham	-11.302
▁roar	-11.3023
▁ferrer	-11.3024
▁antibiotics	-11.3025
▁glamo	-11.3027
▁elli	-11.303
▁beside	-11.3039
▁ana	-11.3039
▁petra	-11.3041
jo	-11.3042
▁scan	-11.305
▁aero	-11.3055
oor	-11.3057
▁kidnapp	-11.3068
▁steadi	-11.307
▁gre	-11.3071
▁array	-11.3083
▁dedicat	-11.3085
▁grat	-11.3085
▁combine	-11.3089
shire	-11.3104
▁sacrifice	-11.3105
▁cleaner	-11.3109
▁mikh	-11.311
▁duk	-11.3113
▁dispos	-11.3132
oli	-11.3138
ade	-11.3144
▁ub	-11.3148
▁equ	-11.3153
dom	-11.3153
▁smile	-11.3165
▁russe	-11.3167
min	-11.3175
▁yu	-11.3177
▁thie	-11.3181
▁confus	-11.3186
▁mrs	-11.3188
▁shout	-11.3195
war	-11.3198
him	-11.3198
sky	-11.3216
▁lance	-11.3232
va	-11.3232
▁foe	-11.3238
▁bother	-11.3245
▁exporter	-11.3249
▁interviewed	-11.3256
▁springs	-11.3258
▁disperse	-11.3264
disclos	-11.3278
tuck	-11.3289
▁pin	-11.3296
▁mari	-11.3301
ife	-11.3301
▁inning	-11.3302
▁slim	-11.3304
▁translat	-11.3305
ee	-11.3315
▁tha	-11.3321
▁tactic	-11.3331
glasses	-11.3333
▁permit	-11.3334
▁cher	-11.3337
cumbe	-11.3337
▁procedures	-11.334
▁prefer	-11.3347
▁estonia	-11.3347
▁deb	-11.3348
▁stripp	-11.3349
ague	-11.3354
our	-11.3356
▁cinema	-11.336
oster	-11.3363
▁pond	-11.3364
▁enable	-11.3364
▁excess	-11.3367
▁incarcerat	-11.3368
▁brilliant	-11.3368
▁fragment	-11.3368
▁monument	-11.3368
▁reopen	-11.3368
▁rhetoric	-11.3368
▁substitute	-11.3368
▁voluntar	-11.3368
▁cautious	-11.3368
▁kilogram	-11.3368
▁silent	-11.3368
▁transmission	-11.3368
▁discount	-11.3368
▁misdemeanor	-11.3368
▁overthrow	-11.3368
▁squid	-11.3368
▁optimistic	-11.3368
▁laute	-11.3368
▁rehab	-11.3369
▁autops	-11.3369
▁automobile	-11.3369
▁lyric	-11.337
▁shadow	-11.337
▁fiction	-11.337
▁laureate	-11.337
▁knife	-11.337
▁brig	-11.337
▁boris	-11.3371
▁disagreement	-11.3371
▁laura	-11.3371
▁interaction	-11.3372
▁cabin	-11.3372
▁retirement	-11.3372
▁flaw	-11.3373
▁creator	-11.3373
▁sadden	-11.3374
▁devil	-11.3375
▁homicide	-11.3375
▁desk	-11.3375
▁360	-11.3375
▁creative	-11.3378
▁aziz	-11.338
zhe	-11.338
▁dock	-11.3385
ustin	-11.3385
▁rico	-11.3385
▁lit	-11.3386
▁setback	-11.3387
▁requirement	-11.3387
nold	-11.3388
▁preferr	-11.3388
enos	-11.3389
mandu	-11.3392
▁suv	-11.3392
▁kitt	-11.3393
▁outline	-11.3396
▁rick	-11.3398
▁contestant	-11.3398
▁bruce	-11.34
▁surgeon	-11.3404
▁wii	-11.3407
estero	-11.3412
▁organic	-11.3414
▁pants	-11.3417
18	-11.3417
▁massage	-11.3418
▁deserve	-11.3419
▁reasonable	-11.342
▁keen	-11.3426
▁stabilize	-11.3428
▁dismantl	-11.3434
▁bp	-11.3439
▁bran	-11.3439
▁rear	-11.3443
▁sack	-11.3444
▁java	-11.3446
▁atlanti	-11.3454
▁fantas	-11.3464
lima	-11.3464
▁teaching	-11.3466
▁advis	-11.3478
quba	-11.3483
▁luck	-11.3495
▁spitz	-11.3497
▁rig	-11.3499
▁basin	-11.3501
▁xu	-11.3507
▁vincen	-11.3515
▁hawa	-11.3516
▁evans	-11.3517
acco	-11.3527
▁circulat	-11.354
▁cooking	-11.3541
au	-11.3545
▁cor	-11.3557
rray	-11.3561
▁cel	-11.3563
▁intelligent	-11.3563
▁lots	-11.3563
▁alma	-11.3564
▁pric	-11.3569
▁easter	-11.3571
ating	-11.3576
llery	-11.3576
▁assume	-11.359
▁ol	-11.3592
▁chased	-11.3598
▁lover	-11.36
uke	-11.3604
▁eta	-11.361
tte	-11.3616
▁enhance	-11.3634
▁hi	-11.3634
wear	-11.3642
▁bor	-11.3643
▁unres	-11.3648
▁attribut	-11.365
▁wu	-11.3651
▁perin	-11.3667
witt	-11.3668
penh	-11.3676
▁bros	-11.3677
▁tin	-11.3678
40	-11.3682
▁gangs	-11.3686
▁fif	-11.369
▁comb	-11.3699
▁zan	-11.3702
rey	-11.3706
▁prodi	-11.374
▁faye	-11.3743
▁rubb	-11.3756
cia	-11.376
jiang	-11.3768
morning	-11.3769
▁sang	-11.377
hip	-11.3773
▁captiv	-11.3774
▁gib	-11.3776
suf	-11.3778
borne	-11.3782
550	-11.3788
▁propell	-11.3793
▁transit	-11.3795
ott	-11.3799
▁infiltrat	-11.3802
▁nichols	-11.3806
sight	-11.381
cious	-11.3818
▁ethiopia	-11.3824
▁od	-11.3824
▁remark	-11.3824
▁transparen	-11.3826
▁jiang	-11.383
▁pitts	-11.3835
how	-11.3838
▁ken	-11.3839
▁postpone	-11.3839
▁recogni	-11.3842
▁enact	-11.3843
▁ambitio	-11.3843
nprofit	-11.3844
▁condolence	-11.3844
▁genuine	-11.3844
▁imminent	-11.3844
▁mechanism	-11.3844
▁nervous	-11.3844
▁satisfie	-11.3844
▁skyscraper	-11.3844
▁tremendous	-11.3844
▁verify	-11.3844
▁okinawa	-11.3844
▁database	-11.3844
▁kazakhstan	-11.3844
▁vista	-11.3844
▁frog	-11.3844
▁extension	-11.3844
▁venus	-11.3844
▁mysterious	-11.3845
▁boast	-11.3845
▁hatred	-11.3845
▁unpopular	-11.3845
▁tomato	-11.3845
vy	-11.3845
▁cluster	-11.3845
▁comparison	-11.3845
▁graphic	-11.3845
▁transcript	-11.3845
▁propagand	-11.3845
ette	-11.3846
▁lugg	-11.3846
▁informant	-11.3846
▁smooth	-11.3846
▁deutsch	-11.3846
▁glori	-11.3846
▁mutual	-11.3846
▁pageant	-11.3847
rbach	-11.3847
▁cab	-11.3847
▁fahr	-11.3847
▁mediator	-11.3847
▁addiction	-11.3848
▁titan	-11.3849
▁dragon	-11.385
▁powder	-11.385
▁jamie	-11.385
▁drain	-11.3851
▁drunken	-11.3851
▁pirac	-11.3851
▁bernard	-11.3852
▁happiness	-11.3853
▁delight	-11.3853
▁hover	-11.3854
▁passage	-11.3855
right	-11.3857
▁comply	-11.3857
king	-11.386
tearn	-11.3864
▁batch	-11.3864
aire	-11.3865
▁bloc	-11.3865
▁steer	-11.3867
▁intercept	-11.3868
▁negro	-11.3869
apped	-11.3869
▁romance	-11.3871
▁qualifier	-11.3871
▁adequate	-11.3872
▁cac	-11.3873
▁baker	-11.3874
▁snapp	-11.3877
▁recep	-11.388
▁hallow	-11.3881
▁sprint	-11.3882
xvi	-11.3886
▁consideration	-11.389
▁permitt	-11.3894
▁zhang	-11.3894
▁denial	-11.3896
ano	-11.3897
▁neal	-11.3898
▁chess	-11.39
▁productiv	-11.39
▁cristian	-11.3909
tz	-11.3914
▁prov	-11.3916
gm	-11.3924
▁recording	-11.3926
ped	-11.3932
▁kay	-11.3932
▁settl	-11.3939
▁airliner	-11.3956
▁surveys	-11.3958
▁wag	-11.396
bar	-11.3965
▁dominica	-11.3966
▁meh	-11.3972
▁appreciate	-11.3973
zio	-11.3987
▁rag	-11.3993
abel	-11.3999
som	-11.4004
▁counterterroris	-11.4008
▁rein	-11.4009
▁persist	-11.4014
▁extremis	-11.4015
▁unite	-11.4016
▁feb	-11.4032
▁ib	-11.4035
ebras	-11.4036
▁den	-11.4036
rich	-11.4038
▁bio	-11.4039
▁170	-11.404
▁dense	-11.4041
▁motors	-11.4045
oka	-11.4049
ehan	-11.4056
ssif	-11.4061
▁mos	-11.4061
▁sighting	-11.4077
▁thre	-11.4097
some	-11.4101
▁accomplish	-11.4104
▁barry	-11.4104
▁pf	-11.4107
holo	-11.4115
▁murr	-11.4127
▁semi	-11.4127
▁feeding	-11.4132
▁franc	-11.4133
intend	-11.4147
nshine	-11.415
▁reunit	-11.4154
▁ratings	-11.4166
▁networking	-11.4171
ya	-11.4177
ugher	-11.4192
ize	-11.4192
▁hassan	-11.4199
▁bench	-11.4205
▁02	-11.4212
▁garb	-11.4212
▁tighten	-11.4216
▁fu	-11.4222
▁roy	-11.4232
▁pit	-11.4234
▁occasional	-11.4238
▁button	-11.4238
▁ranger	-11.4253
ean	-11.4264
▁chips	-11.4264
▁caps	-11.4269
▁educat	-11.427
▁dealer	-11.4274
▁dell	-11.4274
▁physic	-11.428
▁contend	-11.4284
iband	-11.4285
▁val	-11.4286
▁guid	-11.4291
enhei	-11.4292
▁mega	-11.4294
70	-11.4299
▁96	-11.4309
▁scare	-11.4309
▁pile	-11.4312
▁sensitivit	-11.4313
▁refer	-11.4317
▁loose	-11.432
awi	-11.432
▁algeria	-11.4324
▁lenien	-11.4326
▁por	-11.4333
▁inject	-11.4338
mao	-11.434
▁kara	-11.434
▁diminish	-11.4344
▁biofuel	-11.4344
▁caretaker	-11.4344
▁chocolate	-11.4344
▁cosmonaut	-11.4344
▁fugitive	-11.4344
▁nickname	-11.4344
▁surplus	-11.4344
▁tragic	-11.4344
▁trinidad	-11.4344
▁competitor	-11.4344
▁abnormal	-11.4344
▁crunch	-11.4344
▁vault	-11.4344
▁qassam	-11.4344
▁ankle	-11.4344
▁chemist	-11.4344
▁throat	-11.4344
▁mcqu	-11.4344
▁boulder	-11.4344
▁automo	-11.4345
▁armenian	-11.4345
▁oath	-11.4345
▁blake	-11.4345
▁streak	-11.4345
▁reception	-11.4345
▁twel	-11.4345
▁pension	-11.4346
▁consent	-11.4346
▁indoor	-11.4346
▁pursuit	-11.4346
▁quell	-11.4347
▁vocal	-11.4347
▁reign	-11.4347
▁fantastic	-11.4348
▁conner	-11.4348
▁generator	-11.4348
▁interactive	-11.4348
▁purported	-11.435
▁terrible	-11.4351
▁wield	-11.4351
▁martyr	-11.4351
▁practical	-11.4352
▁honey	-11.4352
▁whipp	-11.4352
▁ipod	-11.4353
▁facial	-11.4354
▁awake	-11.4354
▁gallery	-11.4355
▁djo	-11.4358
▁cair	-11.436
▁slave	-11.4364
▁innocen	-11.4366
lem	-11.4368
▁interesting	-11.4368
▁measurement	-11.4371
aho	-11.4373
iers	-11.4384
▁glimpse	-11.4388
▁beam	-11.4389
ology	-11.439
▁beatle	-11.4394
rkele	-11.4402
▁bold	-11.4404
▁obes	-11.4404
▁valeri	-11.4406
▁zimbabwean	-11.4408
▁horn	-11.441
▁ethical	-11.441
▁philli	-11.4416
▁barely	-11.4419
dc	-11.4432
▁distan	-11.4434
▁linda	-11.444
▁caffein	-11.4443
▁guang	-11.4443
▁buck	-11.4448
▁cl	-11.4456
▁gro	-11.4464
▁fruit	-11.4485
▁trans	-11.4486
▁architect	-11.4486
▁characteriz	-11.4486
▁mild	-11.4489
▁dama	-11.4504
▁plain	-11.4509
ti	-11.4509
▁shipments	-11.4514
▁slum	-11.4514
illa	-11.4527
▁tribe	-11.4531
▁vest	-11.4535
q	-11.4536
▁lander	-11.4545
15	-11.4546
ax	-11.4552
▁boundar	-11.4559
pe	-11.4562
▁commodit	-11.4568
ative	-11.4568
▁bayer	-11.4571
scus	-11.4577
▁tenn	-11.4584
▁bernie	-11.4598
hy	-11.46
▁yog	-11.46
▁gus	-11.4601
▁les	-11.4606
oma	-11.4623
▁dies	-11.4644
▁discs	-11.4653
▁burg	-11.4658
ndra	-11.466
ntao	-11.467
adilla	-11.4672
til	-11.4672
▁proportion	-11.4677
▁mem	-11.4681
▁colonial	-11.4683
▁imperial	-11.4688
▁disk	-11.4692
▁acquir	-11.4703
▁optimis	-11.4705
▁pic	-11.4705
dium	-11.4706
io	-11.4712
▁soft	-11.4712
▁tribes	-11.4716
▁fla	-11.4718
▁retrieve	-11.4724
▁programm	-11.4726
nese	-11.4735
cover	-11.4746
▁tob	-11.4748
75	-11.4749
▁tours	-11.4751
hasa	-11.4752
▁mag	-11.4752
az	-11.4757
closure	-11.4762
▁ports	-11.4764
▁tam	-11.4777
aking	-11.4783
ponte	-11.479
▁authorize	-11.4795
▁skeptic	-11.48
▁chill	-11.4806
state	-11.4806
▁henri	-11.4827
zo	-11.4828
pei	-11.4835
▁performer	-11.4836
rit	-11.4838
▁temp	-11.4839
▁digg	-11.484
claren	-11.4841
group	-11.4843
reva	-11.4843
▁guatemala	-11.4848
▁doll	-11.4849
acy	-11.4852
▁neuro	-11.4852
97	-11.4858
▁pi	-11.4861
▁kumar	-11.4862
▁proto	-11.4863
ir	-11.4863
▁demonstrat	-11.4866
onito	-11.4867
▁guitar	-11.4869
▁extract	-11.4869
elecommunication	-11.487
▁alejandr	-11.487
▁franchise	-11.487
▁ingredient	-11.487
▁irresponsibl	-11.487
▁lieutenant	-11.487
▁magistrate	-11.487
▁merchant	-11.487
▁sumatra	-11.487
▁kashmir	-11.487
▁multimillion	-11.487
▁stomach	-11.487
▁anxiet	-11.487
▁gorilla	-11.487
▁renown	-11.487
▁robust	-11.487
▁erotic	-11.487
▁segment	-11.487
▁recount	-11.487
▁restart	-11.4871
▁chapter	-11.4871
▁disband	-11.4871
▁darling	-11.4871
▁feat	-11.4871
▁reinstate	-11.4871
▁marshall	-11.4871
▁bulk	-11.4871
▁grim	-11.4872
▁conglomerate	-11.4872
▁excessive	-11.4872
▁nerve	-11.4872
▁calorie	-11.4872
▁exploration	-11.4873
▁sultan	-11.4873
▁conservationist	-11.4873
▁milestone	-11.4873
▁eacute	-11.4873
▁chadian	-11.4873
▁hammer	-11.4874
▁chunk	-11.4874
▁bennett	-11.4874
▁concentration	-11.4874
▁ismail	-11.4875
▁fiber	-11.4875
▁kasp	-11.4876
▁consultant	-11.4876
arov	-11.4876
▁aggression	-11.4877
▁canyon	-11.4877
▁assign	-11.488
▁dax	-11.4882
▁harvest	-11.4883
▁transparent	-11.489
▁archaeolog	-11.489
zvo	-11.4891
▁outlaw	-11.4892
gow	-11.4893
▁juror	-11.4893
roit	-11.4893
▁staple	-11.4895
▁entertainer	-11.4896
▁accurate	-11.4898
▁cambodian	-11.4898
▁prediction	-11.49
▁carla	-11.4901
▁va	-11.4906
▁warship	-11.4907
▁prostitut	-11.4909
▁mitt	-11.4913
▁gal	-11.4913
▁patien	-11.4914
▁provok	-11.4914
▁samba	-11.4916
napoli	-11.4918
ap	-11.4919
▁tube	-11.4921
▁colomb	-11.4924
▁depressed	-11.4928
per	-11.4931
▁corn	-11.4938
▁isolate	-11.4939
▁prey	-11.4943
▁refusal	-11.4944
▁prop	-11.4948
▁galla	-11.495
▁eva	-11.495
▁fuku	-11.4951
▁sank	-11.4953
▁applie	-11.4955
▁karim	-11.4957
▁org	-11.4961
85	-11.4963
▁dare	-11.4968
pp	-11.4977
▁arts	-11.4977
▁jaz	-11.4978
pl	-11.4979
oo	-11.4982
liberation	-11.4984
▁em	-11.4985
▁jp	-11.4992
▁tooth	-11.4997
▁arch	-11.4998
▁nu	-11.5001
▁hon	-11.5003
▁cycle	-11.501
▁div	-11.5012
▁poses	-11.5016
▁interfa	-11.5019
tendo	-11.502
gs	-11.5028
▁gene	-11.5029
▁poster	-11.5046
top	-11.5049
ires	-11.5049
val	-11.505
▁spen	-11.505
▁commemorate	-11.5051
▁wy	-11.506
▁highlights	-11.5061
▁justin	-11.5063
nder	-11.5072
▁hell	-11.5076
▁torrent	-11.5083
▁designat	-11.5083
ifer	-11.5085
▁mas	-11.5086
▁nah	-11.5087
▁devot	-11.5097
ja	-11.5109
set	-11.5111
▁arrangements	-11.5113
▁formula	-11.5119
▁beg	-11.5119
▁employer	-11.5124
▁advocate	-11.5125
▁gambl	-11.5131
▁superb	-11.5136
▁cliff	-11.5138
▁eas	-11.5139
▁agreements	-11.514
▁stamp	-11.5144
▁lal	-11.5149
ut	-11.5153
▁ensur	-11.5162
▁dae	-11.5163
▁97	-11.5168
▁ignit	-11.5173
ted	-11.5177
▁outlets	-11.518
ide	-11.5182
▁bark	-11.5196
▁folks	-11.5197
▁robbe	-11.5206
▁laborer	-11.5212
dela	-11.5216
▁revenues	-11.5217
afa	-11.522
47	-11.5227
▁resemble	-11.5238
▁cooperat	-11.5239
▁sim	-11.5242
▁edit	-11.5248
▁climber	-11.5249
lis	-11.5254
▁amo	-11.5265
▁packs	-11.5268
▁melan	-11.5279
▁disclose	-11.5282
fected	-11.5287
▁detonate	-11.529
▁evaluate	-11.5293
▁keeper	-11.5295
lene	-11.5298
▁jenn	-11.5299
cent	-11.5301
schne	-11.5304
▁ivanov	-11.5309
▁kil	-11.532
rmal	-11.532
bright	-11.5324
▁stockhol	-11.5324
ility	-11.5325
▁annually	-11.5328
ping	-11.5341
▁bog	-11.5348
▁applau	-11.5349
▁dec	-11.535
appropriate	-11.535
about	-11.5356
person	-11.536
▁stewar	-11.5362
erry	-11.5362
▁khali	-11.5363
▁griffi	-11.5364
ilia	-11.5369
▁rum	-11.5377
tra	-11.5378
enver	-11.5379
▁choos	-11.538
▁kidnap	-11.5387
▁marrie	-11.5387
▁billy	-11.5387
▁ger	-11.5389
▁columb	-11.5393
▁loya	-11.5402
▁cu	-11.5403
▁jamaica	-11.5405
▁abraham	-11.5426
▁administrative	-11.5426
▁artifact	-11.5426
▁contemporar	-11.5426
▁contingent	-11.5426
▁decisive	-11.5426
▁gossip	-11.5426
▁hectare	-11.5426
▁juvenile	-11.5426
▁lesbian	-11.5426
▁obstacle	-11.5426
▁pharmaceutical	-11.5426
▁ritchie	-11.5426
▁rwanda	-11.5426
▁seafood	-11.5426
▁machete	-11.5426
▁respirat	-11.5426
▁jacob	-11.5426
▁maneuver	-11.5426
▁technician	-11.5426
▁ritual	-11.5426
▁premature	-11.5426
▁fingerprint	-11.5426
▁domain	-11.5426
▁premium	-11.5426
▁johansson	-11.5426
▁profound	-11.5426
▁epidemic	-11.5426
▁himalaya	-11.5426
▁wrist	-11.5426
▁thorough	-11.5426
▁blunt	-11.5426
▁baggage	-11.5426
▁decree	-11.5426
▁veterinarian	-11.5427
▁abdel	-11.5427
▁wander	-11.5427
▁patern	-11.5427
▁deadlock	-11.5427
▁signature	-11.5427
▁dependent	-11.5427
▁addict	-11.5428
▁editorial	-11.5428
▁niger	-11.5428
▁rampage	-11.5429
▁unbeat	-11.5429
▁compell	-11.543
▁overweight	-11.5431
▁basque	-11.5431
amine	-11.5431
▁davyd	-11.5432
▁turkmen	-11.5433
▁injection	-11.5433
▁hog	-11.5434
▁stunt	-11.5435
▁mccon	-11.5435
▁overlook	-11.5436
▁assess	-11.5437
▁gaf	-11.5437
yushch	-11.5437
▁chimp	-11.5437
▁reluctant	-11.5437
▁deem	-11.5438
▁phillip	-11.5438
▁nike	-11.5438
▁blogger	-11.5439
▁tenor	-11.5439
▁kiev	-11.544
▁anymore	-11.544
▁marij	-11.544
▁heighten	-11.5441
aware	-11.5451
▁cheaper	-11.5451
▁coupon	-11.5451
▁ferry	-11.5452
▁guardian	-11.5453
▁lip	-11.5453
▁rehabilitati	-11.5455
▁heather	-11.5458
▁precise	-11.5459
▁ferrar	-11.546
▁examiner	-11.5472
▁115	-11.5475
ord	-11.5476
▁coward	-11.5483
ition	-11.5483
▁veni	-11.5483
▁removal	-11.5484
▁heal	-11.5484
▁glad	-11.5498
▁dual	-11.55
▁intel	-11.5504
erial	-11.5507
▁dorm	-11.5516
▁troph	-11.5524
▁munic	-11.5525
▁raj	-11.5526
▁lucas	-11.5527
▁smoker	-11.5529
▁countryside	-11.5533
coon	-11.5536
▁lak	-11.5538
▁vanco	-11.5543
▁bribe	-11.5544
▁genes	-11.5551
▁explained	-11.5552
apping	-11.5553
▁entr	-11.5556
▁para	-11.5566
▁pub	-11.5568
▁contra	-11.557
▁hacker	-11.5572
▁memorab	-11.5573
bmi	-11.5574
▁symbolic	-11.5582
▁lago	-11.5585
▁09	-11.5587
▁sens	-11.5587
eus	-11.5588
▁mour	-11.5599
▁separat	-11.5599
▁tra	-11.56
▁uncertaint	-11.5602
▁mess	-11.5604
▁feli	-11.5608
▁flare	-11.561
25	-11.563
▁distinct	-11.5633
▁scholars	-11.5637
aker	-11.5645
▁relation	-11.5645
▁adrian	-11.5653
▁floren	-11.5656
▁spiel	-11.5657
van	-11.5672
▁outage	-11.5673
▁spann	-11.5675
▁laser	-11.5676
▁lucian	-11.5678
ovic	-11.5683
▁det	-11.5689
▁alleg	-11.5708
aki	-11.571
▁provider	-11.5712
▁clippe	-11.5722
ew	-11.5729
▁clap	-11.5731
▁blend	-11.5736
yman	-11.5748
feld	-11.5749
comfortabl	-11.5752
cha	-11.5758
▁tumbl	-11.5776
▁grounds	-11.5779
▁gala	-11.5782
sfeld	-11.5793
table	-11.5794
▁difficulty	-11.5802
▁spec	-11.5806
ites	-11.581
▁rahm	-11.5812
▁readers	-11.5812
▁shame	-11.5814
▁antho	-11.5832
▁impos	-11.5835
▁ramp	-11.584
▁associates	-11.5841
▁carl	-11.5842
hen	-11.5852
rimp	-11.5856
▁distribute	-11.5858
▁frighten	-11.5865
▁juli	-11.5879
▁fonda	-11.5882
▁reall	-11.5884
▁lovers	-11.59
nnis	-11.5904
lary	-11.5905
shan	-11.5906
rc	-11.5914
tified	-11.5916
▁ec	-11.5923
▁str	-11.5923
▁lawn	-11.5923
▁blackmail	-11.5923
▁fabric	-11.5927
▁190	-11.5927
▁sugar	-11.5929
saka	-11.5934
▁borne	-11.5935
▁rap	-11.5936
box	-11.5942
▁defin	-11.5947
▁staffer	-11.5948
grid	-11.595
▁wan	-11.5951
▁bol	-11.5952
▁emotion	-11.5954
▁analyze	-11.5956
▁breathe	-11.5956
▁camero	-11.5957
made	-11.596
nd	-11.5962
▁exten	-11.5962
▁till	-11.5964
▁toppl	-11.5971
lese	-11.5974
▁skip	-11.5977
ww	-11.5978
▁jonat	-11.5982
▁precis	-11.5987
▁08	-11.5989
mmy	-11.5995
ulos	-11.5996
enay	-11.5996
▁efficien	-11.5997
▁contradict	-11.6006
▁clint	-11.6007
uana	-11.601
▁chun	-11.6011
▁column	-11.6014
onga	-11.6014
▁barricade	-11.6014
▁fatigue	-11.6014
▁gadget	-11.6014
▁gorbachev	-11.6014
▁kangaroo	-11.6014
▁parallel	-11.6014
▁plummet	-11.6014
▁precinct	-11.6014
▁shepherd	-11.6014
▁umbrella	-11.6014
▁wheelchair	-11.6014
▁counterfeit	-11.6014
▁sibling	-11.6014
▁technological	-11.6014
▁anorexi	-11.6014
▁parachute	-11.6014
▁dentist	-11.6014
▁heaven	-11.6014
▁sufficient	-11.6014
▁discharge	-11.6014
▁homosexual	-11.6014
▁minimiz	-11.6014
▁prevail	-11.6014
▁liberia	-11.6014
▁luft	-11.6014
▁brothel	-11.6014
▁whistle	-11.6014
▁helmet	-11.6014
▁norris	-11.6014
▁stint	-11.6015
▁uprising	-11.6015
▁interstate	-11.6015
▁salah	-11.6015
▁flock	-11.6015
▁certificate	-11.6016
▁lobbyist	-11.6016
▁layoff	-11.6016
▁hutchins	-11.6016
▁consist	-11.6016
▁unchang	-11.6016
▁rhino	-11.6017
▁ridicul	-11.6017
▁adolescent	-11.6017
▁excuse	-11.6017
▁adjustment	-11.6018
▁handgun	-11.6019
▁interrupt	-11.602
▁francois	-11.602
▁battlefield	-11.6021
▁consultation	-11.6021
▁xp	-11.6021
▁picket	-11.6021
▁miserable	-11.6021
▁mir	-11.6021
▁atrocit	-11.6021
▁manual	-11.6022
▁canoe	-11.6024
▁soap	-11.6025
vacu	-11.6025
▁cruel	-11.6025
vinen	-11.6026
▁serge	-11.6027
▁owen	-11.6028
▁courthouse	-11.6028
neapoli	-11.603
▁continuous	-11.6032
▁establishment	-11.6033
▁wrestler	-11.6034
▁lev	-11.6035
▁wrestl	-11.6039
▁valentin	-11.6044
▁khala	-11.6046
▁amend	-11.6048
▁compos	-11.6048
row	-11.605
▁cbo	-11.6053
eful	-11.6055
▁myung	-11.6056
▁municipal	-11.6057
▁nichol	-11.6061
cau	-11.6063
▁tang	-11.6064
▁gust	-11.607
▁analyz	-11.6073
▁tide	-11.6073
▁wip	-11.6075
▁humiliat	-11.6077
barad	-11.6083
ywhere	-11.6094
▁utter	-11.6095
odor	-11.6098
amount	-11.6098
▁rene	-11.6099
▁explore	-11.6099
▁dodge	-11.61
sud	-11.6105
▁relieve	-11.6107
ima	-11.6112
▁carve	-11.6117
▁rud	-11.6117
pot	-11.6118
gue	-11.612
▁yal	-11.6132
▁cm	-11.6133
dwin	-11.6134
▁execute	-11.6138
▁fisc	-11.6139
olo	-11.6139
▁raw	-11.6142
wf	-11.6143
▁infections	-11.6145
▁harve	-11.615
ston	-11.6153
▁allege	-11.6157
▁librar	-11.616
▁qud	-11.616
ali	-11.6167
▁hook	-11.6168
sef	-11.617
ise	-11.617
▁merc	-11.6173
▁pul	-11.6176
96	-11.618
▁filing	-11.6182
▁tongue	-11.6184
▁graz	-11.6193
▁acquire	-11.6206
phis	-11.6207
▁conventional	-11.621
▁solo	-11.6212
▁nap	-11.6213
▁gaz	-11.6216
▁hut	-11.6216
bu	-11.6217
▁preserv	-11.6224
▁slope	-11.6234
gb	-11.6236
▁towers	-11.6238
▁pills	-11.624
▁vol	-11.6264
agen	-11.6269
▁stockpile	-11.627
uda	-11.6272
▁improvement	-11.6273
▁disc	-11.6279
▁farms	-11.6283
▁bern	-11.6285
▁companion	-11.6288
▁unhapp	-11.6289
▁tense	-11.6292
gio	-11.6303
▁captives	-11.6305
▁conceiv	-11.6314
▁metro	-11.6316
▁julie	-11.6317
rin	-11.6319
ett	-11.6323
▁hun	-11.6329
▁dig	-11.6334
▁bobb	-11.6344
▁contaminat	-11.6344
▁dong	-11.6347
oria	-11.6348
▁wil	-11.635
▁balti	-11.6357
ock	-11.6358
elling	-11.6359
▁tama	-11.6363
▁folk	-11.6366
▁linger	-11.6368
▁avail	-11.6371
▁hart	-11.6377
▁wings	-11.638
949	-11.6382
▁roles	-11.6382
000	-11.6384
▁matte	-11.6385
alone	-11.6399
adic	-11.6414
▁donate	-11.6415
ically	-11.6417
unch	-11.6418
▁barks	-11.6419
stam	-11.6438
▁uncertain	-11.6445
▁op	-11.6451
▁ferri	-11.6459
▁barak	-11.6465
▁tun	-11.6478
▁hosts	-11.6479
▁garri	-11.6482
scow	-11.6487
▁fare	-11.649
wo	-11.649
wc	-11.6508
▁rating	-11.6509
▁tee	-11.6509
ndrome	-11.6511
▁rotat	-11.6517
▁pap	-11.6518
▁sampl	-11.6526
imon	-11.6527
tha	-11.6528
▁lyn	-11.6534
old	-11.6536
rada	-11.6538
77	-11.6538
▁dismantle	-11.6547
▁fuse	-11.6548
▁bind	-11.6552
▁teh	-11.6557
block	-11.6559
fa	-11.6564
decided	-11.6564
course	-11.6564
▁ethic	-11.6571
▁bend	-11.6571
▁micke	-11.6574
play	-11.6574
dmit	-11.6577
▁vo	-11.6583
grass	-11.6584
▁advoca	-11.6589
▁ratio	-11.6591
ix	-11.6594
ego	-11.6598
▁julia	-11.6599
▁recommends	-11.66
▁ravag	-11.6606
let	-11.6607
elman	-11.6618
▁romania	-11.662
▁gue	-11.6623
oming	-11.6629
▁grip	-11.663
▁scrap	-11.6631
▁nutrition	-11.6633
▁04	-11.6634
du	-11.6637
▁veterinar	-11.6638
▁engulf	-11.6639
▁benjamin	-11.6639
▁bizarre	-11.6639
▁charlotte	-11.6639
▁compatriot	-11.6639
▁diarrhea	-11.6639
▁emperor	-11.6639
▁external	-11.6639
▁jupiter	-11.6639
▁namibia	-11.6639
▁paraguay	-11.6639
▁paramilitar	-11.6639
▁quebec	-11.6639
▁receipt	-11.6639
▁simultaneous	-11.6639
▁bicycle	-11.6639
▁exxon	-11.6639
▁mislead	-11.6639
▁mismanage	-11.6639
▁mosquito	-11.6639
▁ceiling	-11.6639
▁steroid	-11.6639
▁fidel	-11.6639
▁ailment	-11.6639
▁rift	-11.6639
▁excellent	-11.6639
▁grandfather	-11.6639
▁splash	-11.6639
▁litvin	-11.6639
▁nightclub	-11.6639
▁malawi	-11.6639
▁harass	-11.664
▁forensic	-11.664
▁consulate	-11.664
▁kitchen	-11.664
▁estrange	-11.664
▁furni	-11.664
▁gaffe	-11.664
▁feather	-11.664
▁reinforcement	-11.664
▁newsweek	-11.664
▁kofi	-11.6641
▁confidential	-11.6642
▁impass	-11.6642
▁deportation	-11.6642
▁supermarket	-11.6642
▁derail	-11.6642
▁ancestor	-11.6642
▁colonel	-11.6643
▁floodwater	-11.6643
▁blacksburg	-11.6643
▁lavish	-11.6643
▁lugo	-11.6643
▁shwe	-11.6644
▁boot	-11.6645
▁prefecture	-11.6645
▁trap	-11.6645
▁collective	-11.6646
▁frustration	-11.6646
▁plug	-11.6646
▁fr	-11.6647
▁postpon	-11.6647
▁expose	-11.6649
▁persi	-11.6649
bon	-11.6649
tact	-11.665
▁logo	-11.665
▁privilege	-11.6652
▁arson	-11.6652
▁sicken	-11.6653
▁doom	-11.6653
▁scientolog	-11.6654
▁kaka	-11.6654
▁cheng	-11.6657
▁alcoholic	-11.6658
▁suppress	-11.6658
▁quarte	-11.6659
▁legislator	-11.6659
▁woke	-11.666
vi	-11.666
▁siege	-11.6661
▁riders	-11.6662
rasmus	-11.6664
▁horrifi	-11.6666
▁portrayal	-11.6666
▁passionate	-11.6666
ologist	-11.6667
iji	-11.6667
▁renat	-11.6668
lit	-11.6668
▁nick	-11.6674
▁stemm	-11.6675
▁helen	-11.6675
▁klo	-11.6677
▁spurr	-11.668
▁priorities	-11.6684
▁holed	-11.6685
▁topple	-11.6692
▁dwindl	-11.6694
onia	-11.6706
▁evolv	-11.6707
▁poul	-11.6709
ylan	-11.671
▁emphasize	-11.6715
yuz	-11.6728
▁fier	-11.6736
▁quantit	-11.6744
▁beak	-11.675
▁costa	-11.6767
▁farming	-11.6768
turn	-11.6768
▁maure	-11.6771
bank	-11.6775
rek	-11.6776
▁emergenc	-11.6778
▁regulate	-11.678
▁serial	-11.6783
▁gram	-11.6784
▁maul	-11.6791
cca	-11.6795
ito	-11.68
ffer	-11.6805
▁academic	-11.6807
conscious	-11.6807
▁tan	-11.6808
▁couch	-11.6812
▁tropica	-11.6814
▁pedr	-11.6819
▁jimm	-11.6821
▁cannon	-11.6821
oursel	-11.6821
▁comet	-11.6822
▁closet	-11.6834
▁dire	-11.6834
▁roj	-11.6844
▁tele	-11.6847
▁char	-11.6848
▁bury	-11.6857
▁injure	-11.6858
▁koo	-11.6868
▁dayton	-11.687
▁sci	-11.6871
▁liu	-11.6876
▁gran	-11.6902
▁volcani	-11.6907
▁rust	-11.6912
▁stud	-11.6918
▁shutt	-11.6928
iffe	-11.693
gar	-11.6934
▁outlet	-11.6941
▁trailer	-11.6962
▁marin	-11.697
▁cartel	-11.6979
▁serie	-11.6983
▁asset	-11.6987
kawa	-11.7004
▁repli	-11.7007
af	-11.701
▁rada	-11.7012
pression	-11.702
▁resum	-11.7023
mble	-11.7031
▁rib	-11.7034
idf	-11.7039
▁collaps	-11.7044
▁cycl	-11.7045
▁extraditi	-11.7046
▁fal	-11.7046
thur	-11.7062
▁troubles	-11.7071
▁winston	-11.7075
point	-11.7084
▁pelo	-11.7089
att	-11.709
▁universit	-11.7091
vian	-11.7097
rosa	-11.7101
▁casual	-11.7104
▁truc	-11.7108
▁plains	-11.7108
red	-11.7117
▁gh	-11.7121
break	-11.7121
▁underscore	-11.7132
▁ala	-11.7133
▁arl	-11.7149
▁bash	-11.7149
eval	-11.7154
onso	-11.7156
▁harmon	-11.7156
▁reiterate	-11.7161
▁explor	-11.7168
iling	-11.7176
▁bounce	-11.7186
▁lure	-11.7187
▁graduat	-11.7203
▁concentrate	-11.7203
zi	-11.7205
▁grad	-11.7206
▁jav	-11.7207
look	-11.7208
girls	-11.7208
▁organize	-11.7209
jab	-11.7223
▁yasu	-11.7227
castle	-11.7231
shift	-11.7231
strong	-11.7231
▁hamburg	-11.7238
▁sensation	-11.724
what	-11.7242
nin	-11.7251
ski	-11.7251
enza	-11.7252
ssett	-11.7258
▁coordinate	-11.7261
▁inhal	-11.7263
▁liqu	-11.7278
▁deport	-11.7279
▁instruct	-11.728
ties	-11.7284
▁stimul	-11.7287
hansa	-11.7291
▁scrutin	-11.7295
▁hurl	-11.7298
▁construct	-11.73
▁foods	-11.7303
pollo	-11.7305
▁charisma	-11.7305
▁blank	-11.7305
▁affidavit	-11.7306
▁archipelag	-11.7306
▁azerbaijan	-11.7306
▁bahrain	-11.7306
▁battalion	-11.7306
▁calendar	-11.7306
▁cemeter	-11.7306
▁centrifuge	-11.7306
▁hamilton	-11.7306
▁intellectual	-11.7306
▁mammoth	-11.7306
▁maverick	-11.7306
▁mbeki	-11.7306
▁messenger	-11.7306
▁overhaul	-11.7306
▁prototype	-11.7306
▁resurrect	-11.7306
▁taxpayer	-11.7306
▁temblor	-11.7306
▁convincing	-11.7306
▁curator	-11.7306
▁immense	-11.7306
▁pedestrian	-11.7306
▁vivid	-11.7306
▁evangelical	-11.7306
▁resurgen	-11.7306
▁vomit	-11.7306
▁eleven	-11.7306
▁sherpa	-11.7306
▁improper	-11.7306
▁gilbert	-11.7306
▁ounce	-11.7306
▁libby	-11.7306
▁seamless	-11.7306
▁ransack	-11.7306
▁detach	-11.7306
▁clerk	-11.7306
▁gauge	-11.7306
▁noodle	-11.7306
▁evict	-11.7306
▁slaying	-11.7306
▁maoist	-11.7306
▁monaster	-11.7306
▁miracle	-11.7306
▁rogue	-11.7306
▁verification	-11.7307
▁crawf	-11.7307
▁roam	-11.7307
▁advertisement	-11.7307
▁reservation	-11.7307
▁uncomm	-11.7308
▁instructor	-11.7308
▁rabbit	-11.7308
▁contentious	-11.7308
▁elegan	-11.7308
▁mastermind	-11.7309
▁scout	-11.7309
▁beverage	-11.7309
▁predator	-11.7309
▁valuable	-11.7309
▁cigar	-11.731
▁compass	-11.731
▁grain	-11.731
▁reptile	-11.731
▁dili	-11.731
▁distributor	-11.731
▁brent	-11.731
▁cramp	-11.7311
▁comedian	-11.7311
▁logistic	-11.7311
▁zebra	-11.7312
▁surgical	-11.7313
▁youngster	-11.7314
quille	-11.7314
▁luther	-11.7314
▁scrapp	-11.7316
▁collector	-11.7316
▁scheme	-11.7316
▁anthr	-11.7317
▁coloss	-11.7317
▁quest	-11.7318
▁chef	-11.7318
▁vary	-11.7318
▁sheik	-11.7319
▁lash	-11.7319
▁peel	-11.732
▁costume	-11.7322
▁fritz	-11.7324
▁mechanical	-11.7325
▁yemeni	-11.7325
▁freez	-11.7326
▁patch	-11.7328
▁pine	-11.7329
▁instruction	-11.7329
▁baton	-11.7329
▁cake	-11.7334
▁loom	-11.7336
▁craz	-11.7336
▁console	-11.7339
▁liais	-11.734
▁jung	-11.7344
▁zub	-11.7344
wi	-11.7344
▁trek	-11.7346
▁spectators	-11.7347
▁conductor	-11.7347
▁117	-11.735
▁nigerian	-11.7351
▁vigil	-11.7352
caul	-11.7352
▁warhead	-11.7353
plane	-11.7354
▁composer	-11.7356
▁xi	-11.7357
▁cox	-11.7358
▁proven	-11.7359
▁formation	-11.7362
▁crest	-11.7362
▁nasr	-11.7362
▁hano	-11.7363
hew	-11.7364
▁charr	-11.7368
iora	-11.7369
▁liga	-11.7373
▁dish	-11.7374
▁mineral	-11.7374
▁rupe	-11.7376
135	-11.7378
▁eco	-11.7378
▁transmitte	-11.7379
ngue	-11.7382
▁rattl	-11.7385
pa	-11.7387
related	-11.739
con	-11.739
▁stale	-11.7395
izu	-11.7396
▁franco	-11.74
▁sincere	-11.7401
▁roller	-11.7404
▁vera	-11.7404
▁concentrat	-11.7404
▁jima	-11.7414
▁pesh	-11.7416
▁trainer	-11.7418
▁dash	-11.7419
▁yell	-11.7422
▁skipp	-11.7423
▁lashe	-11.7426
▁bamb	-11.7438
ears	-11.7439
▁wali	-11.7445
hal	-11.7445
▁dh	-11.7446
▁scal	-11.7446
▁mario	-11.7449
diac	-11.7462
▁stru	-11.7466
▁retaliat	-11.7472
▁stricke	-11.7481
▁moss	-11.7483
▁bread	-11.7485
▁rub	-11.7487
▁centre	-11.749
▁hal	-11.7492
▁oman	-11.7494
▁uncle	-11.7502
acute	-11.7507
▁irritat	-11.7525
▁bro	-11.753
bane	-11.7539
▁addresses	-11.7542
▁karl	-11.7545
▁intimidat	-11.7547
▁ashle	-11.7557
▁napoli	-11.7561
ice	-11.7562
▁holm	-11.7564
▁fascinat	-11.7565
▁rug	-11.7568
▁andrea	-11.7571
▁clone	-11.7577
▁stray	-11.7579
una	-11.7583
▁nest	-11.7597
▁ros	-11.7598
ama	-11.76
ai	-11.7601
rubber	-11.7612
tence	-11.7616
▁exclud	-11.7617
▁dome	-11.7618
▁gifts	-11.7619
▁corre	-11.762
▁communicat	-11.7623
▁01	-11.7639
▁sanit	-11.7645
▁heir	-11.7648
▁tik	-11.7655
crates	-11.7658
inal	-11.7665
dler	-11.767
▁yama	-11.7673
▁morale	-11.7674
▁haniy	-11.7675
▁sid	-11.7676
▁indecen	-11.7699
bound	-11.77
richt	-11.7704
ab	-11.7705
eur	-11.7705
▁cur	-11.7711
capri	-11.7715
737	-11.7718
▁math	-11.7718
rative	-11.7719
cular	-11.7725
▁chan	-11.7729
▁benoi	-11.7729
▁edg	-11.7729
▁ste	-11.7735
▁scratch	-11.774
ories	-11.7747
▁ann	-11.7755
kov	-11.7756
▁motivat	-11.777
▁mul	-11.7776
acks	-11.7777
try	-11.7777
op	-11.7784
▁colli	-11.7812
▁telegra	-11.7833
lo	-11.7833
▁filling	-11.7837
eba	-11.7849
sorti	-11.7856
ik	-11.7859
afford	-11.7867
ake	-11.7868
▁retaliati	-11.7874
▁nett	-11.7876
sif	-11.7878
▁overwhelm	-11.7878
ram	-11.7882
▁claus	-11.789
print	-11.7892
▁congratulate	-11.7901
ph	-11.7902
▁pas	-11.7909
awar	-11.791
▁tread	-11.7928
▁males	-11.7931
▁gard	-11.7935
storm	-11.7945
vin	-11.7947
zer	-11.7948
morgan	-11.7949
four	-11.7951
▁teach	-11.7951
▁merge	-11.7952
▁comput	-11.7953
▁invade	-11.7956
qian	-11.7957
sche	-11.7968
zemi	-11.7973
▁passe	-11.7975
▁von	-11.7978
▁choices	-11.7992
phere	-11.7992
▁revise	-11.7993
ula	-11.7993
horn	-11.7993
▁hawkin	-11.7994
▁fundrais	-11.7996
▁depos	-11.7997
▁bump	-11.7998
▁dose	-11.8
▁preach	-11.8002
ow	-11.8004
▁attribute	-11.8005
▁restructur	-11.8007
▁acquitt	-11.8008
▁inspect	-11.8009
▁laund	-11.8009
▁swap	-11.8011
▁oct	-11.8012
▁interact	-11.8013
▁posts	-11.8017
iquit	-11.8018
▁shove	-11.8019
▁implant	-11.802
▁rainforest	-11.802
▁allegiance	-11.802
▁bystander	-11.802
▁confiscate	-11.802
▁defensive	-11.802
▁excerpt	-11.802
▁fragil	-11.802
▁nutrient	-11.802
▁unleash	-11.802
▁reprocess	-11.802
▁aborigin	-11.802
▁erect	-11.802
▁gymnast	-11.802
▁dormitor	-11.802
▁ecosystem	-11.802
▁provocative	-11.802
▁sculpture	-11.802
▁negligen	-11.802
▁spree	-11.802
▁dupre	-11.802
▁eduard	-11.802
▁hajj	-11.802
▁blunder	-11.802
▁unofficial	-11.802
▁horror	-11.802
▁furious	-11.802
▁curious	-11.802
▁expulsion	-11.802
▁overflow	-11.8021
▁commentator	-11.8021
▁proclaim	-11.8021
▁elvi	-11.8021
▁storage	-11.8021
▁pupp	-11.8021
▁blackberr	-11.8021
▁jefferson	-11.8021
▁cancellation	-11.8021
▁footprint	-11.8022
▁robinson	-11.8022
▁classmate	-11.8022
▁zo	-11.8022
▁dictatorship	-11.8022
▁stroll	-11.8022
osexual	-11.8022
▁spacewalk	-11.8022
▁zambia	-11.8022
▁taint	-11.8023
▁mcnam	-11.8023
▁landfall	-11.8023
▁collar	-11.8023
▁embark	-11.8023
shmi	-11.8023
▁headache	-11.8024
▁differ	-11.8024
▁swamp	-11.8024
▁ossuar	-11.8024
▁malign	-11.8024
▁jerem	-11.8025
▁installment	-11.8025
▁architecture	-11.8025
▁thigh	-11.8026
▁hoist	-11.8026
▁cream	-11.8026
▁gorge	-11.8027
▁adaptation	-11.8027
▁considerably	-11.8027
▁sanctuar	-11.8028
▁alvar	-11.8028
▁soften	-11.8028
▁translation	-11.8028
▁garner	-11.8028
▁phrase	-11.8029
▁cameroon	-11.8029
▁regiment	-11.803
▁weightless	-11.803
▁jelly	-11.803
▁nep	-11.803
▁weird	-11.8032
▁porn	-11.8033
▁trench	-11.8033
▁barrage	-11.8034
▁reap	-11.8035
▁swarm	-11.8035
▁carriage	-11.8036
▁billboard	-11.8036
▁reeves	-11.8037
▁magnetic	-11.8037
▁bulgarian	-11.8038
▁hank	-11.8039
▁sabotag	-11.804
▁render	-11.804
desta	-11.8042
▁zahi	-11.8045
shed	-11.8045
sule	-11.8046
▁affection	-11.8048
▁hik	-11.8049
▁boil	-11.8052
▁ridge	-11.8052
▁cypr	-11.8054
▁stark	-11.8055
arcia	-11.8055
tis	-11.8056
▁pleasure	-11.8056
▁vick	-11.8062
▁plantation	-11.8062
ex	-11.8062
egas	-11.8063
▁foul	-11.8064
▁thorn	-11.8065
uez	-11.8066
▁stranger	-11.8071
▁320	-11.8073
▁economically	-11.8074
▁objection	-11.8076
▁backward	-11.8076
▁shocking	-11.8078
dysse	-11.8079
▁doming	-11.8082
dominant	-11.8084
▁tail	-11.8093
▁vanish	-11.8095
▁stair	-11.8096
▁raze	-11.8097
ux	-11.81
ft	-11.8102
nglo	-11.8104
▁beache	-11.8106
▁showcase	-11.8107
mat	-11.811
nga	-11.8111
uous	-11.8112
▁mau	-11.8113
▁plume	-11.8113
▁starv	-11.8117
▁collid	-11.8118
iness	-11.8126
▁watt	-11.8127
▁particles	-11.8131
▁credibl	-11.8132
08	-11.8133
descent	-11.8133
▁lynn	-11.8137
▁clan	-11.8137
▁fitt	-11.8138
▁mende	-11.8141
▁widen	-11.8143
▁wheels	-11.8146
nic	-11.8148
spoke	-11.815
hem	-11.8151
▁oliver	-11.8153
spective	-11.8154
▁perch	-11.8157
▁192	-11.8158
▁sai	-11.8158
errill	-11.8165
▁py	-11.8171
▁assurance	-11.8178
▁zhu	-11.8178
▁accelerat	-11.8185
cade	-11.8191
▁hijacker	-11.8192
▁pu	-11.8206
teau	-11.8207
▁diagnos	-11.8211
haus	-11.8217
▁ears	-11.8217
irming	-11.8221
▁vai	-11.8221
bad	-11.8226
▁crossings	-11.8228
▁enhanc	-11.8232
▁scuffle	-11.8238
▁northwester	-11.8238
▁excite	-11.8241
▁pois	-11.8245
▁cord	-11.8246
▁pizz	-11.8249
▁drag	-11.8253
bola	-11.8253
eera	-11.8253
atic	-11.8255
band	-11.8266
▁forgot	-11.8272
rod	-11.8277
terra	-11.8283
▁145	-11.8285
tina	-11.8288
▁dependenc	-11.8292
▁timo	-11.8293
▁stil	-11.8295
▁joan	-11.8296
▁amass	-11.8296
pping	-11.8298
mz	-11.8299
mill	-11.8301
▁container	-11.8303
nean	-11.8303
▁bite	-11.8305
▁q	-11.8325
▁patt	-11.8326
▁barn	-11.8333
ark	-11.8339
▁boni	-11.8343
mir	-11.8346
lula	-11.8355
▁valen	-11.8363
▁reli	-11.8367
▁periodic	-11.8372
▁killers	-11.8374
via	-11.8377
▁tolerate	-11.838
▁tier	-11.8384
zel	-11.8385
▁upgrade	-11.8395
▁blockbuster	-11.8399
▁yo	-11.8402
▁yacht	-11.8405
▁hol	-11.8411
▁displace	-11.8414
▁qualifi	-11.8427
▁bore	-11.8428
▁maha	-11.8428
▁gad	-11.8429
▁tick	-11.8429
▁shre	-11.8433
nc	-11.8436
▁rever	-11.8441
eads	-11.8445
▁qua	-11.8445
▁shortl	-11.8447
enberg	-11.8447
▁pressur	-11.8448
▁sept	-11.8453
unt	-11.8456
▁vin	-11.8456
▁rem	-11.8459
ci	-11.8474
tano	-11.8475
▁gag	-11.8479
▁coerc	-11.8483
lc	-11.8495
▁assum	-11.85
▁belly	-11.8503
▁opener	-11.8506
▁pyon	-11.8511
ozak	-11.8517
▁subsid	-11.8521
▁recogniz	-11.8532
▁oz	-11.8534
▁dot	-11.8535
▁nim	-11.854
▁item	-11.8548
▁offend	-11.855
▁braun	-11.8552
▁graves	-11.8555
take	-11.856
▁sway	-11.856
iko	-11.8561
▁dresse	-11.8563
▁amuse	-11.8564
ned	-11.8568
otic	-11.858
▁emm	-11.8586
▁participati	-11.8588
▁vent	-11.859
▁ami	-11.859
reze	-11.8595
eira	-11.8598
nant	-11.8602
▁gunn	-11.8628
33	-11.8639
▁stre	-11.8643
olla	-11.8643
▁alg	-11.8645
▁rec	-11.8656
lion	-11.866
roll	-11.8667
heim	-11.8674
▁fann	-11.8677
eem	-11.8678
▁marcel	-11.8686
▁stabiliz	-11.8686
▁sketch	-11.8686
brew	-11.8688
liga	-11.8691
▁kings	-11.8692
grade	-11.8703
▁mole	-11.8708
unes	-11.871
fraction	-11.8713
continent	-11.8714
wealth	-11.8715
pover	-11.8719
eddin	-11.8719
▁slowing	-11.8724
▁assure	-11.8725
▁hp	-11.8726
▁dian	-11.8726
ache	-11.8731
▁absolute	-11.8732
hurt	-11.8734
▁initiat	-11.8738
▁cana	-11.8741
▁futur	-11.8742
▁soak	-11.8743
▁veer	-11.8743
▁tur	-11.8745
▁filmmak	-11.8745
▁dip	-11.8752
stair	-11.8757
▁valid	-11.8758
▁220	-11.8761
nbar	-11.8763
▁prox	-11.8766
rock	-11.877
▁bike	-11.8776
▁evacu	-11.878
▁humane	-11.8781
▁christin	-11.8781
irna	-11.8783
▁spawn	-11.8785
▁abdom	-11.8788
▁ideolog	-11.8789
▁accommodate	-11.8789
▁aggregate	-11.8789
▁barclay	-11.8789
▁dynast	-11.8789
▁embargo	-11.8789
▁frequenc	-11.8789
▁jaguar	-11.8789
▁juventu	-11.8789
▁mogul	-11.8789
▁motorbike	-11.8789
▁reminisce	-11.8789
▁unconditional	-11.8789
▁workforce	-11.8789
▁clergy	-11.8789
▁vendor	-11.8789
▁deforest	-11.8789
▁firearm	-11.8789
▁snatch	-11.8789
▁standstill	-11.8789
▁nixon	-11.8789
▁disguise	-11.8789
▁quarantine	-11.8789
▁thumb	-11.8789
▁pinpoint	-11.8789
▁defence	-11.8789
▁mauritania	-11.8789
▁minimal	-11.8789
▁knox	-11.8789
bhumi	-11.879
▁coffin	-11.879
▁bimbo	-11.879
▁smurf	-11.879
▁fabio	-11.879
▁skeleton	-11.879
▁hoop	-11.879
▁overshadow	-11.879
▁sermon	-11.879
▁greenspan	-11.879
▁appall	-11.879
▁meteorologist	-11.879
▁insect	-11.879
▁thunder	-11.879
▁overdose	-11.879
▁abram	-11.879
▁delaware	-11.879
▁calder	-11.879
▁cedar	-11.879
▁pancrea	-11.8791
▁rope	-11.8791
▁description	-11.8791
▁bryan	-11.8791
▁tusk	-11.8791
▁emitt	-11.8791
▁perpetrator	-11.8791
inous	-11.8791
▁imagination	-11.8791
▁accelerate	-11.8791
▁canister	-11.8792
▁felon	-11.8792
▁jihadist	-11.8793
▁gangster	-11.8793
▁brake	-11.8793
▁snack	-11.8793
▁marble	-11.8793
ukov	-11.8793
▁invention	-11.8793
▁characteristic	-11.8794
▁jacket	-11.8794
▁slavery	-11.8795
▁specimen	-11.8795
htis	-11.8796
▁shotgun	-11.8796
uver	-11.8797
▁downplay	-11.8797
▁lenno	-11.8797
▁racist	-11.8797
▁gown	-11.8798
▁innovati	-11.8799
▁spouse	-11.88
▁nightmare	-11.8801
▁mirr	-11.8801
▁disneyland	-11.8802
▁coastline	-11.8802
▁850	-11.8803
▁foil	-11.8804
▁beard	-11.8804
▁overheat	-11.8805
▁sulli	-11.8805
▁statistical	-11.8806
▁reef	-11.8806
▁complication	-11.8807
▁therapist	-11.8807
▁detector	-11.881
▁budd	-11.8813
▁meyer	-11.8815
▁antiquit	-11.8817
▁rental	-11.8819
▁cordon	-11.8821
▁degrad	-11.8821
▁resistan	-11.8822
▁algerian	-11.8822
▁finalist	-11.8822
▁rubin	-11.8822
▁usher	-11.8823
▁fog	-11.8824
trick	-11.8824
▁capitalist	-11.8824
▁flo	-11.8826
▁kisses	-11.8827
▁hogan	-11.8827
▁festiv	-11.8829
▁126	-11.883
bal	-11.883
ailing	-11.8832
▁civi	-11.8836
▁leather	-11.8837
▁lawless	-11.8837
▁irra	-11.8844
▁hallway	-11.8846
▁scorch	-11.8847
▁ameli	-11.8848
▁kha	-11.8848
ochi	-11.8848
▁bir	-11.8849
fest	-11.885
▁flies	-11.8853
▁lime	-11.8854
▁todd	-11.8854
▁subsidiar	-11.8854
runa	-11.8856
libu	-11.8859
▁fold	-11.8863
▁invad	-11.8864
▁abn	-11.8867
km	-11.8867
jani	-11.8878
▁samp	-11.8878
▁yasuhi	-11.8883
▁blackout	-11.8888
▁enthusiastic	-11.8889
▁translate	-11.8894
▁exceptional	-11.8899
fan	-11.8901
▁vip	-11.8901
▁118	-11.8908
▁shau	-11.8908
▁myth	-11.8912
▁lakes	-11.8913
▁xia	-11.8919
yev	-11.8919
▁layer	-11.8927
saw	-11.893
▁correction	-11.8936
▁mong	-11.8938
▁186	-11.8939
▁dancer	-11.8943
▁aig	-11.8943
rup	-11.8944
▁munition	-11.8945
▁dori	-11.8946
▁aut	-11.8947
▁soda	-11.8947
immer	-11.8953
ore	-11.8953
▁forge	-11.8953
▁bart	-11.8955
zone	-11.8959
▁fosse	-11.8959
▁pier	-11.8961
▁nois	-11.8963
▁cure	-11.8965
song	-11.8965
▁gere	-11.8975
▁arabian	-11.8979
hez	-11.8981
▁rode	-11.8982
▁deco	-11.8983
▁incit	-11.8983
aria	-11.8986
▁dear	-11.8987
▁beneficiar	-11.8989
▁lava	-11.8996
▁bra	-11.9
▁tune	-11.9001
▁undern	-11.9005
▁litera	-11.9013
▁queens	-11.9014
▁sanc	-11.9015
shi	-11.9017
▁naha	-11.9018
▁destabilize	-11.9019
▁veri	-11.9022
▁lat	-11.9027
pt	-11.9027
▁ful	-11.9034
ique	-11.9037
▁julian	-11.9039
nian	-11.9048
▁leve	-11.9049
▁dav	-11.9066
▁sue	-11.9067
▁seeds	-11.9072
ite	-11.9074
riza	-11.9085
▁tile	-11.9086
▁freeway	-11.9088
▁murd	-11.91
▁orchestrat	-11.9109
rail	-11.9116
▁contents	-11.9124
▁forbidd	-11.9129
▁clutch	-11.9136
▁casp	-11.9136
▁manipulat	-11.9144
dah	-11.9157
▁gigg	-11.9165
▁drastic	-11.9171
▁baa	-11.9172
eh	-11.9179
kar	-11.9184
▁barb	-11.9189
▁lah	-11.92
eb	-11.921
▁seale	-11.9219
mun	-11.9227
are	-11.923
▁robin	-11.9236
yi	-11.9236
and	-11.9239
ancy	-11.9241
▁defi	-11.9243
▁arrangement	-11.9251
▁tian	-11.9251
▁masa	-11.9259
▁corpse	-11.9263
▁squeez	-11.9263
▁280	-11.9271
we	-11.9274
▁underline	-11.9276
erous	-11.9278
▁tag	-11.928
▁denounce	-11.9285
▁improvements	-11.9286
▁burr	-11.929
▁timing	-11.929
▁intoxicat	-11.9304
▁captive	-11.9311
environmentalist	-11.9316
umn	-11.9322
▁insider	-11.9322
▁vil	-11.9329
ateur	-11.9332
▁bot	-11.9333
▁turna	-11.9334
ature	-11.9351
vich	-11.9355
▁silic	-11.9357
▁cite	-11.9364
fi	-11.9375
▁lag	-11.9376
▁mot	-11.938
tia	-11.9384
▁210	-11.9386
▁stam	-11.939
▁undermin	-11.9415
▁clar	-11.9415
ging	-11.9426
▁speculate	-11.9431
▁facilitate	-11.9432
elhof	-11.9444
▁guarded	-11.9444
ahab	-11.9455
▁arth	-11.946
▁wilder	-11.9462
▁admir	-11.9466
ica	-11.9472
zawa	-11.9477
▁stabb	-11.948
▁litter	-11.9481
▁appli	-11.9487
▁beck	-11.9487
tta	-11.9502
▁shim	-11.9502
dullah	-11.9503
gh	-11.9506
▁complicate	-11.9506
ido	-11.9506
▁finn	-11.9509
▁deer	-11.9513
res	-11.9515
gomer	-11.9522
▁repatriati	-11.953
▁07	-11.9531
▁slash	-11.9533
▁seeming	-11.9534
power	-11.9535
▁tro	-11.9538
bert	-11.9539
ju	-11.9539
visibl	-11.9541
▁philosoph	-11.9544
model	-11.9548
foot	-11.9549
▁schn	-11.955
niya	-11.9553
▁chronic	-11.9555
scale	-11.9556
▁reliabl	-11.956
▁ike	-11.9562
bee	-11.9563
▁hil	-11.9563
nko	-11.9568
▁subsi	-11.9572
▁discriminat	-11.9574
▁statin	-11.9575
▁messag	-11.9576
▁capit	-11.9577
▁interviewer	-11.9579
semble	-11.9579
▁mona	-11.958
▁roth	-11.9584
iat	-11.9585
▁destructi	-11.9586
▁deter	-11.9591
▁erode	-11.9593
▁authentic	-11.9598
▁00	-11.9601
▁heel	-11.9601
ffen	-11.9602
▁bulgaria	-11.9602
▁pur	-11.9603
▁albania	-11.9603
▁dann	-11.9603
▁hom	-11.9604
▁clemen	-11.9605
▁reluctan	-11.9605
▁significan	-11.9605
roads	-11.9607
▁abdulla	-11.9608
▁dora	-11.9611
▁intensifi	-11.9611
ouf	-11.9613
▁tribun	-11.9618
▁happi	-11.9621
▁orphan	-11.9621
▁hairdress	-11.9623
▁explicit	-11.9623
▁relegat	-11.9623
▁rockefeller	-11.9623
▁administer	-11.9623
▁aggravate	-11.9623
▁athletic	-11.9623
▁cantaloupe	-11.9623
▁carnival	-11.9623
▁embezzl	-11.9623
▁evident	-11.9623
▁fortunate	-11.9623
▁integrity	-11.9623
▁rebuke	-11.9623
▁scooter	-11.9623
▁unnecessar	-11.9623
▁effig	-11.9623
▁thymus	-11.9623
▁curtain	-11.9623
▁cheetah	-11.9623
▁twitter	-11.9623
▁warrior	-11.9623
▁solving	-11.9623
▁definitive	-11.9623
▁superjumbo	-11.9623
▁vinci	-11.9623
▁delicate	-11.9623
▁oxford	-11.9623
▁warlord	-11.9623
▁amputat	-11.9623
▁leopard	-11.9623
▁ericsson	-11.9623
▁appetite	-11.9623
▁emmanuel	-11.9623
▁siberia	-11.9623
▁barroso	-11.9623
▁safeguard	-11.9623
▁cubic	-11.9623
▁lehman	-11.9623
▁cesar	-11.9623
▁hispanic	-11.9623
▁ecsta	-11.9623
▁zheng	-11.9623
▁forehand	-11.9624
▁goddess	-11.9624
▁specify	-11.9624
▁crab	-11.9624
▁imam	-11.9624
▁feud	-11.9624
▁grocer	-11.9624
▁introduction	-11.9624
▁stump	-11.9624
▁annoy	-11.9624
▁pelvi	-11.9624
▁fundamentalist	-11.9624
▁volley	-11.9624
▁seizure	-11.9625
▁evaluation	-11.9625
▁orientation	-11.9625
▁discard	-11.9625
▁workshop	-11.9625
▁latitude	-11.9625
▁unfold	-11.9626
▁jen	-11.9626
▁wedge	-11.9626
▁centimeter	-11.9627
ussain	-11.9627
▁newborn	-11.9628
▁enron	-11.9629
▁tallie	-11.9629
▁ginger	-11.9631
cini	-11.9631
▁throng	-11.9631
▁innovation	-11.9632
ollea	-11.9632
▁counselor	-11.9634
▁baptist	-11.9635
▁roche	-11.9636
▁referee	-11.9636
▁decorat	-11.9637
▁gripp	-11.9638
▁assignment	-11.9639
▁nano	-11.9641
▁lexi	-11.9642
▁hardship	-11.9644
rjee	-11.9645
▁valve	-11.9645
wadd	-11.9648
▁trev	-11.9648
guet	-11.9648
▁fledg	-11.9648
▁avert	-11.9651
▁hoff	-11.9654
▁jamaican	-11.9654
nate	-11.9655
▁leaf	-11.9656
▁soba	-11.9657
▁genre	-11.9657
▁scanner	-11.9659
▁bishop	-11.966
▁bubble	-11.9662
▁schult	-11.9662
cheema	-11.9663
▁hernan	-11.9665
▁jaw	-11.9665
▁orde	-11.9667
▁swam	-11.967
uz	-11.9672
▁wow	-11.9673
▁ramm	-11.9674
uart	-11.9675
▁combatant	-11.9676
▁jogg	-11.968
▁nail	-11.9684
avaro	-11.9685
▁ruth	-11.9685
ttle	-11.9686
▁reminder	-11.9687
▁chok	-11.9688
fid	-11.969
▁slot	-11.9692
▁butcher	-11.9693
pinning	-11.9698
▁rack	-11.97
▁suck	-11.9701
▁mp	-11.9702
▁bible	-11.9704
▁supervis	-11.9707
tech	-11.9713
▁depriv	-11.9715
▁arche	-11.9717
coni	-11.9724
anda	-11.9726
▁ruba	-11.9731
dida	-11.9732
hu	-11.9735
cna	-11.9735
▁philipp	-11.9737
330	-11.9741
xel	-11.9745
oslo	-11.9749
▁thriv	-11.975
▁montrea	-11.9753
▁hari	-11.9754
▁triple	-11.976
▁refiner	-11.9763
▁psycho	-11.9764
▁reveren	-11.977
sushi	-11.9771
▁kana	-11.9771
▁dipped	-11.9773
▁owe	-11.9774
▁homer	-11.9781
▁bleed	-11.9784
▁porter	-11.9784
tical	-11.9785
▁helms	-11.9786
▁fur	-11.9791
▁kean	-11.9797
▁hanu	-11.9798
▁hacke	-11.9802
▁disapprov	-11.9802
esco	-11.9803
▁bent	-11.9808
▁wol	-11.9808
▁slice	-11.9812
anxi	-11.9815
▁debat	-11.9818
▁shank	-11.9818
▁compil	-11.9827
▁paradi	-11.9831
▁flexib	-11.9832
safe	-11.9837
pat	-11.984
xis	-11.9841
▁sights	-11.985
▁hy	-11.9866
▁mori	-11.9867
eparation	-11.9868
▁georgian	-11.9869
▁motivate	-11.9871
▁balk	-11.9872
nis	-11.9874
▁sur	-11.9876
▁esp	-11.9881
▁tsa	-11.9892
▁vici	-11.9897
lynn	-11.99
▁gall	-11.9903
▁136	-11.9905
▁pave	-11.9906
▁hans	-11.9908
▁swimmer	-11.9912
▁kg	-11.9914
rus	-11.9915
▁qui	-11.9917
▁claudi	-11.9918
ith	-11.992
▁pl	-11.9921
▁pools	-11.9929
▁insight	-11.9931
▁mcc	-11.9932
▁kerch	-11.9935
idge	-11.9936
▁extradit	-11.9937
▁infringe	-11.9939
▁wise	-11.9946
oom	-11.9948
▁camel	-11.9949
hill	-11.995
▁roo	-11.9954
▁burt	-11.9959
▁bun	-11.9959
illy	-11.9969
▁dishe	-11.997
book	-11.9971
wind	-11.9972
▁jessi	-11.9974
▁funn	-11.9983
▁grandchild	-11.999
▁relevan	-11.9995
dential	-11.9997
etic	-12.0015
▁riches	-12.0019
▁cali	-12.0021
▁crippl	-12.0024
arkan	-12.0027
▁passports	-12.0028
▁gm	-12.0033
▁plagu	-12.0034
ged	-12.0039
ring	-12.0042
▁realiz	-12.005
▁dipp	-12.0054
▁anticipate	-12.0054
▁toshi	-12.0057
▁yachts	-12.0058
boca	-12.0062
rai	-12.0065
▁wade	-12.0069
▁124	-12.0073
▁pot	-12.0074
▁pont	-12.0082
▁fines	-12.0085
▁kae	-12.0105
▁suf	-12.0107
dell	-12.0107
▁assassinate	-12.0108
▁physiolog	-12.0112
▁tae	-12.0114
workers	-12.0114
earby	-12.0122
wn	-12.0131
▁buff	-12.0134
wage	-12.0145
▁tipp	-12.015
▁kl	-12.0155
dis	-12.0155
ech	-12.0155
▁exhaust	-12.016
▁coaster	-12.0164
▁serv	-12.0166
▁settlements	-12.0167
▁insur	-12.0167
ii	-12.0174
▁devote	-12.018
▁eurosta	-12.0191
▁pum	-12.0193
▁pian	-12.0199
▁lars	-12.0199
▁strapp	-12.02
ky	-12.0215
bin	-12.0216
▁bias	-12.0219
▁stoke	-12.022
▁controller	-12.0227
▁preced	-12.0228
14	-12.023
▁hubb	-12.0235
▁disciplin	-12.0239
▁gamble	-12.0239
▁jitter	-12.0246
▁zi	-12.0254
▁dill	-12.0258
▁renounce	-12.0262
voi	-12.0275
dance	-12.0286
▁excavat	-12.0294
oval	-12.0312
▁compile	-12.0316
polis	-12.0318
bs	-12.0325
▁assembl	-12.0325
▁114	-12.0331
ision	-12.0337
▁kor	-12.0342
▁scho	-12.0351
▁whiske	-12.0354
▁prai	-12.0355
▁odi	-12.0361
lash	-12.0362
▁boon	-12.0363
ndell	-12.0367
▁berk	-12.0368
▁flavor	-12.0372
▁turki	-12.0372
nov	-12.0381
lamin	-12.0384
▁godd	-12.0387
▁iz	-12.0387
lett	-12.0388
▁server	-12.0395
soon	-12.0396
▁intentional	-12.0401
▁marco	-12.0413
rge	-12.0413
ppe	-12.0419
▁deng	-12.0422
▁seeker	-12.0422
▁fle	-12.043
▁exception	-12.0436
▁downer	-12.0438
▁firefight	-12.0442
itive	-12.0447
▁revis	-12.0448
▁hostilit	-12.0451
▁gir	-12.0453
beat	-12.0454
nutrition	-12.0455
mia	-12.0456
▁zin	-12.0459
▁bibl	-12.0467
▁logg	-12.0471
▁trac	-12.0473
▁alba	-12.0475
nom	-12.0476
say	-12.0477
▁beate	-12.048
▁bat	-12.0482
drop	-12.0485
▁chuck	-12.0489
ku	-12.0497
text	-12.0498
season	-12.05
rgis	-12.0503
▁astronom	-12.0504
eu	-12.0506
▁perceiv	-12.0507
gne	-12.0509
▁gabriel	-12.0513
ussi	-12.0515
▁bre	-12.0518
▁neutral	-12.0522
scope	-12.0526
▁audit	-12.0531
▁bless	-12.0531
▁abrupt	-12.0532
▁alligator	-12.0532
▁berezovsky	-12.0532
▁cockpit	-12.0532
▁disadvantage	-12.0532
▁djamena	-12.0532
▁eyewitness	-12.0532
▁fraudulent	-12.0532
▁jurisdiction	-12.0532
▁lithuania	-12.0532
▁merciless	-12.0532
▁refrain	-12.0532
▁salvador	-12.0532
▁avatar	-12.0532
▁caesar	-12.0532
▁cuisine	-12.0532
▁feminin	-12.0532
▁magellan	-12.0532
▁unearth	-12.0532
▁lawrence	-12.0532
▁humpback	-12.0532
▁intimate	-12.0532
▁submarine	-12.0532
▁superstar	-12.0532
▁encrypt	-12.0532
▁grape	-12.0532
▁suitcase	-12.0532
▁glory	-12.0532
▁surrogate	-12.0532
▁bjor	-12.0532
▁worship	-12.0532
▁ditch	-12.0532
▁creek	-12.0532
lroo	-12.0532
▁storytell	-12.0532
▁charismatic	-12.0532
▁diaries	-12.0532
▁sitcom	-12.0532
▁complicit	-12.0532
▁antenna	-12.0533
▁mujah	-12.0533
▁lizard	-12.0533
▁unify	-12.0533
▁millenni	-12.0533
▁screenplay	-12.0533
▁brink	-12.0533
▁registration	-12.0533
▁hosseini	-12.0533
▁sidewalk	-12.0533
▁celtic	-12.0533
▁nickel	-12.0533
▁motel	-12.0534
ndition	-12.0534
▁collaboration	-12.0534
▁bachelor	-12.0534
anana	-12.0534
atero	-12.0534
▁enroll	-12.0534
▁muddy	-12.0534
▁bosnia	-12.0535
▁spider	-12.0535
▁unfor	-12.0535
eille	-12.0536
▁systematic	-12.0536
▁compatible	-12.0536
▁meadow	-12.0536
▁frenz	-12.0536
▁reprise	-12.0537
▁ukrainian	-12.0537
▁absorb	-12.0537
▁interceptor	-12.0537
▁calculation	-12.0538
▁feline	-12.0539
▁hopkin	-12.0539
▁motorist	-12.0539
▁griffith	-12.054
▁orient	-12.0541
▁infantry	-12.0541
▁elisa	-12.0542
▁lieber	-12.0542
▁infern	-12.0542
▁auditor	-12.0542
▁migration	-12.0543
kanit	-12.0544
▁heroic	-12.0544
▁slapp	-12.0544
▁mint	-12.0545
▁nile	-12.0545
▁feast	-12.0545
▁windsor	-12.0546
▁acceptance	-12.0547
▁qin	-12.0547
acle	-12.0548
▁hideout	-12.0548
▁balkan	-12.0548
▁bandit	-12.0548
260	-12.0549
▁olive	-12.0549
▁roug	-12.055
▁graph	-12.055
▁colorful	-12.055
▁taji	-12.055
choles	-12.055
▁confession	-12.0551
▁maru	-12.0551
▁slush	-12.0552
▁dimensional	-12.0552
▁cruz	-12.0553
▁hillside	-12.0554
▁libi	-12.0554
▁mountainside	-12.0555
▁greg	-12.0555
▁playoff	-12.0556
▁theatre	-12.0558
▁ricard	-12.0559
▁swat	-12.0559
▁roland	-12.0559
▁rosen	-12.056
▁clement	-12.0561
▁seminar	-12.0561
▁accessor	-12.0562
▁cro	-12.0564
▁diwa	-12.0565
▁transformation	-12.0566
▁lapse	-12.0567
▁mv	-12.0568
▁buffet	-12.0568
▁validate	-12.057
lept	-12.057
▁fester	-12.0571
▁crane	-12.0571
▁stutt	-12.0572
▁airship	-12.0572
▁temper	-12.0573
▁fabr	-12.0577
ospi	-12.0578
▁arrange	-12.0581
▁charm	-12.0584
niste	-12.0585
▁113	-12.0586
▁lagg	-12.0587
▁inspiration	-12.0588
▁parr	-12.0593
▁reper	-12.0594
▁mortal	-12.0597
▁bras	-12.0599
▁educate	-12.0602
clusion	-12.0604
zuma	-12.0605
▁dogged	-12.0606
▁cough	-12.061
▁bund	-12.061
▁mus	-12.0614
toff	-12.0614
▁dob	-12.0615
▁zane	-12.0616
ucinic	-12.0616
▁adventurer	-12.0616
▁processor	-12.0616
▁merv	-12.0617
▁tender	-12.0617
▁salary	-12.0618
▁lump	-12.062
aron	-12.0621
nction	-12.0624
aux	-12.0624
▁lari	-12.0624
▁ghan	-12.0624
▁gase	-12.063
▁monet	-12.063
yu	-12.0631
▁kan	-12.0637
etti	-12.0646
▁qur	-12.0647
▁deflect	-12.0648
▁giro	-12.0651
▁grove	-12.0656
▁paw	-12.0657
▁gallu	-12.0661
▁tran	-12.0665
▁asha	-12.0665
▁dignitar	-12.0666
▁pale	-12.0669
che	-12.067
▁electro	-12.0671
▁booster	-12.0674
▁94	-12.0675
tze	-12.0676
▁informal	-12.0679
▁envelope	-12.0682
▁seasons	-12.0683
ts	-12.0687
oven	-12.0693
▁candid	-12.0697
▁barna	-12.0701
ill	-12.0702
nfl	-12.0712
oon	-12.0716
▁lonely	-12.0717
▁fried	-12.0721
▁gai	-12.0739
ken	-12.0741
ink	-12.0742
▁cassa	-12.0747
achi	-12.0749
▁gill	-12.075
stitution	-12.075
▁intimidati	-12.0753
▁viewing	-12.0754
lloy	-12.0754
▁lav	-12.0754
ipped	-12.0756
▁hum	-12.0766
rov	-12.0766
▁eisen	-12.0768
▁trauma	-12.0783
moto	-12.0792
▁modifi	-12.0801
▁tightening	-12.081
▁launche	-12.0811
▁mri	-12.0814
▁blu	-12.0818
▁precedent	-12.082
riq	-12.0823
▁luz	-12.0829
errez	-12.083
ket	-12.0834
▁gil	-12.0839
▁bet	-12.0841
▁supplements	-12.0856
▁borg	-12.0863
▁kad	-12.0867
▁thi	-12.0873
▁barre	-12.0874
part	-12.0875
urke	-12.0876
rdin	-12.0876
▁tyl	-12.0877
awat	-12.0878
▁salam	-12.0886
▁schum	-12.0888
mert	-12.0897
▁jeer	-12.0898
▁mao	-12.0899
all	-12.0908
▁campaigner	-12.0911
lateral	-12.0912
▁zealander	-12.0915
stick	-12.0923
uki	-12.0934
▁justifi	-12.0939
▁rile	-12.094
▁tumble	-12.0952
yah	-12.0953
▁marti	-12.0957
▁presid	-12.0961
▁reut	-12.0967
vani	-12.0972
▁spect	-12.0976
bes	-12.0978
▁185	-12.0981
▁122	-12.0982
▁conced	-12.0984
▁shaf	-12.0991
acio	-12.0994
▁mono	-12.1
▁bells	-12.1001
▁peta	-12.1005
▁jamm	-12.1013
▁misunder	-12.1013
anga	-12.1017
win	-12.1022
▁sequel	-12.1031
▁foray	-12.1032
▁snipe	-12.1037
thic	-12.1039
gang	-12.1041
sman	-12.1041
▁exchang	-12.1047
uk	-12.1048
awa	-12.1048
▁betray	-12.1049
▁sik	-12.105
▁resona	-12.1061
ox	-12.1065
▁wishe	-12.1067
▁geo	-12.1078
rop	-12.1089
▁pir	-12.109
oni	-12.1093
oc	-12.1096
▁blade	-12.1105
▁eli	-12.1108
cin	-12.1114
▁mali	-12.1119
▁tira	-12.112
hmer	-12.1121
will	-12.1121
▁dim	-12.1122
hamel	-12.1123
than	-12.1126
▁integrat	-12.1132
uted	-12.1133
pho	-12.1137
▁reassure	-12.1138
eij	-12.114
▁crumbl	-12.1142
lam	-12.1143
▁dedicate	-12.1146
lana	-12.1149
▁diver	-12.1152
▁scholar	-12.1154
▁penguin	-12.1156
▁pill	-12.1156
▁resource	-12.1159
▁gra	-12.116
dwell	-12.1161
▁petro	-12.1165
gie	-12.1167
▁genom	-12.1177
▁discourage	-12.1179
lice	-12.1181
smo	-12.1183
▁hadn	-12.1184
rei	-12.1186
▁jess	-12.1186
▁replica	-12.1195
▁josh	-12.1195
▁nikol	-12.1197
▁elevat	-12.1199
mara	-12.1207
▁planner	-12.121
stra	-12.1212
▁jae	-12.1214
of	-12.1221
▁garr	-12.1225
1948	-12.123
etz	-12.1236
ilo	-12.1245
elipe	-12.1245
▁kampu	-12.1246
bouc	-12.1247
▁merg	-12.1247
zan	-12.1251
bol	-12.1255
using	-12.1256
▁spra	-12.1263
oir	-12.1278
boy	-12.1281
▁intrigu	-12.1281
▁censor	-12.1286
▁shade	-12.1289
wana	-12.1291
▁biograph	-12.1295
▁mosle	-12.1297
▁uncla	-12.1298
ehr	-12.1299
▁predicts	-12.13
▁lis	-12.1306
dana	-12.131
▁rage	-12.1311
▁nat	-12.1311
tikh	-12.1312
▁programme	-12.1313
▁gail	-12.1336
▁dissolv	-12.1337
▁bruis	-12.134
▁conscien	-12.1348
▁levi	-12.1354
noble	-12.1355
▁nurs	-12.1356
▁fetch	-12.1359
▁rocker	-12.136
▁expresse	-12.1365
rat	-12.1369
▁mesh	-12.1383
ngal	-12.1388
▁thrive	-12.1389
ych	-12.1391
▁trapp	-12.1397
▁jos	-12.1398
▁stirr	-12.1402
▁129	-12.1407
ue	-12.1408
▁abd	-12.1426
▁lan	-12.1427
fayette	-12.1433
hold	-12.1436
authoriz	-12.1439
▁xian	-12.1444
▁substanti	-12.1446
jord	-12.1448
villain	-12.1449
lusive	-12.1451
spectacle	-12.1452
▁belts	-12.1453
sistent	-12.1458
▁simulat	-12.1461
watch	-12.1461
▁phu	-12.1464
sour	-12.1466
hallow	-12.1467
drama	-12.1467
ji	-12.1468
quet	-12.1473
95	-12.1475
▁designate	-12.1475
▁domini	-12.1479
53	-12.148
cla	-12.1488
velt	-12.1493
▁joann	-12.1494
pard	-12.1495
sibility	-12.1496
▁rafi	-12.1498
▁petrol	-12.1499
moon	-12.15
▁admitt	-12.1502
▁manufacture	-12.1502
▁pg	-12.1506
prom	-12.1508
▁jud	-12.1509
▁prominen	-12.1514
▁adj	-12.1519
▁invent	-12.152
▁brace	-12.1521
ria	-12.1523
lan	-12.1525
rim	-12.1526
▁emphasi	-12.1527
volta	-12.1528
▁arsen	-12.1528
▁summar	-12.1529
▁strick	-12.153
lihood	-12.1531
▁pediatric	-12.1531
▁absurd	-12.1532
▁accumulate	-12.1532
▁applicant	-12.1532
▁avalanche	-12.1532
▁ayurved	-12.1532
▁brawl	-12.1532
▁chimpanzee	-12.1532
▁crawl	-12.1532
▁grizzl	-12.1532
▁inflammat	-12.1532
▁insufficient	-12.1532
▁malfunction	-12.1532
▁multinational	-12.1532
▁netscape	-12.1532
▁portfolio	-12.1532
▁precarious	-12.1532
▁reconsider	-12.1532
▁surname	-12.1532
▁unlawful	-12.1532
▁upheaval	-12.1532
▁belarus	-12.1532
▁impediment	-12.1532
▁leisure	-12.1532
▁souvenir	-12.1532
▁sporadic	-12.1532
▁subpoena	-12.1532
▁tanzania	-12.1532
▁tgv	-12.1532
▁unhcr	-12.1532
▁whirl	-12.1532
▁backpack	-12.1532
▁rutger	-12.1532
▁senegal	-12.1532
▁buoy	-12.1532
▁mudslide	-12.1532
▁contagio	-12.1532
▁curtail	-12.1532
▁empower	-12.1532
▁kirch	-12.1532
▁osbourne	-12.1532
▁telecom	-12.1532
▁octopus	-12.1532
▁pretend	-12.1532
▁confederation	-12.1532
▁memoir	-12.1532
▁flank	-12.1532
▁emphatic	-12.1532
▁fitzg	-12.1532
▁seismic	-12.1532
▁dismay	-12.1532
▁masterpiece	-12.1532
▁triang	-12.1532
▁dreamliner	-12.1532
▁breez	-12.1532
▁fetus	-12.1533
▁clamp	-12.1533
omaha	-12.1533
▁cyberspace	-12.1533
▁heavyweight	-12.1533
▁yuko	-12.1533
▁blanche	-12.1533
▁revoke	-12.1533
▁falter	-12.1533
▁premise	-12.1533
▁mixture	-12.1533
▁faint	-12.1533
▁columnist	-12.1533
▁preference	-12.1533
▁gym	-12.1533
▁docu	-12.1533
▁stalk	-12.1533
▁temptation	-12.1534
▁patent	-12.1534
▁anxious	-12.1534
▁dumpling	-12.1534
▁disturbance	-12.1534
▁exert	-12.1534
▁lips	-12.1535
▁dynamic	-12.1535
▁sift	-12.1535
▁revelation	-12.1535
▁gerald	-12.1535
gade	-12.1537
▁pinch	-12.1538
▁riddle	-12.1538
▁purse	-12.1538
▁tenet	-12.1538
▁abdomen	-12.1538
▁educator	-12.1538
▁waiver	-12.1539
▁deterren	-12.1539
▁booth	-12.1539
▁bypass	-12.1539
▁kenne	-12.154
▁iceberg	-12.154
▁jamestown	-12.154
▁spaceport	-12.154
▁downgrade	-12.1541
▁verbal	-12.1543
▁dawa	-12.1545
▁elysee	-12.1545
▁deaf	-12.1545
▁intestin	-12.1546
▁unilateral	-12.1546
▁prohibition	-12.1546
▁literat	-12.1546
▁laurent	-12.1547
▁checkup	-12.1547
mel	-12.1547
werp	-12.1549
▁bolivarian	-12.1549
▁farmland	-12.155
65	-12.155
▁krug	-12.155
erald	-12.155
▁pegg	-12.1551
▁adorn	-12.1551
▁wiki	-12.1551
▁chiap	-12.1551
onym	-12.1553
ddy	-12.1554
▁claw	-12.1555
▁matchup	-12.1556
▁perez	-12.1557
▁smithson	-12.156
▁adolf	-12.1561
acent	-12.1563
metric	-12.1564
▁equalise	-12.1564
▁fundraiser	-12.1566
moshe	-12.1567
▁ump	-12.1567
▁fluctuat	-12.1569
▁skidd	-12.1572
mont	-12.1572
▁rip	-12.1573
▁audiences	-12.1574
▁indicator	-12.1575
▁spaceship	-12.1575
▁shard	-12.1576
▁barber	-12.1576
italia	-12.1576
▁behead	-12.1577
▁overture	-12.1578
▁estonian	-12.1579
▁snap	-12.158
▁elliot	-12.158
▁hugh	-12.1581
▁sunny	-12.1582
▁brew	-12.1585
icho	-12.1585
▁loosen	-12.1586
▁pleasant	-12.1587
fann	-12.1589
▁iq	-12.159
▁motivation	-12.1595
▁versa	-12.1598
eaten	-12.16
ched	-12.16
▁sneaker	-12.1602
▁stack	-12.1603
▁fist	-12.1606
▁cam	-12.1612
▁hatch	-12.1612
lg	-12.1614
▁dismissal	-12.1615
abo	-12.1618
▁freezer	-12.1619
▁cheat	-12.162
▁cristi	-12.1621
▁biti	-12.1623
▁indirect	-12.1625
dong	-12.1628
▁qara	-12.163
cry	-12.1632
▁ric	-12.1638
science	-12.1638
▁curr	-12.1641
▁heft	-12.1642
pine	-12.1661
▁ip	-12.1663
▁samuel	-12.1663
▁lemon	-12.1664
▁navigat	-12.1668
▁skeptical	-12.1671
aiss	-12.1672
dez	-12.1681
▁porch	-12.1683
je	-12.1688
▁hugg	-12.169
eigh	-12.1691
▁lett	-12.1691
35	-12.1695
roid	-12.1696
▁lek	-12.1696
colari	-12.1704
▁reliev	-12.1705
▁endless	-12.1716
▁extort	-12.1724
ntana	-12.1726
▁reel	-12.173
cat	-12.173
▁dissolve	-12.173
▁sensational	-12.1741
▁withstand	-12.1742
▁bonsa	-12.1742
▁03	-12.1747
sale	-12.1748
pon	-12.1754
▁rajas	-12.1757
▁piled	-12.176
▁mason	-12.1763
▁speculat	-12.1765
▁legg	-12.1766
ua	-12.1767
▁hend	-12.1775
tana	-12.178
▁shaun	-12.1782
▁hydra	-12.1784
▁gibb	-12.1788
pc	-12.1792
▁jar	-12.1793
▁maid	-12.1798
▁wh	-12.1798
ac	-12.181
ign	-12.181
onic	-12.1812
▁tract	-12.1818
▁fest	-12.1819
iz	-12.1824
rish	-12.1826
▁khi	-12.183
▁footballer	-12.1833
▁sands	-12.1834
▁eater	-12.184
▁bucking	-12.184
▁relocat	-12.184
▁baba	-12.1842
▁functional	-12.185
illo	-12.1852
▁sham	-12.1855
▁rak	-12.1855
ouri	-12.186
▁sword	-12.1869
▁conciliat	-12.187
▁discipline	-12.1871
bas	-12.1872
▁commute	-12.1889
▁ev	-12.189
▁optim	-12.1893
▁cling	-12.1897
ast	-12.1901
▁merit	-12.1902
▁fend	-12.191
▁exercis	-12.1913
lab	-12.1919
▁gaul	-12.1921
pache	-12.1927
▁kal	-12.193
▁reunite	-12.1933
▁gam	-12.1937
▁equalize	-12.1941
ammar	-12.1941
hoe	-12.1942
les	-12.1942
▁boycotted	-12.1953
▁suz	-12.1961
allest	-12.1961
▁hijacking	-12.197
tted	-12.1972
rap	-12.1975
▁burk	-12.1979
▁poke	-12.198
▁dia	-12.1983
gi	-12.1985
45	-12.1993
oke	-12.1995
▁ascend	-12.1997
▁marlboro	-12.1999
▁hyper	-12.2003
afe	-12.2007
▁geno	-12.201
▁poe	-12.2015
kin	-12.2018
opus	-12.202
tri	-12.2025
▁candle	-12.2032
kova	-12.2033
ff	-12.2033
▁gat	-12.2049
▁nan	-12.205
uni	-12.2052
active	-12.2058
▁jab	-12.2076
▁sche	-12.2078
▁cater	-12.208
fo	-12.2082
vac	-12.2083
lov	-12.2088
gas	-12.2089
▁shells	-12.209
200	-12.2092
▁astonish	-12.2098
▁ramad	-12.2098
▁sina	-12.2101
nz	-12.2104
▁desir	-12.2117
nger	-12.2121
roy	-12.2122
hm	-12.2137
▁waterway	-12.214
▁pett	-12.2147
wick	-12.2151
▁dera	-12.2151
▁tackl	-12.2153
▁enforc	-12.2153
ethane	-12.2155
▁fractur	-12.216
▁weekends	-12.2172
▁venet	-12.2178
▁unnerv	-12.218
endo	-12.2183
▁eras	-12.2184
▁lange	-12.2189
▁forbid	-12.2192
log	-12.2195
asso	-12.2196
▁pais	-12.2207
▁pm	-12.2213
glio	-12.2221
retz	-12.2223
acas	-12.2226
chen	-12.223
▁scenario	-12.2233
▁naga	-12.2235
liner	-12.2235
medic	-12.2236
▁verifi	-12.2253
▁supplement	-12.2257
▁greeting	-12.226
▁grill	-12.226
lick	-12.2261
chless	-12.2262
▁natali	-12.2271
osan	-12.2272
▁piro	-12.2272
▁mann	-12.2278
▁claud	-12.2289
zhn	-12.2297
fc	-12.23
▁lac	-12.2308
▁taka	-12.2321
sville	-12.2322
▁spani	-12.2323
net	-12.2328
▁wald	-12.2329
▁fruits	-12.2331
fax	-12.2332
▁rama	-12.2332
▁shipment	-12.2337
▁wonders	-12.2343
ual	-12.2349
▁atta	-12.2349
▁imagin	-12.2351
▁nominate	-12.2354
▁listing	-12.2361
mega	-12.2362
▁regulat	-12.2364
▁chatt	-12.2364
▁nash	-12.2368
▁cowar	-12.2381
▁aspir	-12.2395
llard	-12.2397
▁acr	-12.2404
▁beneficia	-12.2405
ritu	-12.241
▁105	-12.2415
▁angle	-12.2423
▁scarf	-12.2425
420	-12.2432
▁lap	-12.2434
▁deserves	-12.2434
▁coo	-12.2438
thy	-12.2439
▁secre	-12.2447
▁ripple	-12.2447
▁shatter	-12.2449
singh	-12.2449
▁deliberat	-12.2452
▁lik	-12.2456
wan	-12.2458
garve	-12.2464
▁behave	-12.2469
ery	-12.2469
▁arthr	-12.2474
▁satisfy	-12.2475
▁tapes	-12.2478
▁grind	-12.2484
▁qing	-12.2489
▁disclos	-12.2492
▁kun	-12.2493
▁caffe	-12.2495
▁dou	-12.2496
ducat	-12.2496
omi	-12.2504
lumin	-12.2504
▁rout	-12.2512
▁conceive	-12.2512
lift	-12.2513
▁173	-12.2515
▁sar	-12.2515
cock	-12.2517
rine	-12.2517
▁vik	-12.2517
pisco	-12.252
▁activat	-12.2521
asia	-12.2522
broke	-12.2525
rest	-12.2526
oise	-12.2529
ariya	-12.2531
▁102	-12.2538
doo	-12.2538
▁abilit	-12.2539
elli	-12.254
▁slippe	-12.2543
▁ele	-12.2549
▁sharon	-12.2551
partisan	-12.2561
iff	-12.2563
walk	-12.2563
mitag	-12.2567
stroke	-12.2567
frame	-12.2567
▁faw	-12.2568
together	-12.2568
bridge	-12.2568
affected	-12.2568
avoid	-12.2568
sleep	-12.2568
daughter	-12.257
44	-12.257
smith	-12.257
▁fig	-12.2571
fox	-12.2572
gart	-12.2572
spring	-12.2572
▁hungar	-12.2573
parent	-12.2573
▁appreciat	-12.2573
technology	-12.2576
▁forgive	-12.258
diari	-12.2582
▁fam	-12.2584
master	-12.2588
▁alban	-12.259
hk	-12.2594
kind	-12.2597
ert	-12.2597
shot	-12.26
▁gila	-12.2601
▁smuggle	-12.2603
money	-12.2605
▁profession	-12.2605
▁celesti	-12.2611
grow	-12.2612
▁shand	-12.2612
▁rei	-12.2613
▁polit	-12.2615
▁revel	-12.2616
▁impressi	-12.2616
▁americ	-12.2619
▁consume	-12.2621
▁jeopard	-12.2625
▁stir	-12.2628
▁strategi	-12.2633
▁flip	-12.2634
▁cull	-12.2634
▁sapa	-12.2635
▁stat	-12.2638
▁carli	-12.264
ker	-12.264
▁collide	-12.2641
▁obsess	-12.2641
▁deprec	-12.2642
▁lens	-12.2642
▁complement	-12.2643
▁accomplice	-12.2643
▁arroyo	-12.2643
▁audiotape	-12.2643
▁blossom	-12.2643
▁corridor	-12.2643
▁counterattack	-12.2643
▁daimler	-12.2643
▁detergent	-12.2643
▁enclave	-12.2643
▁gondola	-12.2643
▁hondura	-12.2643
▁identical	-12.2643
▁liechtenstein	-12.2643
▁lombard	-12.2643
▁madagascar	-12.2643
▁memorandum	-12.2643
▁microwave	-12.2643
▁nanotube	-12.2643
▁obscure	-12.2643
▁recipient	-12.2643
▁rethink	-12.2643
▁spontaneous	-12.2643
▁swirl	-12.2643
▁uruguay	-12.2643
▁vegetarian	-12.2643
▁yugoslav	-12.2643
▁acclaim	-12.2643
▁culprit	-12.2643
▁default	-12.2643
▁erratic	-12.2643
▁neglect	-12.2643
▁apprehend	-12.2643
▁demilitariz	-12.2643
▁disgrace	-12.2643
▁nonviolen	-12.2643
▁classify	-12.2643
▁distort	-12.2643
▁telecast	-12.2643
▁snapshot	-12.2643
▁connor	-12.2643
▁railroad	-12.2643
▁wrinkle	-12.2643
▁conversion	-12.2643
▁sindh	-12.2643
▁paleontologist	-12.2643
▁vigorous	-12.2643
▁adjourn	-12.2643
▁arrowhead	-12.2643
▁boutique	-12.2643
▁minivan	-12.2643
▁preview	-12.2643
▁newcomer	-12.2643
▁purpl	-12.2643
▁wrack	-12.2643
▁grasp	-12.2643
▁trunk	-12.2643
▁jalal	-12.2643
▁abstaine	-12.2643
▁rooftop	-12.2643
▁elbow	-12.2643
▁idris	-12.2643
▁butterfl	-12.2643
▁mafia	-12.2644
▁gharial	-12.2644
▁minibus	-12.2644
▁gwen	-12.2644
▁shrunk	-12.2644
▁banteng	-12.2644
▁scour	-12.2644
▁forthcoming	-12.2644
▁cardinal	-12.2644
▁palestin	-12.2644
ilja	-12.2644
▁patron	-12.2644
▁refrigerator	-12.2644
▁bolivia	-12.2644
▁straw	-12.2645
▁physicist	-12.2645
▁luxurious	-12.2645
▁decri	-12.2645
▁disqualifi	-12.2645
▁jaip	-12.2645
▁edmund	-12.2645
▁condom	-12.2646
▁downpour	-12.2646
▁unlock	-12.2646
▁ghost	-12.2646
▁allocate	-12.2646
▁attire	-12.2646
▁kirk	-12.2646
▁neural	-12.2646
▁sawaya	-12.2646
▁holz	-12.2647
▁corral	-12.2647
▁churn	-12.2647
▁garrison	-12.2647
▁leverage	-12.2648
▁proteins	-12.2648
choa	-12.2648
▁gigabyte	-12.2648
▁yuri	-12.2648
▁novelist	-12.2648
▁narco	-12.2648
▁blazers	-12.2648
▁gartner	-12.2648
▁elevation	-12.2649
▁guti	-12.2649
▁schmit	-12.2649
▁racket	-12.2649
▁crouch	-12.2649
▁households	-12.2649
▁territori	-12.265
▁zeb	-12.265
▁trin	-12.265
▁socialite	-12.265
▁marvel	-12.265
▁salute	-12.265
▁thoms	-12.2651
▁shortfall	-12.2651
▁peek	-12.2651
▁fioren	-12.2651
▁juice	-12.2652
▁depot	-12.2653
▁kraus	-12.2653
lein	-12.2653
▁haa	-12.2654
▁interruption	-12.2655
▁capita	-12.2655
▁nouve	-12.2656
▁congregation	-12.2656
▁pol	-12.2656
▁defiant	-12.2657
▁freak	-12.2657
▁sixteen	-12.2657
▁secularist	-12.2657
▁depiction	-12.2658
▁chopper	-12.2658
▁sleeve	-12.2659
▁feedback	-12.2659
nova	-12.2659
▁handset	-12.266
▁hinder	-12.266
▁1800	-12.2661
▁groom	-12.2662
▁executor	-12.2664
▁luke	-12.2665
▁mound	-12.2665
▁narrat	-12.2665
▁fein	-12.2666
▁chew	-12.2667
▁keyboard	-12.2668
▁woodland	-12.2669
▁lux	-12.267
▁weiss	-12.267
▁pluck	-12.267
▁sunda	-12.2671
▁sniper	-12.2671
▁covet	-12.2671
▁nye	-12.2672
▁reunifi	-12.2672
▁vulnerabilit	-12.2672
▁dor	-12.2677
▁breakdown	-12.2678
culty	-12.2678
▁legitima	-12.2679
▁smol	-12.2679
▁hive	-12.268
roz	-12.2681
▁jobless	-12.2682
▁transformers	-12.2682
▁clever	-12.2682
pulsion	-12.2683
▁garment	-12.2683
▁platin	-12.2683
▁ghar	-12.2684
▁kni	-12.2684
▁shann	-12.2685
▁albums	-12.2685
▁decent	-12.2686
steps	-12.2688
▁convene	-12.2688
▁137	-12.2689
▁skel	-12.2689
▁fab	-12.269
▁borough	-12.269
▁mold	-12.269
▁solicit	-12.2695
▁111	-12.2697
▁offence	-12.2697
▁boob	-12.2698
▁alessandr	-12.2699
iena	-12.2701
suit	-12.2702
▁constituenc	-12.2704
ru	-12.2705
▁outsider	-12.2706
▁ritz	-12.2708
▁ponder	-12.2711
▁rewrit	-12.2712
▁123	-12.2714
▁ansa	-12.2715
▁shutter	-12.2716
▁pinn	-12.2717
▁balco	-12.2718
▁xiao	-12.2721
inbo	-12.2722
▁unha	-12.2723
▁midland	-12.2726
▁forceful	-12.2726
▁humi	-12.2727
▁berl	-12.273
▁yaki	-12.2733
veh	-12.2734
vara	-12.2734
▁fray	-12.2735
▁gentle	-12.2741
▁citation	-12.2744
iot	-12.2744
niels	-12.2744
▁salar	-12.2746
▁camill	-12.2752
▁tactical	-12.2754
▁max	-12.2754
luster	-12.2757
▁swelling	-12.2758
▁lar	-12.2764
▁scarlet	-12.2766
oda	-12.2776
▁bae	-12.2778
vuit	-12.2778
▁visitation	-12.2779
tsuo	-12.278
▁bureaucrat	-12.2782
▁beast	-12.2784
▁accompanie	-12.2785
▁128	-12.2787
▁nuts	-12.2789
ico	-12.279
▁lynd	-12.279
▁porto	-12.2796
▁abducte	-12.2797
▁painter	-12.2797
tage	-12.2797
cotte	-12.2799
▁cultivat	-12.2803
▁applaud	-12.2803
rado	-12.2804
▁rushes	-12.2808
▁bolsh	-12.2812
vonne	-12.2816
▁reconn	-12.2818
▁espan	-12.2825
▁aug	-12.284
▁consolidat	-12.2843
▁admire	-12.2846
▁mang	-12.2849
▁ancest	-12.2849
▁supervisi	-12.2851
mez	-12.2852
▁saba	-12.2856
▁parish	-12.286
▁attendants	-12.2862
▁enabl	-12.2863
▁commun	-12.2868
▁protester	-12.2877
▁exhausted	-12.2878
ushi	-12.2879
kins	-12.2882
▁matri	-12.2885
▁berg	-12.2886
▁incorporat	-12.2888
▁campo	-12.2891
▁fra	-12.2892
badi	-12.2895
▁neo	-12.2902
▁dispers	-12.291
▁marker	-12.2911
annie	-12.2912
▁ull	-12.2915
▁kyu	-12.2916
▁consolidati	-12.2926
nie	-12.2928
▁colo	-12.2931
▁marul	-12.2934
▁likeness	-12.2945
▁suite	-12.2948
▁hunche	-12.2951
▁birdie	-12.2953
▁fond	-12.2961
▁swear	-12.2962
rity	-12.2966
▁retriev	-12.2969
▁shaky	-12.2974
▁renovat	-12.2975
▁shaha	-12.2976
erno	-12.2978
▁wealthie	-12.2983
▁drumm	-12.2985
▁moai	-12.3011
▁perk	-12.3017
▁uphold	-12.3021
▁tri	-12.3025
▁militan	-12.3027
▁gert	-12.3027
▁integrate	-12.3029
▁notion	-12.3033
▁duja	-12.3034
930	-12.3036
ile	-12.3041
▁ego	-12.3048
tle	-12.3054
▁highland	-12.306
sci	-12.306
▁lang	-12.3065
thura	-12.3069
iti	-12.307
▁mango	-12.3086
▁prosecut	-12.3088
▁lai	-12.309
▁unsur	-12.309
▁reviews	-12.3093
▁levee	-12.3097
▁printer	-12.31
mise	-12.31
▁regrett	-12.3101
▁deplor	-12.311
▁matur	-12.311
fu	-12.3111
oya	-12.3112
rkus	-12.3122
▁egg	-12.3122
▁moa	-12.3123
▁tracker	-12.3124
zine	-12.3124
nson	-12.3125
▁meri	-12.3125
uma	-12.3134
ome	-12.3141
▁fracture	-12.315
▁nabi	-12.315
riyad	-12.3158
▁mik	-12.3165
▁servers	-12.3167
▁unifi	-12.3171
cchi	-12.318
aimi	-12.3182
▁shun	-12.3188
▁bait	-12.3191
lar	-12.3204
▁darre	-12.3205
▁embrac	-12.3223
itu	-12.3224
▁eclipse	-12.323
▁586	-12.3233
nberg	-12.3234
renne	-12.3238
▁benit	-12.3238
▁mute	-12.3238
▁shia	-12.324
▁repressi	-12.3241
mm	-12.3241
hand	-12.3242
▁blockbusters	-12.3245
ork	-12.3248
▁gravel	-12.3271
▁za	-12.3272
asha	-12.3272
▁interrogat	-12.3273
▁destroyer	-12.3273
▁esta	-12.3277
▁sel	-12.3281
▁tripp	-12.3283
▁doubl	-12.3287
▁kau	-12.3287
▁ryo	-12.3294
▁plague	-12.3295
andler	-12.3297
angi	-12.3301
▁wastes	-12.331
▁pains	-12.3316
325	-12.3319
ference	-12.3326
▁mariner	-12.3327
phone	-12.3332
▁beards	-12.3335
▁unrel	-12.3336
▁pac	-12.3345
▁ichi	-12.3354
▁gian	-12.3366
gon	-12.3369
itzer	-12.3377
fell	-12.3377
▁06	-12.3382
▁choi	-12.3385
evic	-12.3385
tting	-12.3386
▁partisan	-12.3387
▁gem	-12.3388
ili	-12.339
pur	-12.3392
▁shu	-12.3396
▁prosecute	-12.3402
ven	-12.3406
▁viole	-12.3408
▁limon	-12.3416
stable	-12.3423
▁solan	-12.3425
▁flourish	-12.3426
iano	-12.343
uff	-12.343
▁dive	-12.3445
ao	-12.3447
nha	-12.3465
yub	-12.3467
20	-12.3468
hart	-12.3474
▁aston	-12.3477
kuni	-12.348
ues	-12.3486
▁defuse	-12.3493
due	-12.3493
▁pillar	-12.3498
▁fri	-12.3502
ttered	-12.3504
trust	-12.3514
uster	-12.3533
▁brom	-12.3541
▁clu	-12.3542
226	-12.3546
iev	-12.3556
bre	-12.3579
▁viru	-12.3589
▁hab	-12.3591
▁adventures	-12.3592
oi	-12.3592
ame	-12.3594
nmen	-12.3602
saki	-12.3608
nish	-12.3609
▁entitl	-12.3629
seng	-12.3635
▁cind	-12.3638
▁masha	-12.3638
▁idi	-12.3653
▁aw	-12.3654
▁sheer	-12.3655
hor	-12.3665
▁mediate	-12.3666
osa	-12.367
▁arise	-12.3671
rko	-12.3676
ameter	-12.3682
▁influen	-12.3685
▁viag	-12.3695
▁tani	-12.3706
bahn	-12.3706
025	-12.3709
▁zab	-12.371
▁imag	-12.3713
gud	-12.3714
▁francesc	-12.372
latten	-12.3722
bye	-12.3723
illian	-12.3724
▁nord	-12.3737
▁hur	-12.3745
▁enthusiast	-12.3751
▁gla	-12.3756
lezi	-12.3771
▁cris	-12.3778
▁tenzin	-12.3791
▁infuriat	-12.3804
issan	-12.3807
convenient	-12.3808
▁aches	-12.381
▁cope	-12.3811
cube	-12.3812
adequate	-12.3816
tooth	-12.3816
▁thrust	-12.3817
secretar	-12.3818
lu	-12.3821
guide	-12.3821
style	-12.3822
swam	-12.3822
dahn	-12.3823
bow	-12.3824
▁wool	-12.3827
fried	-12.3828
accessib	-12.3828
sense	-12.3832
jaf	-12.3836
uca	-12.3836
▁syndicate	-12.3836
hn	-12.3837
life	-12.3837
▁gin	-12.3838
match	-12.3845
ollen	-12.3846
embe	-12.3847
alai	-12.3849
tories	-12.3849
▁gunfi	-12.385
▁grani	-12.3852
gia	-12.3853
▁bug	-12.3854
▁homo	-12.3856
▁carne	-12.3856
limi	-12.386
uiz	-12.3862
▁mechanic	-12.3868
▁disast	-12.3869
▁dimension	-12.387
▁beau	-12.3871
span	-12.3873
▁exo	-12.3874
katha	-12.3876
▁gerg	-12.3876
orti	-12.3881
▁appa	-12.3883
▁industrializ	-12.3883
tner	-12.3885
▁divisi	-12.3886
▁snag	-12.3887
uthu	-12.3887
▁emir	-12.3889
▁tortur	-12.3889
sco	-12.3892
ferenci	-12.3893
▁dharams	-12.3893
chiatrist	-12.3893
▁accommodation	-12.3893
▁clarify	-12.3893
▁demographic	-12.3893
▁demolition	-12.3893
▁dilemma	-12.3893
▁divulg	-12.3893
▁etiquette	-12.3893
▁exaggerat	-12.3893
▁falluja	-12.3893
▁fountain	-12.3893
▁fowler	-12.3893
▁gunbattle	-12.3893
▁orangutan	-12.3893
▁pablo	-12.3893
▁pacify	-12.3893
▁permafrost	-12.3893
▁pesticide	-12.3893
▁plaintiff	-12.3893
▁recharge	-12.3893
▁redistribute	-12.3893
▁subtitle	-12.3893
▁unravel	-12.3893
▁consequent	-12.3893
▁wharf	-12.3893
▁uninhabit	-12.3893
▁milligram	-12.3893
▁transgender	-12.3893
▁cosmetic	-12.3893
▁cambridge	-12.3893
▁glitch	-12.3893
▁steadfast	-12.3893
▁theoretical	-12.3893
▁comrade	-12.3893
▁sapien	-12.3893
▁itinerar	-12.3893
symmetr	-12.3893
▁ernest	-12.3893
▁oleg	-12.3893
▁pneum	-12.3893
▁archeologist	-12.3893
▁scourge	-12.3893
▁straddl	-12.3893
▁wilkins	-12.3893
▁pupil	-12.3893
armac	-12.3893
▁resemblance	-12.3893
▁cogniti	-12.3893
hygien	-12.3893
▁snoop	-12.3893
▁outsourc	-12.3893
▁quirk	-12.3893
▁polygam	-12.3893
▁muhammad	-12.3893
▁unwilling	-12.3893
▁desktop	-12.3893
▁spiral	-12.3893
▁blacklist	-12.3893
▁module	-12.3893
▁hippo	-12.3893
▁dissent	-12.3893
▁pervasive	-12.3893
▁saliva	-12.3893
▁mcclinto	-12.3893
▁smog	-12.3893
eutic	-12.3893
▁provocation	-12.3893
▁commend	-12.3893
▁inundate	-12.3893
▁grievance	-12.3894
▁mitch	-12.3894
▁mcfar	-12.3894
▁ivanko	-12.3894
▁horde	-12.3894
▁vague	-12.3894
▁harrod	-12.3894
▁perennial	-12.3894
▁tigr	-12.3894
▁bombardier	-12.3894
▁giovan	-12.3894
▁snowstorm	-12.3894
▁chinook	-12.3894
▁crescent	-12.3894
▁fayya	-12.3894
▁affirm	-12.3894
▁analog	-12.3896
▁housekeeper	-12.3896
rogba	-12.3896
▁spew	-12.3896
▁haq	-12.3896
▁deception	-12.3896
▁exhaustive	-12.3896
▁trait	-12.3896
▁toxin	-12.3896
▁shrugg	-12.3896
▁orchard	-12.3896
▁resent	-12.3897
▁kolk	-12.3897
▁airlift	-12.3897
usnes	-12.3897
▁manhunt	-12.3898
▁lauder	-12.3898
▁flawless	-12.3898
▁cjd	-12.3898
ucci	-12.3899
▁slovakia	-12.3899
▁vertical	-12.3899
▁sitter	-12.3899
▁audi	-12.3899
thma	-12.3899
▁kaz	-12.39
kward	-12.39
▁vander	-12.39
▁komo	-12.39
▁bradley	-12.39
▁organism	-12.39
▁tamper	-12.39
▁backhand	-12.39
rage	-12.39
▁recit	-12.3901
▁plow	-12.3901
▁milos	-12.3901
▁derive	-12.3902
▁relocation	-12.3902
▁2020	-12.3902
cragg	-12.3902
▁poach	-12.3902
▁fringe	-12.3902
▁subtle	-12.3903
▁filter	-12.3903
▁biting	-12.3904
▁frantic	-12.3906
▁neutralize	-12.3906
▁injustice	-12.3908
▁sac	-12.3908
▁bachel	-12.3908
▁huang	-12.3908
▁1940	-12.3909
▁deliberation	-12.3911
▁overpower	-12.3911
▁parliamentarian	-12.3912
▁composition	-12.3912
▁timber	-12.3912
▁totalitarian	-12.3913
andl	-12.3913
▁trim	-12.3915
gro	-12.3915
▁notable	-12.3916
ternate	-12.3916
▁obeid	-12.3916
mela	-12.3916
▁prim	-12.3917
▁mongolia	-12.3918
▁deterrent	-12.3918
▁refineries	-12.3919
▁yank	-12.3919
▁pedophile	-12.392
▁prevalen	-12.3921
▁liar	-12.3922
▁parma	-12.3923
▁veil	-12.3924
▁siren	-12.3924
▁cache	-12.3924
▁surre	-12.3924
▁shootout	-12.3924
▁akh	-12.3925
▁tasting	-12.3925
▁banana	-12.3927
▁worshipper	-12.3927
▁activate	-12.3928
▁dynami	-12.3928
▁wobble	-12.393
▁2030	-12.3932
▁cellar	-12.3933
▁spillway	-12.3934
▁beekeeper	-12.3935
▁bestsell	-12.3935
▁salad	-12.3937
icul	-12.3937
rose	-12.3939
tsk	-12.3943
▁calculat	-12.3943
▁makeover	-12.3943
▁abundan	-12.3944
▁sniff	-12.3945
▁conspirator	-12.3948
▁horribl	-12.3948
▁cardi	-12.395
▁hashem	-12.395
▁pon	-12.3951
▁endeavor	-12.3952
▁torri	-12.3953
▁suk	-12.3953
▁krist	-12.3954
▁realistic	-12.3954
▁etc	-12.3956
▁theorize	-12.3956
tel	-12.3957
▁lauren	-12.3959
60	-12.3962
▁schu	-12.3963
▁relian	-12.3964
▁bidder	-12.3964
▁scribe	-12.3966
nott	-12.3971
lastic	-12.3972
▁flush	-12.3972
▁flagg	-12.3973
▁blanc	-12.3973
▁spru	-12.3978
▁cove	-12.3985
▁tal	-12.3987
fe	-12.3989
▁mcle	-12.3989
▁nawa	-12.3993
▁hendri	-12.3995
▁saf	-12.3998
▁gregor	-12.4001
▁alp	-12.4001
▁afl	-12.4003
▁loser	-12.4006
▁scann	-12.401
▁spectacle	-12.4011
▁evangelist	-12.4012
▁cabo	-12.4013
▁impro	-12.4014
goya	-12.4019
▁fax	-12.402
▁jol	-12.4022
▁shaw	-12.4024
▁kiku	-12.4027
▁mistaken	-12.4027
▁prob	-12.4028
mal	-12.4029
bei	-12.403
▁mwan	-12.4032
▁goo	-12.4033
▁sara	-12.4036
▁timeline	-12.4036
▁nico	-12.4038
▁santos	-12.4039
▁walkout	-12.4041
▁provisional	-12.4043
▁popul	-12.4046
▁galv	-12.4048
▁roan	-12.4058
▁unsee	-12.4068
▁kel	-12.4071
▁vill	-12.4077
▁heroin	-12.4081
▁obstruct	-12.4082
▁stirring	-12.4084
▁wei	-12.4084
▁mello	-12.4087
▁bashir	-12.4088
99	-12.4091
akes	-12.4094
▁russ	-12.4094
▁sander	-12.4096
▁hiker	-12.4096
▁jabal	-12.4098
▁arter	-12.4099
▁ruby	-12.41
▁illustrate	-12.4102
▁assemble	-12.4102
▁silenc	-12.4103
▁albe	-12.4107
▁zur	-12.4109
▁rex	-12.4113
▁mit	-12.4114
▁casa	-12.4116
▁pak	-12.4119
fm	-12.4122
▁pitcher	-12.4125
▁slashing	-12.4125
aden	-12.4127
▁memo	-12.4127
awful	-12.4128
aq	-12.4128
chu	-12.4132
dian	-12.4134
mmunity	-12.4135
▁allerg	-12.4136
▁parkin	-12.4136
▁shine	-12.415
▁whisk	-12.4151
▁weave	-12.4152
▁inaugura	-12.4153
dder	-12.4158
▁judd	-12.4159
▁poet	-12.4161
▁blacks	-12.4163
▁emer	-12.4169
▁haas	-12.4171
▁publicis	-12.4172
▁offset	-12.4173
▁wai	-12.4173
weight	-12.4174
midt	-12.4175
▁holi	-12.4175
▁patter	-12.4182
▁tat	-12.4184
slow	-12.4186
▁conrad	-12.4187
manj	-12.4191
mother	-12.4192
▁christo	-12.4192
tics	-12.4193
▁adhere	-12.4194
▁stumbl	-12.4197
▁spal	-12.4198
eau	-12.4202
▁bella	-12.4208
abi	-12.4209
▁damp	-12.421
use	-12.421
bil	-12.4212
▁hashim	-12.4218
▁refin	-12.4222
▁casting	-12.4224
alban	-12.4229
▁frightening	-12.4229
▁qata	-12.423
▁rancher	-12.4233
▁accessib	-12.4241
▁robes	-12.4243
▁alegr	-12.4243
▁skirt	-12.4246
iah	-12.4246
▁lookout	-12.4247
agong	-12.4251
▁mash	-12.4254
bbie	-12.4255
▁benze	-12.4256
▁marty	-12.4259
▁midwe	-12.426
▁shuk	-12.4284
▁integrati	-12.4286
▁defamat	-12.4291
▁banda	-12.4293
nnie	-12.4293
▁wm	-12.4293
▁ble	-12.4299
▁peters	-12.4302
▁sola	-12.4306
▁specialize	-12.4312
elta	-12.4315
▁gonu	-12.4316
▁chery	-12.4326
▁defus	-12.4333
▁abound	-12.4336
▁cate	-12.4337
▁comprise	-12.4339
▁breeder	-12.434
▁cute	-12.434
yar	-12.4344
▁seas	-12.4345
duct	-12.4346
▁merchandise	-12.4347
nity	-12.4347
▁guse	-12.4352
isch	-12.4358
uto	-12.4358
marked	-12.4363
▁prest	-12.4365
▁baku	-12.4366
icia	-12.4367
ational	-12.4368
ingles	-12.4369
vision	-12.4372
usch	-12.4372
▁meteorolog	-12.4373
▁khirb	-12.4388
rgen	-12.439
▁taba	-12.4399
▁dart	-12.4403
ug	-12.4403
▁verge	-12.4417
▁robbi	-12.4423
pi	-12.4428
ming	-12.4444
▁implicat	-12.4446
▁chamb	-12.4447
▁compromis	-12.4455
ashi	-12.4457
▁marcos	-12.4457
▁hue	-12.4468
▁squeeze	-12.4469
▁persuad	-12.447
utt	-12.4471
▁compassion	-12.4472
▁askari	-12.4478
▁vel	-12.4481
▁certifi	-12.4487
▁confuse	-12.4494
▁moussa	-12.4495
esha	-12.4499
▁menac	-12.4509
▁178	-12.4516
yeh	-12.4519
ssell	-12.4525
▁abide	-12.4529
▁licens	-12.4533
▁sake	-12.4534
▁escalate	-12.4539
▁charl	-12.4539
▁chap	-12.4541
▁tab	-12.4541
▁intra	-12.4543
cit	-12.4552
▁scarce	-12.4556
▁purge	-12.4566
gay	-12.4575
▁nai	-12.4577
rshad	-12.4581
▁zu	-12.4583
ied	-12.4583
esi	-12.4583
▁humble	-12.4594
nar	-12.4602
▁caste	-12.461
aw	-12.4615
akaya	-12.4621
▁jeopardize	-12.4623
▁stra	-12.4628
▁lumina	-12.4631
obe	-12.4632
oratori	-12.4635
24	-12.4638
▁candles	-12.4639
▁resettle	-12.4644
fold	-12.4645
▁cripple	-12.465
▁crowe	-12.4651
stage	-12.4654
rwin	-12.4666
▁hayd	-12.4666
▁exclude	-12.4669
▁sock	-12.4686
▁164	-12.4688
nage	-12.4692
▁cancell	-12.4699
mark	-12.4703
for	-12.4704
▁gia	-12.4715
▁dece	-12.4715
lon	-12.4716
▁defian	-12.4736
ig	-12.4736
sworth	-12.4738
▁retiree	-12.4745
▁earl	-12.4751
▁complian	-12.4751
480	-12.4762
▁lighter	-12.4762
ode	-12.4764
andel	-12.477
actic	-12.4776
ika	-12.478
fia	-12.478
▁distincti	-12.4785
iki	-12.4786
▁bois	-12.479
reach	-12.4793
▁jian	-12.4802
▁beta	-12.4803
ained	-12.4805
▁capitaliz	-12.4811
▁levin	-12.4812
▁trends	-12.4812
meters	-12.4816
imeter	-12.4816
▁migrat	-12.4833
▁gol	-12.4835
▁cott	-12.4836
▁duo	-12.4842
kma	-12.4842
▁143	-12.4843
▁ruben	-12.4853
▁misus	-12.4858
ato	-12.4862
kka	-12.4867
mur	-12.487
uck	-12.4872
▁illuminat	-12.4876
liberate	-12.4881
lic	-12.4882
▁hander	-12.4882
onda	-12.4884
▁piz	-12.4884
▁prescrib	-12.4887
▁champ	-12.4888
achel	-12.489
▁greens	-12.4891
bras	-12.49
▁induce	-12.4908
dine	-12.4911
ien	-12.4913
▁desp	-12.4916
▁astro	-12.4917
low	-12.4921
oga	-12.493
▁chore	-12.4934
▁robb	-12.4944
▁antibiotic	-12.4944
▁stu	-12.4949
rne	-12.495
▁rescu	-12.4951
▁diagnose	-12.4954
▁cheese	-12.4959
▁pha	-12.496
▁garro	-12.4964
▁abba	-12.4967
eston	-12.4969
▁181	-12.4969
▁dye	-12.497
eras	-12.497
▁cosmo	-12.497
▁encircl	-12.4971
▁const	-12.4972
▁maur	-12.4975
▁217	-12.4978
▁stab	-12.4984
eck	-12.4988
▁ter	-12.4997
▁stun	-12.5004
rg	-12.5005
▁reserv	-12.5014
▁locke	-12.5016
fk	-12.5025
ced	-12.5025
inos	-12.5027
ovi	-12.503
▁finaliz	-12.5031
mund	-12.5037
▁circula	-12.5039
chang	-12.5039
reb	-12.5043
▁intensifie	-12.5046
▁giz	-12.5055
▁flore	-12.506
▁geographic	-12.5063
cuz	-12.5065
sel	-12.5067
▁volk	-12.5068
sch	-12.507
▁tub	-12.5079
▁fume	-12.508
973	-12.508
harmonic	-12.508
▁helsin	-12.5082
▁credi	-12.5082
▁renam	-12.5085
arat	-12.5087
▁hann	-12.51
▁slavi	-12.51
100	-12.5103
ellwe	-12.5113
lla	-12.5113
▁mai	-12.5113
oppol	-12.5117
▁automat	-12.5124
letti	-12.5126
uku	-12.513
tale	-12.5138
satisfact	-12.5141
demic	-12.5144
paste	-12.5149
owed	-12.5149
nne	-12.5149
367	-12.515
▁corpora	-12.5151
speak	-12.5153
▁grapple	-12.5153
hall	-12.5158
▁cou	-12.5162
▁sali	-12.5162
▁stereo	-12.5165
▁263	-12.5168
barak	-12.5168
lb	-12.5175
nders	-12.5175
98	-12.5178
▁gua	-12.5178
gam	-12.5182
▁degener	-12.5186
rief	-12.519
▁siz	-12.5196
▁terroriz	-12.5199
▁ferre	-12.5201
▁curl	-12.5203
▁adventur	-12.5206
ge	-12.5211
cors	-12.5214
▁milli	-12.5214
▁sneak	-12.5219
load	-12.522
egan	-12.522
▁shimo	-12.5221
▁hobb	-12.5228
▁necessit	-12.5228
lund	-12.5229
▁jee	-12.523
pleasant	-12.5243
accurate	-12.5245
▁entertain	-12.5245
▁ent	-12.5245
320	-12.5245
blood	-12.5246
negro	-12.5246
committee	-12.5247
stands	-12.5247
first	-12.5247
aj	-12.5248
▁rebuil	-12.5248
charges	-12.5248
complete	-12.5248
chrys	-12.5249
▁bidd	-12.525
media	-12.5254
league	-12.5256
igat	-12.5257
▁euthan	-12.5257
▁gha	-12.5258
ratchet	-12.526
boat	-12.5261
roar	-12.5262
▁cola	-12.5264
▁freight	-12.5266
▁examples	-12.5269
▁compuls	-12.5269
▁vu	-12.527
▁spoil	-12.5271
linda	-12.5272
▁cour	-12.5273
elein	-12.5275
▁calculate	-12.5276
▁sweat	-12.5281
ourish	-12.5281
▁zaina	-12.5285
▁extinguish	-12.5286
wenge	-12.5289
▁stimulate	-12.5289
▁billionaires	-12.529
▁shack	-12.529
▁numb	-12.529
▁yoshi	-12.5292
▁confusi	-12.5294
▁distr	-12.5295
▁bolivar	-12.5296
aka	-12.5304
▁biotech	-12.5312
▁loath	-12.5315
▁distract	-12.5316
▁bam	-12.5317
▁paddle	-12.5317
▁reconstruct	-12.5317
▁corrupt	-12.5317
glia	-12.5319
▁lafa	-12.5319
▁cinemat	-12.5321
cussion	-12.5321
▁kazakh	-12.5321
▁rheumato	-12.5321
▁aeronautic	-12.5321
▁anaconda	-12.5321
▁autobiograph	-12.5321
▁avocado	-12.5321
▁bikini	-12.5321
▁boulevard	-12.5321
▁chechnya	-12.5321
▁curiosit	-12.5321
▁disregard	-12.5321
▁dungeon	-12.5321
▁entrepreneur	-12.5321
▁kilowatt	-12.5321
▁leicester	-12.5321
▁olympia	-12.5321
▁pamphlet	-12.5321
▁piccolo	-12.5321
▁quadruple	-12.5321
▁susceptib	-12.5321
▁ultimatum	-12.5321
▁blissitt	-12.5321
▁disgust	-12.5321
▁dwarf	-12.5321
▁python	-12.5321
▁astrophysic	-12.5321
▁cochran	-12.5321
▁culver	-12.5321
▁disrespect	-12.5321
▁geopolitic	-12.5321
▁intensify	-12.5321
▁mathematic	-12.5321
▁revamp	-12.5321
▁schwartz	-12.5321
▁scully	-12.5321
▁skyrocket	-12.5321
▁succumb	-12.5321
▁tuxedo	-12.5321
▁tweet	-12.5321
▁peanut	-12.5321
▁loophole	-12.5321
▁aurora	-12.5321
▁linguistic	-12.5321
▁parcel	-12.5321
▁voyage	-12.5321
▁wreak	-12.5321
▁carcass	-12.5321
▁entrench	-12.5321
▁filipino	-12.5321
▁crucifi	-12.5321
▁shroud	-12.5321
▁frown	-12.5321
▁futile	-12.5321
▁mistreat	-12.5321
▁inherent	-12.5321
▁overreact	-12.5321
▁graveyard	-12.5321
▁turtle	-12.5321
▁hinck	-12.5322
▁mortem	-12.5322
▁shantytown	-12.5322
▁sororit	-12.5322
▁headscar	-12.5322
▁hotspot	-12.5322
▁galile	-12.5322
▁inherit	-12.5322
▁silk	-12.5322
▁thirst	-12.5322
▁horm	-12.5322
venir	-12.5322
▁jockey	-12.5322
▁electrocut	-12.5322
▁tentative	-12.5322
▁abolish	-12.5322
▁qualification	-12.5322
▁kindergarten	-12.5322
▁enlist	-12.5322
▁entice	-12.5322
▁relentless	-12.5322
▁essay	-12.5322
▁conquer	-12.5322
▁matthew	-12.5322
▁taunt	-12.5322
▁simmon	-12.5322
▁reunion	-12.5322
▁vegeta	-12.5322
▁gloom	-12.5322
▁pharmacist	-12.5322
▁reclaim	-12.5322
▁lexus	-12.5322
▁nongovernment	-12.5322
▁anthropologist	-12.5322
▁maurit	-12.5322
▁sparse	-12.5322
▁ferment	-12.5322
▁bancroft	-12.5322
▁angola	-12.5323
▁rhythm	-12.5323
▁anglican	-12.5323
▁pediatrician	-12.5323
▁postcard	-12.5323
▁notify	-12.5323
▁fertilizer	-12.5323
▁catwalk	-12.5323
▁pyro	-12.5323
▁graff	-12.5323
▁diagnosis	-12.5323
▁brazen	-12.5324
lobo	-12.5324
▁oxf	-12.5324
▁rapist	-12.5324
▁petrova	-12.5324
▁termination	-12.5324
▁clump	-12.5324
▁guitarist	-12.5324
▁email	-12.5324
▁envision	-12.5324
▁gigant	-12.5324
▁koala	-12.5324
▁ensu	-12.5324
▁void	-12.5324
▁hamza	-12.5325
▁mcew	-12.5325
▁cheek	-12.5325
▁psychiatrist	-12.5325
▁quail	-12.5325
▁supervisor	-12.5325
▁mimic	-12.5325
▁cram	-12.5326
▁magdalen	-12.5326
▁sauer	-12.5326
shep	-12.5327
▁yuca	-12.5327
▁dispel	-12.5327
▁bulldozer	-12.5328
▁anthropolog	-12.5328
▁tuls	-12.5328
▁zhong	-12.5328
▁1920	-12.5329
▁funnel	-12.5329
▁latif	-12.5329
▁fool	-12.5329
▁sunlight	-12.5329
▁geek	-12.533
▁mountaineer	-12.533
▁loung	-12.533
▁reversal	-12.533
▁homeowner	-12.533
▁ideological	-12.5331
▁impeach	-12.5331
▁vaccinat	-12.5332
okou	-12.5332
▁kennel	-12.5332
▁monro	-12.5332
▁excavation	-12.5332
▁wie	-12.5332
▁arrow	-12.5333
▁aisle	-12.5333
▁loch	-12.5334
▁pristin	-12.5335
ktra	-12.5336
▁slur	-12.5337
▁grassland	-12.5337
▁cramm	-12.5337
▁saucer	-12.5337
▁thaw	-12.5338
gher	-12.5338
▁alternate	-12.5338
▁holling	-12.5339
▁flopp	-12.5339
▁lace	-12.534
▁goof	-12.5341
▁trump	-12.5341
▁flexibilit	-12.5341
▁stride	-12.5342
▁mukh	-12.5342
aikon	-12.5342
▁sahara	-12.5342
▁cement	-12.5343
▁cera	-12.5343
▁dumb	-12.5344
▁crusader	-12.5344
▁zul	-12.5344
▁vacan	-12.5345
▁cyn	-12.5345
▁authoritarian	-12.5345
tilin	-12.5349
▁aguil	-12.5349
▁kiba	-12.5352
guel	-12.5352
xter	-12.5354
▁knockout	-12.5354
▁pierce	-12.5356
ole	-12.5359
▁terrifi	-12.5359
▁kilo	-12.5359
▁fictional	-12.5359
etcher	-12.536
▁oba	-12.536
▁fabian	-12.5361
▁glea	-12.5362
▁shower	-12.5363
▁wax	-12.5363
▁gadda	-12.5363
▁sein	-12.5364
▁svet	-12.5365
▁dior	-12.5367
elder	-12.5367
▁dri	-12.5368
▁kiri	-12.5369
▁hercule	-12.5369
iable	-12.5369
riel	-12.537
ourage	-12.5371
▁earnest	-12.5371
▁impatien	-12.5371
bard	-12.5373
▁maz	-12.5375
▁reno	-12.5376
▁kost	-12.5377
▁lenient	-12.5377
▁blonde	-12.5379
▁cer	-12.5379
▁recreation	-12.538
▁reput	-12.538
▁zahar	-12.538
▁hospitalization	-12.5381
▁latino	-12.5383
▁walt	-12.5383
▁capitalism	-12.5384
gura	-12.5385
▁lp	-12.5385
▁brisk	-12.5387
▁syndicat	-12.5387
▁euthanize	-12.5387
▁medina	-12.539
▁phos	-12.5393
▁kuwaiti	-12.5393
▁protestant	-12.5395
▁grum	-12.5396
▁polk	-12.5398
▁curti	-12.5399
rump	-12.54
lissa	-12.5402
▁rott	-12.5403
ines	-12.5403
▁jali	-12.5405
cesc	-12.5408
▁kab	-12.541
▁tempt	-12.5411
▁necessity	-12.5416
▁submissions	-12.5417
▁burger	-12.5417
lfie	-12.5418
▁christen	-12.5419
▁sag	-12.542
adhika	-12.5428
▁bangladeshi	-12.5431
▁emitter	-12.5431
▁retesting	-12.5431
▁subsidize	-12.5433
▁defy	-12.5435
magh	-12.5437
▁gand	-12.5439
▁hosh	-12.5441
▁tas	-12.5442
▁brandish	-12.5443
▁bombard	-12.5445
omso	-12.5447
▁buyout	-12.5448
▁gera	-12.5449
▁subversi	-12.5453
▁felici	-12.5454
▁shall	-12.5455
▁reggi	-12.5456
▁sprinter	-12.5456
▁frig	-12.5465
tter	-12.5466
▁matern	-12.5467
93	-12.5471
▁tram	-12.5474
aus	-12.5475
assi	-12.5476
▁stoning	-12.5483
▁jun	-12.5485
▁shahr	-12.5485
▁rhon	-12.5488
▁inscription	-12.5489
▁tablet	-12.5489
ruz	-12.5494
▁kristin	-12.5494
▁burj	-12.5496
▁incorporate	-12.5498
▁penetrat	-12.5499
▁curv	-12.5501
▁shum	-12.5504
▁raft	-12.5506
▁petroc	-12.5508
▁ironic	-12.5508
▁riv	-12.5509
atus	-12.5511
▁molest	-12.5517
▁strat	-12.552
▁khaz	-12.552
▁toshihi	-12.5521
dental	-12.5523
byl	-12.5529
▁slee	-12.5529
▁singaporean	-12.5531
poon	-12.5531
▁assumption	-12.5539
▁tarbe	-12.5541
habi	-12.5542
▁kup	-12.5543
▁alaskan	-12.5546
▁chai	-12.5546
▁ngo	-12.5553
▁portal	-12.5557
▁corte	-12.5571
▁pear	-12.5573
iyan	-12.5576
▁nou	-12.5577
has	-12.5579
xi	-12.558
▁hyde	-12.5587
▁favorabl	-12.5591
▁bounc	-12.5595
▁shrive	-12.5595
tractor	-12.5603
▁zhe	-12.5603
▁goul	-12.5604
▁upward	-12.5606
alph	-12.561
ates	-12.5611
suke	-12.5612
▁frederic	-12.5615
max	-12.5615
▁bruise	-12.5616
▁sesh	-12.5623
▁nepali	-12.5624
vej	-12.5627
▁bao	-12.5631
▁bach	-12.5633
zzy	-12.5636
▁linde	-12.5637
rah	-12.5643
▁publicize	-12.5646
andra	-12.5656
kistan	-12.5659
ueno	-12.566
▁smiley	-12.5672
iera	-12.5673
▁exploitati	-12.5674
▁arc	-12.5678
▁mock	-12.568
▁choke	-12.568
▁glance	-12.5687
▁labe	-12.5688
sien	-12.5694
knesse	-12.5696
sean	-12.5698
▁crand	-12.5699
▁intrigue	-12.5699
iar	-12.57
▁ponte	-12.5702
ane	-12.5702
yanni	-12.5704
▁lent	-12.5706
▁hono	-12.5708
▁aft	-12.5728
▁induc	-12.573
alina	-12.5731
uil	-12.5732
cable	-12.5735
▁compli	-12.5738
ugg	-12.5743
▁mois	-12.5749
era	-12.5753
▁itar	-12.5754
▁tame	-12.576
clara	-12.576
ip	-12.5762
▁butter	-12.5764
▁nova	-12.5768
▁originat	-12.5772
▁vitr	-12.5776
▁ador	-12.5776
ib	-12.5784
▁niss	-12.5785
▁nazar	-12.5788
▁vic	-12.5794
mu	-12.5796
▁niec	-12.5815
mmer	-12.5815
pick	-12.5815
ermo	-12.5816
▁mutilat	-12.5817
▁loren	-12.5817
▁remed	-12.5832
▁marque	-12.5833
▁santor	-12.584
szk	-12.584
▁reg	-12.5845
pr	-12.5846
hr	-12.5847
pper	-12.5848
▁dina	-12.585
alf	-12.5852
lson	-12.5856
▁hwa	-12.5862
▁precede	-12.5868
baz	-12.5874
uro	-12.5877
▁ventur	-12.5887
▁proportional	-12.589
▁publiciz	-12.5891
▁anton	-12.5892
news	-12.5894
▁kono	-12.5894
▁zem	-12.5896
bov	-12.5898
▁poli	-12.5905
▁vene	-12.5907
nch	-12.5915
igh	-12.592
iman	-12.5924
rank	-12.5926
▁airb	-12.5927
dolph	-12.5928
▁avian	-12.5932
▁rotate	-12.5933
rie	-12.5933
▁attache	-12.5934
▁facilitat	-12.5936
▁focuse	-12.5936
▁mauric	-12.5937
▁node	-12.5939
▁covert	-12.594
▁huddle	-12.5944
▁ein	-12.5947
ep	-12.595
▁lei	-12.5952
▁arte	-12.5952
▁adel	-12.5956
▁cube	-12.5957
▁reproducti	-12.5958
▁sca	-12.5958
pid	-12.5961
▁compensate	-12.5962
▁rena	-12.5964
anne	-12.5965
▁gems	-12.5968
ena	-12.5973
▁fade	-12.5976
aca	-12.5984
▁inca	-12.5989
▁doo	-12.6
lino	-12.6006
hni	-12.6011
rdr	-12.6012
hel	-12.6013
▁nie	-12.6013
rani	-12.6016
rou	-12.6021
▁fen	-12.6021
▁jem	-12.6029
mps	-12.6031
pears	-12.6034
decent	-12.6035
▁log	-12.6037
amba	-12.6046
▁brac	-12.6048
▁marian	-12.6054
kaya	-12.6055
shop	-12.6055
▁revolv	-12.6058
▁ignite	-12.6059
▁cas	-12.6062
ony	-12.607
lender	-12.6073
pun	-12.6073
▁vari	-12.6075
▁toast	-12.6079
▁gan	-12.6088
ub	-12.6089
▁rai	-12.609
hard	-12.609
now	-12.6099
bur	-12.6102
amo	-12.6102
▁roadway	-12.611
▁elde	-12.6117
▁aka	-12.612
▁characterize	-12.6124
▁afar	-12.6131
formed	-12.6131
460	-12.6132
nzo	-12.6133
▁alon	-12.6135
▁hay	-12.6135
poly	-12.6136
▁shiny	-12.6137
▁emili	-12.6138
▁pras	-12.614
inches	-12.6149
▁cr	-12.6158
86	-12.6161
▁alga	-12.6163
▁outsize	-12.6166
gara	-12.6183
passionate	-12.619
▁fc	-12.6195
lli	-12.6217
83	-12.6218
ellen	-12.6219
990	-12.6221
git	-12.6227
▁hats	-12.6236
▁yup	-12.6239
▁kuna	-12.6242
once	-12.6251
mis	-12.6253
ssi	-12.6253
ema	-12.6253
▁bully	-12.626
ryl	-12.6262
lix	-12.6262
▁dom	-12.6282
▁judg	-12.6282
trayal	-12.6286
gate	-12.6288
▁flatte	-12.6289
▁commut	-12.6303
link	-12.6306
vering	-12.6309
▁seb	-12.631
dou	-12.6322
▁terminate	-12.6324
▁stein	-12.6326
▁evasi	-12.6342
26	-12.6356
▁zhi	-12.6363
ntiff	-12.6365
▁mobilize	-12.637
arro	-12.6371
worth	-12.6377
▁revere	-12.6384
▁moderniz	-12.6387
culate	-12.6388
▁adulter	-12.639
▁meo	-12.6394
▁vern	-12.6396
ivo	-12.6403
taki	-12.6403
▁stow	-12.6405
▁azim	-12.641
▁fah	-12.641
qi	-12.6411
▁compris	-12.6411
▁hypo	-12.6416
▁correspond	-12.6425
▁shan	-12.6433
ercz	-12.6442
bagh	-12.6445
▁rampa	-12.6447
ffel	-12.6449
▁dir	-12.6454
▁ari	-12.6462
▁banker	-12.6467
▁cran	-12.6472
▁natan	-12.6477
29	-12.6495
served	-12.6495
▁poise	-12.6496
abedi	-12.6502
ellar	-12.6505
▁raf	-12.6508
hail	-12.6512
16	-12.652
izing	-12.6521
barro	-12.6522
▁amal	-12.6526
63	-12.6526
rill	-12.6528
▁lew	-12.6532
▁159	-12.6535
▁calv	-12.654
kel	-12.6549
▁accomplishment	-12.6553
rried	-12.656
ob	-12.6562
uso	-12.6562
▁hurdle	-12.6566
▁lud	-12.6567
▁salvage	-12.6568
▁victori	-12.6568
▁kah	-12.6571
believ	-12.6574
rang	-12.6578
▁reinforce	-12.6581
terres	-12.6582
gram	-12.6587
▁variation	-12.6588
uru	-12.6592
▁activis	-12.6594
▁fir	-12.6598
▁relat	-12.6599
elo	-12.6616
drome	-12.6619
hafi	-12.6622
▁alexandr	-12.6623
27	-12.6627
▁avi	-12.6632
69	-12.6633
tenberg	-12.6638
usion	-12.6638
▁sto	-12.6639
ecker	-12.6641
▁kin	-12.6641
▁kadi	-12.6642
mptu	-12.6644
▁kla	-12.6645
22	-12.6648
bergen	-12.6649
tian	-12.6654
rel	-12.6655
▁af	-12.6656
165	-12.666
▁extorti	-12.6665
▁ware	-12.6688
ails	-12.6693
eng	-12.6694
▁meg	-12.6704
mb	-12.6705
▁humili	-12.6705
▁verse	-12.6709
▁alto	-12.6715
oxid	-12.6715
▁163	-12.6716
23	-12.672
▁mack	-12.6726
trophy	-12.6726
1966	-12.6729
▁riche	-12.6729
bly	-12.6733
mitrov	-12.6734
▁mg	-12.6738
▁atom	-12.6738
▁misunderst	-12.6741
ichi	-12.6742
▁neurolog	-12.675
▁indulge	-12.6751
▁frankl	-12.6752
iku	-12.6757
▁salvati	-12.6759
▁swath	-12.6761
chiba	-12.6764
lf	-12.6766
▁molecul	-12.677
▁hos	-12.6771
▁nic	-12.6771
▁georg	-12.6774
uddin	-12.6775
▁zet	-12.6776
▁evacuat	-12.678
igi	-12.6781
scription	-12.6784
▁dp	-12.6791
▁nad	-12.6792
word	-12.6795
tones	-12.6805
terior	-12.6806
▁puzzl	-12.6808
▁transmit	-12.6811
mission	-12.6811
▁booking	-12.6812
cio	-12.6816
▁csa	-12.6826
▁interven	-12.683
friend	-12.6833
▁bagh	-12.6834
▁rees	-12.6835
▁dominan	-12.6836
54	-12.6838
rau	-12.684
▁swe	-12.6841
▁exhibited	-12.6844
▁sicil	-12.6845
oid	-12.6846
▁unfit	-12.6846
13	-12.6846
▁exclusi	-12.6848
lman	-12.6848
loha	-12.6851
▁dism	-12.6853
▁qi	-12.6863
samm	-12.6867
▁scrub	-12.6871
▁bab	-12.6874
▁yasa	-12.6879
▁curve	-12.6883
conception	-12.6884
▁provoke	-12.6888
▁151	-12.6899
macho	-12.69
plan	-12.6904
▁palat	-12.6904
▁drops	-12.6906
▁destin	-12.6908
solicit	-12.6909
pleasure	-12.6911
bishop	-12.6911
conduct	-12.6911
hawk	-12.6912
brook	-12.6912
spray	-12.6912
constitutional	-12.6912
correct	-12.6913
insurgenc	-12.6913
grove	-12.6913
blaze	-12.6913
gut	-12.6913
proof	-12.6913
christ	-12.6914
▁missionar	-12.6914
natural	-12.6915
▁techno	-12.6915
ethel	-12.6916
government	-12.6916
connect	-12.6917
breaker	-12.6917
terrestrial	-12.692
case	-12.692
hin	-12.692
egun	-12.6921
paul	-12.6921
writer	-12.6924
famous	-12.6924
▁nativ	-12.6926
align	-12.6926
▁adria	-12.6928
cken	-12.6928
▁paralysi	-12.6929
help	-12.693
mex	-12.6932
▁overse	-12.6934
▁suff	-12.6934
▁dealers	-12.6941
burn	-12.6943
availab	-12.6945
letter	-12.6946
sam	-12.6946
alien	-12.6946
▁cobb	-12.695
hilton	-12.6952
laughter	-12.6953
section	-12.6956
▁enthusias	-12.6957
little	-12.6957
matic	-12.6958
▁imma	-12.696
▁pronoun	-12.6963
▁cruis	-12.6965
rocco	-12.6966
tsb	-12.6967
▁convenien	-12.6969
cule	-12.6974
pilla	-12.6977
▁harpo	-12.6979
slaught	-12.6979
trak	-12.6979
▁profess	-12.6981
▁eject	-12.6981
lley	-12.6981
pag	-12.6981
▁busi	-12.6982
▁prud	-12.6982
viole	-12.6984
▁stiff	-12.6984
▁conservat	-12.6985
▁yah	-12.6985
▁sauce	-12.6985
▁crusade	-12.6987
▁pharmac	-12.6987
technic	-12.6988
calypt	-12.6988
nuptial	-12.6988
▁binocular	-12.6988
▁blasphem	-12.6988
▁caricature	-12.6988
▁decapitat	-12.6988
▁doctrine	-12.6988
▁dysfunction	-12.6988
▁expenditure	-12.6988
▁extravagan	-12.6988
▁greyhound	-12.6988
▁handcuff	-12.6988
▁hierarch	-12.6988
▁insomnia	-12.6988
▁instinct	-12.6988
▁irrigat	-12.6988
▁kiosk	-12.6988
▁limousine	-12.6988
▁luxembourg	-12.6988
▁occupy	-12.6988
▁outnumber	-12.6988
▁perfume	-12.6988
▁precondition	-12.6988
▁prosthetic	-12.6988
▁reappear	-12.6988
▁recuperat	-12.6988
▁resuscitat	-12.6988
▁sabhnani	-12.6988
▁torchbearer	-12.6988
▁trespass	-12.6988
▁unfurl	-12.6988
menopaus	-12.6988
▁anguish	-12.6988
▁blatant	-12.6988
▁disintegrat	-12.6988
▁encephal	-12.6988
▁pessimis	-12.6988
▁macedonia	-12.6988
▁peatland	-12.6988
▁reaffirm	-12.6988
▁rhoad	-12.6988
▁violin	-12.6988
▁champagne	-12.6988
▁crumple	-12.6988
▁synergi	-12.6988
▁glitter	-12.6988
▁ostrac	-12.6988
▁rupture	-12.6988
▁scorpion	-12.6988
▁arrogan	-12.6988
▁basilica	-12.6988
▁munchkin	-12.6988
▁tweak	-12.6988
▁indigen	-12.6988
▁supersonic	-12.6988
judic	-12.6988
▁solemn	-12.6988
▁glitz	-12.6988
▁hemorrhag	-12.6988
▁knucklehead	-12.6988
▁smear	-12.6988
▁ketch	-12.6988
▁xavi	-12.6988
▁waheed	-12.6988
▁kaiseki	-12.6988
▁soundtrack	-12.6988
▁muscat	-12.6988
▁hirsch	-12.6988
▁picnic	-12.6988
▁hiroshi	-12.6988
▁spaceflight	-12.6988
▁habitual	-12.6988
▁yusuf	-12.6989
▁cowboy	-12.6989
▁ardent	-12.6989
▁sulfur	-12.6989
▁buoyant	-12.6989
▁byzanti	-12.6989
▁stymie	-12.6989
▁compensat	-12.6989
▁arraignment	-12.6989
▁maroon	-12.6989
▁ghanaian	-12.6989
▁exonerat	-12.6989
▁drench	-12.6989
▁perplex	-12.6989
▁refund	-12.6989
▁thrash	-12.6989
▁fudg	-12.6989
▁additive	-12.6989
▁configur	-12.6989
▁frontrunner	-12.6989
▁trumpet	-12.6989
▁cereal	-12.6989
▁hoax	-12.6989
▁supernova	-12.6989
▁confucian	-12.6989
▁roast	-12.6989
▁bhag	-12.6989
▁auctioneer	-12.699
recen	-12.699
▁bulb	-12.699
▁mujahid	-12.699
▁eldor	-12.699
▁spore	-12.699
▁hedge	-12.699
▁submerg	-12.699
▁vader	-12.699
▁enslav	-12.699
▁ravine	-12.699
▁encyclopedia	-12.699
▁sophi	-12.699
▁embroi	-12.699
▁foam	-12.699
jawe	-12.699
▁hungarian	-12.6991
▁jaff	-12.6991
▁bookstore	-12.6991
▁aragon	-12.6991
▁deface	-12.6991
▁dictat	-12.6991
▁fascis	-12.6991
▁backyard	-12.6991
▁haircut	-12.6991
▁commemoration	-12.6991
▁siem	-12.6991
▁oblige	-12.6991
▁chub	-12.6992
▁poetry	-12.6992
▁humbert	-12.6992
▁barbour	-12.6992
▁exemption	-12.6992
▁texture	-12.6992
▁yohan	-12.6992
akou	-12.6992
▁mulia	-12.6993
▁hanami	-12.6993
▁stylish	-12.6993
report	-12.6993
▁heartbreak	-12.6993
▁seafar	-12.6993
▁aspiration	-12.6993
▁prank	-12.6993
bron	-12.6993
▁spacesuit	-12.6994
▁kurt	-12.6994
adesh	-12.6994
▁ammoni	-12.6994
▁login	-12.6995
▁vaz	-12.6995
▁lurk	-12.6995
▁scold	-12.6995
▁uproot	-12.6995
▁imperialist	-12.6995
▁morrison	-12.6995
▁mccra	-12.6995
tacean	-12.6996
▁jedi	-12.6996
▁apocalyp	-12.6996
▁spiegel	-12.6996
▁microbe	-12.6996
▁scoop	-12.6996
▁cylinder	-12.6996
▁winemaker	-12.6997
▁prudho	-12.6997
ayda	-12.6997
▁liang	-12.6997
▁sequin	-12.6997
▁coax	-12.6997
▁seren	-12.6998
▁synonym	-12.6998
▁contamination	-12.6999
▁slack	-12.6999
▁snagg	-12.6999
▁interpretation	-12.7
▁waive	-12.7
▁madden	-12.7001
▁occurrence	-12.7001
▁blockade	-12.7001
▁manipulation	-12.7001
▁abort	-12.7002
▁hangar	-12.7002
▁quinn	-12.7002
▁biodi	-12.7003
▁whip	-12.7003
tour	-12.7003
▁medley	-12.7003
▁strive	-12.7004
▁solu	-12.7004
▁projectile	-12.7005
▁mcguinn	-12.7005
▁nikolay	-12.7006
ador	-12.7006
scribe	-12.7006
▁harmless	-12.7006
▁appease	-12.7007
dzie	-12.7007
▁liz	-12.7008
▁boj	-12.7008
▁cinder	-12.7008
roga	-12.7008
▁wynn	-12.701
▁lieu	-12.701
▁regroup	-12.7011
▁premeditat	-12.7011
▁insert	-12.7011
▁peril	-12.7012
▁contributor	-12.7012
▁decry	-12.7013
▁mayo	-12.7014
▁wrongful	-12.7014
▁defector	-12.7016
▁ghana	-12.7016
▁acquittal	-12.7017
▁loft	-12.7018
▁chronicle	-12.7018
▁haze	-12.7018
nter	-12.7018
▁pix	-12.7018
angin	-12.7018
▁rahim	-12.7019
edict	-12.7019
▁respectful	-12.702
▁spam	-12.7021
law	-12.7021
▁powerhouse	-12.7021
novo	-12.7021
▁cherish	-12.7022
▁airfare	-12.7023
▁alfar	-12.7023
▁tempo	-12.7025
▁showroom	-12.7025
▁saeed	-12.7026
▁sanja	-12.7026
ladi	-12.7027
▁540	-12.7027
▁hammon	-12.7028
▁communiqu	-12.7028
▁hoard	-12.7028
▁worthless	-12.7028
▁dazzling	-12.703
▁nif	-12.7032
▁saturate	-12.7032
▁mysteri	-12.7033
▁digest	-12.7034
▁cascade	-12.7035
▁mizu	-12.7036
▁gis	-12.7037
qo	-12.7038
▁deka	-12.7039
▁assu	-12.704
▁maggi	-12.7041
lane	-12.7042
▁mast	-12.7043
▁sobb	-12.7045
▁browser	-12.7047
haka	-12.705
▁nishi	-12.7051
▁peng	-12.7054
▁dweller	-12.7055
▁tern	-12.7059
assie	-12.7061
tine	-12.7062
omb	-12.7064
▁normaliz	-12.7064
▁bumper	-12.7065
▁mehme	-12.7066
▁bagg	-12.7066
▁cio	-12.7066
▁unhe	-12.7067
▁cervi	-12.7067
▁atkins	-12.7067
dding	-12.7068
▁cess	-12.7069
enez	-12.707
tyar	-12.7071
▁hutu	-12.7072
epp	-12.7074
▁directive	-12.7075
▁heath	-12.7076
▁pint	-12.7076
▁joking	-12.7078
▁clima	-12.7081
▁pollinat	-12.7082
▁172	-12.7084
po	-12.7085
▁swee	-12.7086
nstop	-12.7087
▁worm	-12.7089
▁rightful	-12.7089
▁allowance	-12.7091
▁pompe	-12.7091
dergar	-12.7094
▁naught	-12.7094
logical	-12.7094
bello	-12.7095
▁khal	-12.7096
▁institutional	-12.7096
▁berger	-12.7098
▁lament	-12.7099
▁sharpen	-12.71
▁playful	-12.7102
▁hobby	-12.7103
▁tao	-12.7104
▁burge	-12.7105
▁spurt	-12.7105
▁eugen	-12.7105
▁tremor	-12.7107
▁leo	-12.7109
▁fleming	-12.7111
▁soder	-12.7112
▁collaborating	-12.7114
acinto	-12.7114
ouad	-12.7118
▁durham	-12.7118
▁ugandan	-12.712
scot	-12.712
▁truss	-12.7121
cott	-12.7122
▁prion	-12.7122
zov	-12.7123
▁elah	-12.7123
hur	-12.7125
▁glid	-12.7125
mor	-12.7127
▁huddl	-12.7129
▁initiate	-12.7129
▁slick	-12.7133
61	-12.7134
azar	-12.7134
▁cag	-12.7137
▁foresee	-12.7137
▁italia	-12.7138
▁idiot	-12.7138
▁nann	-12.714
▁hag	-12.7143
▁visualiz	-12.7143
tzfeld	-12.7145
▁infiltrate	-12.7146
▁housewi	-12.7149
▁hayy	-12.7151
nfal	-12.7152
fin	-12.7153
▁dine	-12.7154
▁suffocat	-12.7156
▁reproduc	-12.7156
▁lankan	-12.7157
▁nutritional	-12.7163
▁swell	-12.7165
▁propeller	-12.7165
▁countrymen	-12.7169
▁jagg	-12.7171
▁puls	-12.7174
ehead	-12.7176
▁diapers	-12.7177
▁eyebrows	-12.7177
manded	-12.718
▁urin	-12.718
babil	-12.7182
▁campuses	-12.7182
▁circl	-12.7182
▁leon	-12.7183
▁organis	-12.7184
▁mach	-12.7186
▁billow	-12.7186
otti	-12.7188
▁payout	-12.7189
brahim	-12.7191
lock	-12.7192
hofst	-12.7195
lev	-12.7196
▁fran	-12.7197
▁mitigat	-12.7201
uchi	-12.7202
[...]
