<pad>	0
<s>	0
</s>	0
<unk>	0
▁	-3.1648
▁.	-3.29038
을	-3.66904
는	-3.70182
의	-3.79567
은	-3.95157
를	-4.11859
이	-4.21211
에	-4.21274
가	-4.30325
고	-4.57264
에서	-4.80369
한	-4.81053
▁,	-4.81464
로	-5.02247
▁일	-5.09924
인	-5.14257
▁이	-5.27317
▁그	-5.28246
▁있다	-5.30885
으로	-5.35777
다	-5.35837
과	-5.43378
와	-5.46517
▁고	-5.50623
도	-5.57026
지	-5.6638
▁수	-5.66625
했다	-5.68019
▁말했다	-5.68746
할	-5.73448
▁밝혔다	-5.80227
간	-5.8153
하고	-5.90726
▁있는	-5.96623
▁년	-6.007
기	-6.0342
던	-6.09189
며	-6.1225
▁전했다	-6.14061
▁현지시	-6.19937
하는	-6.2043
▁전	-6.23681
해	-6.24438
으며	-6.27102
된	-6.27725
스	-6.30714
▁이번	-6.33652
나	-6.35515
▁중	-6.37213
▁월	-6.38015
▁명	-6.39788
▁위해	-6.41365
게	-6.42416
리	-6.44338
▁미	-6.45694
▁명이	-6.47748
자	-6.47901
▁며	-6.50387
▁지난	-6.5108
▁미국	-6.52143
▁대한	-6.52364
▁또	-6.55485
들	-6.59309
에게	-6.59602
▁그러나	-6.61334
▁한	-6.65294
▁대해	-6.65869
▁대통령	-6.66082
▁것	-6.67827
▁것으로	-6.7066
▁정부	-6.70875
라	-6.73304
했	-6.73741
들이	-6.75512
히	-6.76534
▁만	-6.77708
만	-6.811
▁중국	-6.81733
▁것을	-6.81894
운	-6.8478
▁있다고	-6.86566
▁주	-6.87708
▁것이라고	-6.88304
사	-6.88718
▁다른	-6.88837
▁더	-6.90506
어	-6.90667
트	-6.91396
됐다	-6.92247
시	-6.92916
서	-6.93422
▁경찰	-6.93942
▁한편	-6.94812
하기	-6.95339
▁대변인	-6.95858
▁오바마	-6.97939
상	-6.99576
▁이라크	-6.99977
하게	-7.00054
하지	-7.00846
▁모	-7.00926
주	-7.01149
▁영국	-7.0163
드	-7.02263
장	-7.0272
▁약	-7.03023
▁바	-7.04487
적인	-7.04782
▁이라고	-7.05231
이다	-7.05763
▁우리	-7.06225
▁것이다	-7.09066
▁많은	-7.09324
▁등	-7.09577
했다고	-7.12666
▁총리	-7.12759
▁한다	-7.12771
든	-7.12793
▁같은	-7.14399
▁달러	-7.14519
지만	-7.14617
▁통해	-7.14649
까지	-7.15006
▁세	-7.16456
▁자신	-7.1872
▁내	-7.18731
▁않았다	-7.19312
수	-7.2001
▁가장	-7.2022
르	-7.20973
▁개	-7.21787
▁후	-7.22159
▁오	-7.22835
하	-7.24075
아	-7.25065
우	-7.25646
성	-7.26677
면	-7.26736
▁것이	-7.27199
▁동안	-7.27213
하며	-7.27595
일	-7.28804
▁말	-7.28962
▁경우	-7.29426
▁명의	-7.2951
▁클린턴	-7.31688
▁때	-7.32357
▁가	-7.32511
▁주장했다	-7.3253
될	-7.32973
▁영화	-7.34075
▁관련	-7.34723
▁이들	-7.34872
▁이후	-7.34894
대	-7.35092
소	-7.36072
▁대	-7.36333
거	-7.36358
▁시	-7.37062
치	-7.3784
진	-7.38807
▁북한	-7.39934
▁것은	-7.39956
화	-7.40774
▁세계	-7.41111
▁덧붙였다	-7.4142
▁매	-7.41784
▁당국	-7.42051
▁일부	-7.42228
▁그들	-7.4299
으나	-7.43881
한다	-7.43936
▁설명했다	-7.44371
▁알	-7.44785
야	-7.45506
▁될	-7.46064
▁문제	-7.46339
▁파키스탄	-7.47147
전	-7.47815
▁위한	-7.48861
니	-7.49157
▁에	-7.49396
▁민주당	-7.49433
었다	-7.4964
▁있었다	-7.50211
원	-7.50371
▁아	-7.50907
▁현재	-7.5104
에는	-7.51193
▁최근	-7.51358
▁그리고	-7.52416
크	-7.52833
▁하	-7.52962
▁나	-7.53335
▁프랑스	-7.5364
비	-7.53957
▁있	-7.54729
▁없다	-7.55033
▁지역	-7.5563
부	-7.55699
바	-7.56182
▁이상	-7.56329
▁당시	-7.56641
s	-7.57471
▁일본	-7.57559
▁제	-7.5769
처	-7.58115
▁결과	-7.58532
때문에	-7.58632
▁지난해	-7.58711
▁두	-7.58869
▁조사	-7.61303
▁비	-7.61747
▁함께	-7.62124
▁이날	-7.62322
▁부시	-7.62488
▁상원의원	-7.62767
프	-7.62917
▁했다	-7.63435
▁모두	-7.64368
▁사	-7.6456
보다	-7.64588
▁부	-7.64673
▁수도	-7.64883
▁라고	-7.66813
▁예정이	-7.67658
▁시간	-7.68265
▁사고	-7.6829
▁이란	-7.68589
▁뒤	-7.68911
▁사실	-7.69556
당	-7.69712
미	-7.69852
▁분	-7.69905
▁반	-7.6997
▁사람들	-7.70141
▁공격	-7.70429
▁러시아	-7.70887
▁이스라엘	-7.71012
려	-7.71146
▁새로	-7.71393
국	-7.71792
들을	-7.71865
▁처음	-7.72375
면서	-7.73239
▁후보	-7.73627
라고	-7.74384
▁여성	-7.74521
적	-7.7458
해야	-7.74699
즈	-7.7483
정	-7.74855
마	-7.75138
부터	-7.75223
▁국가	-7.75283
보	-7.75301
▁발생한	-7.75425
▁할	-7.75496
▁거	-7.76407
길	-7.76847
▁아직	-7.7733
▁있으며	-7.77862
선	-7.77945
▁사건	-7.78324
오	-7.78473
▁기	-7.79389
▁그녀	-7.79882
▁유엔	-7.80174
적으로	-7.80968
▁위	-7.81078
도록	-7.81236
런	-7.81495
▁로	-7.81845
▁하는	-7.82238
▁된다	-7.82577
▁cnn	-7.83127
▁계속	-7.83368
▁경제	-7.83739
▁마	-7.83854
단	-7.84136
용	-7.84683
▁계획	-7.84934
위	-7.85034
였다	-7.85216
▁강	-7.85631
▁억	-7.86571
▁위치	-7.86739
티	-7.87014
▁지	-7.87135
파	-7.89406
▁초	-7.8952
세	-7.89582
럼	-7.90013
제	-7.90425
▁차	-7.90663
▁보도	-7.90735
▁올림픽	-7.90776
타	-7.91441
▁라	-7.91904
이나	-7.92053
▁결정	-7.92584
▁안	-7.92668
디	-7.93001
▁배	-7.93526
▁받았다	-7.93563
▁미군	-7.93837
레	-7.94064
▁군	-7.94214
▁않을	-7.94427
▁대부분	-7.94459
▁사망했다	-7.94713
▁열린	-7.94836
러	-7.94892
▁버	-7.95121
▁연구	-7.95646
명	-7.95662
▁가운데	-7.95934
▁유	-7.95939
▁구	-7.96015
▁조	-7.96137
▁채	-7.96454
▁타	-7.96803
코	-7.97477
▁테러	-7.97564
▁매케인	-7.97849
▁무	-7.98184
▁대통령이	-7.98287
됐	-7.98524
▁다	-7.98926
하다	-7.98946
내	-7.99015
구	-7.99052
▁달	-7.9908
식	-7.99092
▁보	-7.99267
질	-7.99267
에도	-7.99476
▁힐러리	-7.99781
▁부토	-7.99848
및	-8.00198
▁지원	-8.00205
신	-8.00869
▁불	-8.00942
▁미얀마	-8.00993
돼	-8.01176
▁승리	-8.01247
이라고	-8.01266
▁받고	-8.01647
▁시위	-8.01732
▁정	-8.01796
▁해	-8.01838
르면	-8.02382
중	-8.03979
라는	-8.04051
카	-8.05033
계	-8.05344
▁번	-8.05791
▁이라	-8.06006
산	-8.06095
▁경기	-8.06254
▁보도했	-8.06299
락	-8.06535
▁피	-8.06566
▁인도	-8.06605
▁공	-8.06614
▁한국	-8.07355
모	-8.07532
▁사람	-8.07636
▁물	-8.07768
토	-8.07949
▁살	-8.08217
브	-8.08629
▁재	-8.08664
조	-8.08885
▁올해	-8.09027
▁이에	-8.09289
▁무샤라프	-8.09314
문	-8.0936
▁파	-8.09391
▁다시	-8.09487
안	-8.09883
▁컴퓨터	-8.10185
관	-8.11015
▁회사	-8.11238
▁있을	-8.11476
되는	-8.11839
▁줄	-8.12448
▁피해	-8.12798
▁발생했다	-8.13251
노	-8.13493
▁국제	-8.13779
▁인터넷	-8.13943
▁데	-8.14088
▁최고	-8.14137
▁km	-8.14212
하면서	-8.14408
▁의해	-8.14426
물	-8.14438
▁원	-8.14665
▁기술	-8.14972
▁터키	-8.15102
▁대선	-8.15296
▁신	-8.15342
▁상	-8.15538
▁반군	-8.15574
▁발	-8.15921
▁사람들이	-8.15978
▁tv	-8.16198
린	-8.17112
직	-8.17619
▁잘	-8.1764
▁자	-8.17958
▁선거	-8.18079
▁없는	-8.18421
에따	-8.18901
▁됐다	-8.1891
학	-8.19107
▁성	-8.19214
▁하고	-8.1926
▁m	-8.19836
▁독일	-8.19847
▁카	-8.20133
권	-8.20268
▁존	-8.20521
차	-8.20902
▁뉴욕	-8.2122
▁않은	-8.21282
들에게	-8.21493
▁지도자	-8.21699
▁대학	-8.21862
p	-8.21981
▁티베트	-8.22265
▁조치	-8.22298
루	-8.22303
▁언론	-8.22612
▁이미	-8.22845
▁보고	-8.23048
▁발표	-8.2317
자들	-8.23203
▁어떤	-8.23257
e	-8.23292
y	-8.2334
▁콜롬비아	-8.23758
▁a	-8.2397
▁정보	-8.23976
실	-8.24079
▁포함	-8.24091
는데	-8.24207
▁있었	-8.2426
▁팔레스타인	-8.24765
▁여러	-8.24786
▁소속	-8.24786
▁도시	-8.24792
▁경찰이	-8.24906
하지만	-8.25073
▁공화당	-8.25273
▁아이	-8.25317
란	-8.25499
▁시작	-8.25539
▁정도	-8.25783
▁도	-8.26011
▁성명	-8.2606
▁주요	-8.26374
▁프로그램	-8.26488
▁지지	-8.26624
론	-8.26652
▁번째	-8.2682
▁여	-8.26859
▁유럽	-8.27309
▁않고	-8.27329
▁점	-8.27359
▁생각	-8.27437
▁총	-8.27464
▁스	-8.27503
▁앞	-8.27578
▁판매	-8.27641
데	-8.27777
이었다	-8.28217
▁발표했다	-8.28243
워	-8.28254
되어	-8.28324
▁않는다	-8.28367
▁the	-8.28388
▁지금	-8.2842
▁오전	-8.28565
력	-8.28635
▁차량	-8.28705
▁미국의	-8.28869
▁하지	-8.29038
점	-8.29338
한다고	-8.29913
▁오후	-8.30002
▁심	-8.30273
▁선	-8.30292
u	-8.30527
▁대의원	-8.30529
o	-8.30543
년	-8.30618
▁나는	-8.31102
▁w	-8.31191
▁시장	-8.3129
t	-8.31355
되고	-8.31596
▁양	-8.31833
▁우려	-8.31987
로부터	-8.32308
▁방문	-8.32529
▁하나	-8.32572
였	-8.32844
감	-8.32847
회	-8.32935
유	-8.33032
▁갖고	-8.3305
▁혐의로	-8.33191
▁적	-8.3344
방	-8.33659
설	-8.33717
▁차례	-8.33719
▁사용	-8.33731
▁관계자	-8.33995
▁이와	-8.34027
▁이슬람	-8.34302
▁내용	-8.34388
▁년에	-8.34565
▁보고서	-8.34568
▁어	-8.34634
d	-8.34795
▁실	-8.34939
▁년간	-8.35203
▁받은	-8.3554
피	-8.35996
버	-8.36143
터	-8.36178
▁포	-8.36449
▁안전	-8.36521
▁중요	-8.36535
▁c	-8.36571
▁이용	-8.36691
군	-8.36734
반	-8.37156
▁강조했다	-8.37189
하려	-8.37321
호	-8.37366
▁자신들	-8.37906
▁관리	-8.38344
▁올	-8.38385
▁활동	-8.38627
했지만	-8.3865
▁못했다	-8.38714
▁인해	-8.39089
▁경선	-8.39378
▁병원	-8.39388
▁관계	-8.39761
▁위험	-8.39798
씨	-8.39954
연	-8.40014
▁비난했다	-8.40382
▁개발	-8.40458
▁소	-8.40624
▁지난달	-8.40696
형	-8.40985
판	-8.41039
금	-8.41548
▁아프간	-8.41626
▁맞	-8.41731
여	-8.41832
▁감독	-8.41846
행	-8.41862
▁스페인	-8.41877
▁건물	-8.4188
▁당	-8.42036
된다	-8.42125
속	-8.42166
저	-8.42272
▁자신이	-8.42369
▁연	-8.42441
▁곳	-8.42505
▁사진	-8.42583
체	-8.42826
에따라	-8.42862
▁상태	-8.4287
▁남자	-8.429
▁위협	-8.43361
▁런던	-8.43453
▁못하	-8.4353
들과	-8.43568
▁레	-8.43669
i	-8.43674
▁않았	-8.43699
▁전쟁	-8.4397
▁앞으로	-8.44214
온	-8.44329
무	-8.4467
키	-8.44702
n	-8.44806
▁높	-8.44904
▁확보	-8.45182
▁투표	-8.45266
난	-8.45412
▁외	-8.45548
▁동	-8.45626
▁주민들	-8.46146
더	-8.46206
▁없다고	-8.46237
▁장	-8.46289
▁용의자	-8.46322
a	-8.46855
포	-8.46947
▁기자회견	-8.46971
▁개월	-8.47109
른	-8.47397
▁있어	-8.47492
▁남부	-8.47651
▁없었다	-8.47742
▁이전	-8.47885
▁s	-8.48207
▁의회	-8.48208
▁방송	-8.48235
▁특	-8.48284
▁의사	-8.48319
▁크	-8.48404
c	-8.48592
▁저	-8.48613
▁호	-8.48667
▁joins	-8.48674
▁야당	-8.48706
▁박사	-8.48717
▁입장	-8.48761
▁입	-8.48773
▁반면	-8.48833
▁벌이	-8.48884
하겠다	-8.48891
경	-8.48942
▁볼	-8.48965
▁이어	-8.4901
동	-8.49028
▁p	-8.49197
▁폭탄테러	-8.49731
출	-8.49747
▁모습	-8.49749
▁리	-8.49848
▁기록	-8.49929
▁노력	-8.50017
▁지적했	-8.50095
▁말한다	-8.5029
▁코	-8.50445
▁떨어진	-8.50622
▁그것	-8.5079
▁인근	-8.50844
심	-8.51219
▁치료	-8.51513
m	-8.51573
▁방법	-8.51765
▁폭발	-8.51817
기도	-8.51857
▁생산	-8.51928
▁베이징	-8.51943
▁대선후보	-8.51946
되지	-8.51984
발	-8.51995
▁호주	-8.52088
▁사망	-8.5216
▁좋은	-8.52609
▁변화	-8.52642
슨	-8.53165
▁조지	-8.53174
▁법원	-8.53268
▁독립	-8.53276
▁집	-8.53432
▁새	-8.53451
▁추가	-8.53455
▁비난	-8.53532
▁우주	-8.53917
▁서	-8.53952
공	-8.54021
하는데	-8.54044
량	-8.54263
통	-8.54387
릴	-8.54521
▁날	-8.54785
▁요구	-8.54903
▁치	-8.55023
▁개의	-8.5504
▁사망자	-8.55312
▁준비	-8.55334
▁혐의	-8.55348
▁노	-8.55367
▁사이	-8.55459
▁앞서	-8.55513
▁부상	-8.55803
▁회담	-8.55877
▁이탈리아	-8.56011
▁핵	-8.56199
위원회	-8.56288
▁아이들	-8.56596
했었다	-8.5663
었	-8.56632
al	-8.56681
▁범죄	-8.56736
▁가족	-8.56761
▁이름	-8.56806
▁필요	-8.57113
▁가진	-8.5723
▁증가	-8.57309
▁없	-8.5737
츠	-8.57402
▁아무	-8.5747
요	-8.57481
▁지구	-8.5772
▁열	-8.57775
▁않다	-8.58109
▁케냐	-8.5811
종	-8.58274
교	-8.58329
▁가격	-8.58611
으로부터	-8.58705
▁협상	-8.58978
▁이것	-8.58994
▁우	-8.59295
법	-8.59643
▁관할	-8.59715
▁마리	-8.60001
▁주장	-8.60057
하여	-8.60072
▁공급	-8.60251
▁지난주	-8.60263
▁이를	-8.60332
재	-8.60475
다고	-8.6059
▁공개	-8.60886
▁건강	-8.60989
박	-8.61006
▁확인	-8.61146
급	-8.61229
▁현지	-8.61251
▁타고	-8.61592
▁방	-8.61834
▁서비스	-8.62108
▁만명	-8.62193
색	-8.62212
▁북부	-8.62322
▁결국	-8.62482
▁보호	-8.6263
▁부인	-8.62652
측	-8.62713
▁않는	-8.63186
▁살해	-8.63564
▁여부	-8.63731
▁금지	-8.63978
▁상황	-8.64192
▁있지만	-8.64214
▁통	-8.64308
▁힘	-8.64671
▁폭탄	-8.64814
▁의원	-8.64843
복	-8.64914
▁여행	-8.65254
▁부족	-8.65331
▁메	-8.65432
▁이야기	-8.65444
▁행동	-8.65447
▁표	-8.65533
r	-8.65584
▁조직	-8.65629
▁보다	-8.65654
▁영향	-8.6571
▁인터뷰에서	-8.65758
품	-8.658
졌다	-8.66148
▁가능성	-8.66152
작	-8.66224
▁행사	-8.66308
▁반대	-8.66355
았다	-8.66545
▁골	-8.66801
▁디	-8.67058
임	-8.67116
▁규모	-8.67225
▁없이	-8.67419
져	-8.67642
er	-8.67661
▁아니다	-8.68096
증	-8.6829
▁빌	-8.68551
▁학교	-8.68807
날	-8.68959
류	-8.68999
▁전문가들	-8.6902
▁국민	-8.6902
▁당신	-8.69135
▁사르코지	-8.69314
▁마지막	-8.69314
▁가능성이	-8.69392
▁위해서	-8.6951
네	-8.69612
의하면	-8.69682
그	-8.69997
▁산	-8.70029
▁정책	-8.7008
▁f	-8.70114
▁과정	-8.70166
▁페	-8.70656
긴	-8.70697
▁된	-8.70793
▁알카에다	-8.70908
▁단체	-8.70991
▁법	-8.71153
▁것에	-8.71174
▁시작했다	-8.71204
▁해결	-8.71337
테	-8.71438
스트	-8.7148
▁장관	-8.71571
▁b	-8.71668
▁기자	-8.71858
▁시위대	-8.71996
▁파업	-8.7219
▁미국과	-8.72414
시켰다	-8.72493
▁죽	-8.72545
▁인용	-8.72587
하면	-8.72649
▁사망한	-8.72759
혀	-8.7278
▁발언	-8.73085
▁들어	-8.73102
▁정치적	-8.73113
▁국경	-8.73199
▁of	-8.73355
▁가지	-8.73359
▁일간	-8.73607
역	-8.7361
▁숨졌다	-8.73768
▁자유	-8.74028
▁충돌	-8.74174
▁석유	-8.74195
▁속	-8.74283
▁먹	-8.74736
▁과학자들	-8.74837
▁도로	-8.75095
▁보내	-8.75442
▁역사	-8.75474
울	-8.75734
▁통신	-8.75793
▁호텔	-8.75859
▁경	-8.75905
▁정치	-8.76411
▁결	-8.76612
▁판결	-8.76705
▁관심	-8.76708
강	-8.76751
▁합의	-8.76901
▁사태	-8.7695
▁년대	-8.77064
두	-8.77328
▁전화	-8.77467
▁짐바브웨	-8.77549
▁아시아	-8.7759
▁출신	-8.77615
개	-8.77866
▁단	-8.77921
친	-8.78298
▁to	-8.78335
▁최초	-8.78412
▁동영상	-8.78436
▁최소	-8.78445
▁제작	-8.78606
▁공항	-8.78734
▁아니라	-8.78778
결	-8.78854
▁문	-8.79079
▁출전	-8.79202
▁결혼	-8.79255
▁차베스	-8.79281
이라는	-8.79329
▁eu	-8.79394
▁본	-8.79497
b	-8.79623
▁산업	-8.79625
▁석방	-8.79752
▁팀	-8.79814
▁역	-8.7985
▁중단	-8.79939
▁다음	-8.80098
▁최대	-8.80158
생	-8.80251
▁보인다	-8.8027
▁예	-8.80417
▁생활	-8.80495
▁화재	-8.80648
▁수술	-8.8068
▁손	-8.80855
쳐	-8.80981
▁있습니다	-8.81073
분	-8.81328
▁팔	-8.81559
▁알고	-8.81567
▁건	-8.81609
베	-8.81783
▁막	-8.81907
되	-8.82045
▁발생	-8.82167
▁전체	-8.82229
▁연기	-8.82267
▁대표	-8.8274
격	-8.82805
▁인정	-8.82858
▁따라	-8.829
▁비행	-8.83073
▁눈	-8.83282
▁담	-8.833
이었	-8.83536
인들	-8.83625
민	-8.83658
▁베네수엘라	-8.83746
▁대해서	-8.83751
▁공식	-8.8378
▁친구	-8.83794
▁필요한	-8.83899
▁밤	-8.84004
▁되	-8.84018
하도록	-8.841
▁재판	-8.84192
▁만달러	-8.84681
▁아들	-8.84687
▁생	-8.84704
병	-8.84805
▁이동	-8.8491
절	-8.84914
cle	-8.8497
▁환경	-8.84997
▁돈	-8.85007
▁이유로	-8.85276
▁했	-8.85357
너	-8.85499
▁워싱턴	-8.8559
▁핵무기	-8.8559
▁특별	-8.85604
▁발사	-8.85651
두고	-8.85715
업	-8.86198
▁arti	-8.86524
▁성장	-8.86759
▁교	-8.86884
▁천	-8.86994
망	-8.87119
▁캘리포니아	-8.87354
▁선택	-8.87422
▁마련	-8.8748
▁애	-8.8775
▁어린이	-8.87816
▁d	-8.87854
▁운동	-8.87876
▁사업	-8.8792
▁성공	-8.87939
▁별	-8.88014
건	-8.88465
▁국영	-8.88507
▁루	-8.88517
함	-8.8863
▁헤	-8.8874
▁나라	-8.88802
령	-8.8888
▁하루	-8.88993
탄	-8.8901
▁비행기	-8.89023
범	-8.89058
후	-8.89135
▁여명	-8.89449
▁보안	-8.89462
하자	-8.89489
▁패	-8.89491
▁돌	-8.8951
▁프라이머리	-8.89517
▁남	-8.89928
▁이제	-8.89973
지는	-8.90027
▁미국이	-8.90233
▁유지	-8.90294
▁알려졌다	-8.90383
▁밝혀졌다	-8.90398
▁발견했다	-8.90436
▁기업	-8.90568
▁남성	-8.90585
▁유권자	-8.90819
기구	-8.90891
▁것이라는	-8.91259
▁촬영	-8.91333
▁진행	-8.91369
▁주택	-8.91375
▁거래	-8.91422
▁국민들	-8.91471
▁시신	-8.91499
▁키	-8.91572
▁총선	-8.91824
▁예상	-8.91864
▁변호사	-8.91965
▁관한	-8.91969
▁생각한다	-8.92005
입	-8.92279
▁어떻게	-8.92323
▁주지사	-8.9235
▁수단	-8.92362
▁난	-8.92363
▁지진	-8.92396
▁지역에서	-8.92396
되었다	-8.92548
약	-8.92684
각	-8.92756
회사	-8.92935
▁체포	-8.92979
▁되는	-8.9305
▁평가	-8.93159
▁불구하	-8.93242
▁게임	-8.93332
시킬	-8.9338
▁바그다드	-8.93494
▁여론조사	-8.93494
f	-8.93525
▁이유	-8.93716
음	-8.93761
▁종	-8.94092
대로	-8.941
▁찾아	-8.9414
▁현	-8.94273
▁직접	-8.94303
▁성폭행	-8.94333
▁홍콩	-8.94333
▁공동	-8.94601
▁보였다	-8.94658
▁역할	-8.94728
정부	-8.94741
▁행위	-8.9481
▁동물	-8.95048
▁친	-8.95144
▁빈	-8.95281
▁인도네시아	-8.95353
▁만원	-8.95858
▁받을	-8.95931
▁열리는	-8.96017
▁전세계	-8.96078
▁투	-8.96194
▁브라운	-8.96386
▁몸	-8.96395
▁감	-8.96398
▁기회	-8.96516
▁개인	-8.96825
▁미국은	-8.96832
▁예정	-8.96951
▁e	-8.96957
▁그런	-8.96963
k	-8.97086
편	-8.97141
▁기간	-8.97188
▁베	-8.97357
▁같이	-8.97426
▁억달러	-8.97432
▁각각	-8.97437
▁태국	-8.97456
▁인구	-8.97491
▁운영	-8.97497
▁것입니다	-8.97516
▁마을	-8.97555
▁촉구했다	-8.97568
▁사회	-8.97581
▁대통령과	-8.97671
겠다	-8.97758
▁지역에	-8.97881
▁사람이	-8.97892
하기로	-8.98097
살	-8.98345
▁플로리다	-8.98346
▁텍사스	-8.98362
ar	-8.98379
▁출연	-8.98448
▁코소보	-8.98478
▁내무부	-8.98479
▁폭력사태	-8.98481
▁대사관	-8.98498
▁법안	-8.98542
록	-8.98648
▁감소	-8.98896
▁납치	-8.99014
▁대회	-8.99174
축	-8.99221
▁주민	-8.99296
▁만에	-8.9945
메	-8.99532
▁같다	-8.99542
▁너무	-8.99543
지역	-8.99563
▁주변	-8.99604
▁작전	-8.9961
래	-8.99658
▁여자	-8.99706
▁있고	-8.99728
인한	-8.9996
▁살고	-9.00049
▁수상	-9.00096
▁알리	-9.00142
▁까지	-9.00147
▁왔다	-9.00232
▁예정이라	-9.00259
▁벌	-9.00444
플	-9.00531
▁farc	-9.00618
▁로버트	-9.00618
▁푸틴	-9.00618
▁전에	-9.00629
▁걸쳐	-9.0063
▁놓	-9.00644
▁수사	-9.00662
▁시설	-9.00875
▁병	-9.00906
▁연방	-9.00922
▁받았	-9.00941
석	-9.01122
▁해안	-9.01125
▁야	-9.01187
▁구성	-9.01586
▁신문	-9.01618
▁비디오	-9.01705
앞서	-9.019
▁요	-9.02125
▁향	-9.02285
▁토	-9.02599
▁누	-9.02789
▁소말리아	-9.02803
쉬	-9.03035
단체	-9.03036
▁발견	-9.03174
▁딸	-9.03182
▁추	-9.03232
▁지적	-9.03303
▁인간	-9.03416
▁상승	-9.03452
▁암살	-9.03725
h	-9.03744
하라	-9.03826
▁들	-9.03929
▁마약	-9.03961
▁강화	-9.04116
▁무기	-9.04142
▁항	-9.04311
▁광고	-9.0436
▁하락	-9.04414
▁잠	-9.04442
▁파리	-9.04762
겨	-9.04957
▁얼마	-9.04974
▁개최	-9.05027
▁헬기	-9.05038
▁평화	-9.05038
▁더욱	-9.0504
▁자동차	-9.05044
▁식량	-9.05054
▁선언	-9.05063
▁주말	-9.05107
▁나타났다	-9.05119
▁은행	-9.0519
▁내렸다	-9.05259
▁낮	-9.05303
해서	-9.05433
▁아니	-9.05495
▁웹사이트	-9.05701
▁아버지	-9.05736
▁la	-9.05783
▁있기	-9.05854
적이	-9.05999
렌	-9.06021
▁자살	-9.06207
▁나오	-9.06234
▁강력	-9.06261
성명에서	-9.06306
▁지도자들	-9.06318
청	-9.06404
▁항공	-9.0643
▁숨지	-9.06439
열	-9.06476
▁갈	-9.06934
▁비해	-9.07042
▁투자	-9.07164
▁폴	-9.07165
▁여객기	-9.07325
▁국제유가	-9.07325
▁언급	-9.07394
▁발생해	-9.07572
▁h	-9.07707
팀	-9.07714
▁곳에서	-9.07801
료	-9.07859
▁악	-9.07946
▁것이라	-9.08131
▁폐쇄	-9.08163
본	-9.08173
▁회의	-9.08204
▁작은	-9.08422
▁교육	-9.08487
▁사이클론	-9.08489
▁쿠바	-9.08532
▁민간인	-9.0863
▁네	-9.08661
있는	-9.08901
등	-9.08931
▁제시	-9.08944
▁아주	-9.08951
동안	-9.08998
g	-9.09152
an	-9.09233
▁드	-9.09457
▁n	-9.09465
▁일정	-9.09498
ing	-9.09543
▁밖에	-9.09564
▁가자지구	-9.09663
▁검찰	-9.09664
▁무장세력	-9.09665
▁임무	-9.09692
▁불법	-9.09718
▁병력	-9.09724
▁라이스	-9.09762
▁동부	-9.09767
▁미국에서	-9.09789
▁대화	-9.10022
로서	-9.10056
▁직원	-9.10083
▁지방	-9.10104
▁칸	-9.10166
되기	-9.10528
갈	-9.10582
▁영	-9.10586
▁국가들	-9.10764
▁흑인	-9.10854
▁브라질	-9.10854
▁캐나다	-9.10854
▁아닌	-9.10869
▁k	-9.10884
▁위기	-9.10945
▁내년	-9.11026
▁항공사	-9.11078
주의	-9.11095
▁귀	-9.11098
▁지지자들	-9.11123
▁금	-9.11308
▁바로	-9.1142
▁모델	-9.11438
층	-9.11487
▁일까지	-9.11633
▁구조	-9.11802
▁t	-9.11846
▁관리들	-9.11905
▁g	-9.11993
▁사우디	-9.12059
▁하마스	-9.12059
▁증거	-9.12072
▁다양	-9.12107
▁회장	-9.12146
▁교수	-9.1217
▁서로	-9.12288
▁벌였다	-9.12354
번	-9.12388
▁되었다	-9.124
▁고위	-9.12422
목	-9.12512
투	-9.12545
▁남편	-9.12926
▁기록했다	-9.13004
▁원인	-9.13054
▁이곳	-9.13115
언	-9.13121
▁감염	-9.1313
▁시스템	-9.13154
▁메시지	-9.13279
▁연료	-9.133
▁주둔	-9.13332
▁다리	-9.13347
▁억원	-9.13474
▁보이	-9.13697
▁버스	-9.13824
▁변호사는	-9.13907
▁가치	-9.13997
▁편	-9.14133
▁파괴	-9.14409
▁신화통신	-9.14513
▁요구했다	-9.14571
▁유일	-9.14743
▁사실이	-9.14908
▁입었다	-9.15054
▁경쟁	-9.15075
▁경고했다	-9.15136
l	-9.15152
▁길	-9.15256
▁아기	-9.15266
▁있게	-9.15327
자인	-9.15327
▁신고	-9.15424
▁음식	-9.15572
▁자살폭탄테러	-9.15765
▁비롯	-9.15766
▁대규모	-9.15769
▁요청	-9.15847
▁체포됐다	-9.16244
▁각	-9.16309
▁교회	-9.16457
▁변	-9.16756
▁사건에	-9.16849
▁com	-9.16876
▁진	-9.16883
▁암	-9.169
▁돌아	-9.16912
▁쿠르드	-9.17021
▁밝힌	-9.17028
▁네팔	-9.17032
▁증시	-9.17035
▁걸	-9.17036
▁국방부	-9.17037
▁입은	-9.17135
▁ms	-9.17171
▁소식통	-9.17266
▁아프리카	-9.17332
▁위성	-9.17522
▁경선에서	-9.17551
▁인기	-9.17666
▁훈련	-9.17673
▁앤	-9.17692
틀	-9.17721
▁제안	-9.17779
▁밝히	-9.1795
▁대신	-9.17999
▁시도	-9.18072
ch	-9.181
▁전망	-9.1814
▁받아	-9.18177
한다는	-9.18239
▁다이애나	-9.18256
▁탈레반	-9.1831
▁후세인	-9.18312
▁사망하	-9.18339
▁의견	-9.18367
▁막기	-9.18663
▁가지고	-9.18703
▁실시	-9.18704
이자	-9.1873
▁완전	-9.18792
▁만들어	-9.18813
le	-9.19078
▁도움	-9.19152
받	-9.19298
w	-9.1947
or	-9.19571
▁멕시코	-9.19609
▁스피어스	-9.1961
▁이상이	-9.19663
▁올라	-9.1974
▁자금	-9.19765
▁정당	-9.19766
▁차이	-9.1997
▁아프가니스탄	-9.20074
▁백악관	-9.20076
집	-9.2017
스타	-9.20268
▁유권자들	-9.20295
▁부부	-9.20341
▁의장	-9.20572
기로	-9.20707
▁테	-9.20766
▁서부	-9.2083
튼	-9.20856
▁반대하	-9.20891
▁따른	-9.20941
▁곧	-9.21129
써	-9.21162
▁진압	-9.21164
▁잡	-9.21181
▁부상했다	-9.21218
▁자료	-9.2123
영	-9.21388
퍼	-9.215
사를	-9.21502
▁설치	-9.21778
▁상대	-9.2178
▁장기	-9.21806
예	-9.21839
▁지나	-9.22136
▁바란다	-9.22261
준	-9.22291
▁내부	-9.22309
케	-9.22318
▁대상으로	-9.22456
▁못	-9.22487
▁것과	-9.22501
양	-9.22528
립	-9.22573
▁받지	-9.22593
▁발견됐다	-9.22638
▁거리	-9.22805
▁선고	-9.23066
▁음악	-9.23118
▁칼	-9.23121
▁없을	-9.23161
탈	-9.23178
▁달러에	-9.23182
▁맥	-9.23257
▁통과	-9.23322
별	-9.23444
▁소유	-9.23483
염	-9.23511
▁반응	-9.23626
▁야후	-9.2363
▁처리	-9.23645
▁열차	-9.23664
▁터키군	-9.23679
▁부분	-9.23774
▁신원	-9.23782
▁그러	-9.23924
졌	-9.24016
해왔다	-9.24105
▁연설	-9.242
줄	-9.24258
▁수치	-9.24498
추	-9.24825
▁작업	-9.24883
▁학생	-9.24895
▁쓰	-9.24934
▁시상식	-9.2498
▁규정	-9.24981
▁비상사태	-9.24981
▁상당	-9.24994
되었	-9.25002
▁사퇴	-9.25005
▁문화	-9.25027
▁소재	-9.25028
▁정권	-9.25079
▁안에	-9.25079
▁책임	-9.25355
았	-9.25392
▁정상	-9.25445
▁달리	-9.25549
▁승인	-9.25757
▁장면	-9.25759
▁요구하	-9.25774
▁부상자	-9.25801
회의	-9.25889
▁만나	-9.25925
▁보여주	-9.25978
▁대가	-9.26031
▁자리	-9.26138
머	-9.26171
▁인질	-9.26313
▁협력	-9.26368
▁운행	-9.26379
▁건설	-9.26407
▁위원회	-9.2643
▁주도	-9.26455
▁해군	-9.26471
▁체	-9.2673
▁쿠	-9.27044
▁상대로	-9.27111
▁해리	-9.27127
▁몰	-9.27142
▁밝혔	-9.27291
업체	-9.2735
▁가스	-9.27365
▁경고	-9.27504
▁질문	-9.27514
태	-9.27529
이러	-9.27535
율	-9.27666
렸다	-9.27672
링	-9.27719
▁국무부	-9.27777
▁심각한	-9.27777
▁마이클	-9.27777
▁무가베	-9.27778
▁온라인	-9.27778
▁미사일	-9.27778
▁트럭	-9.27778
▁어느	-9.27799
▁부근	-9.27825
▁사형	-9.27902
▁차드	-9.28141
▁탄	-9.28152
▁적어	-9.28247
▁카운티	-9.28257
▁회	-9.28275
▁수입	-9.28277
▁참석	-9.28385
▁폭력	-9.28716
▁가정	-9.28786
▁유로	-9.28824
▁기사	-9.28862
▁후에	-9.29064
자들이	-9.29105
▁관	-9.29135
낼	-9.29205
▁ppp	-9.29205
▁다쳤다	-9.29205
▁민주주의	-9.29206
▁사무총장	-9.29206
▁여름	-9.2922
▁인권	-9.29261
커	-9.29275
▁위반	-9.29312
▁선수	-9.29363
▁나무	-9.29397
▁인상	-9.29451
리아	-9.29566
▁기대	-9.2976
▁온	-9.29845
▁년까지	-9.29887
▁사람들에게	-9.2999
거리	-9.30112
지르	-9.30133
▁논의	-9.30218
▁검사	-9.30425
▁실종	-9.30492
▁충분	-9.30618
▁이밖에	-9.30655
▁다음달	-9.30667
▁국제사회	-9.30669
근	-9.30746
다면	-9.30924
▁폭	-9.30961
▁배치	-9.311
▁모르	-9.31136
으로서	-9.31274
자가	-9.31443
▁갖	-9.31606
▁장소	-9.31617
▁경찰에	-9.31902
▁펜실베이니아	-9.31975
입니다	-9.3201
▁세르비아	-9.32092
▁내려	-9.32115
혈	-9.32124
▁잉글랜드	-9.32125
▁화요일	-9.32125
▁합의했다	-9.32197
▁거대	-9.32211
▁약속	-9.32212
▁허	-9.32251
▁오른	-9.32296
▁발표한	-9.32375
지도	-9.32654
▁빠	-9.32655
▁존스	-9.32732
▁시즌	-9.32748
▁해외	-9.32807
시키는	-9.32846
▁주재	-9.33091
외	-9.33154
▁목적	-9.33313
▁나이	-9.33321
▁모른다	-9.3362
합니다	-9.33644
▁철수	-9.33686
▁필요하다	-9.33693
▁적용	-9.33715
▁노조	-9.33799
▁지명	-9.33817
▁받는	-9.3386
▁브	-9.33877
수지	-9.33965
▁개선	-9.3397
▁사건이	-9.34016
▁급	-9.34047
▁참여	-9.34139
▁능력	-9.34181
▁창	-9.34187
v	-9.34228
▁유명	-9.34413
▁환자	-9.34615
▁주민들이	-9.34822
리스	-9.34867
▁추정	-9.34984
▁월에	-9.35072
힌	-9.35132
▁않아	-9.35133
▁최종	-9.35133
▁샤리프	-9.35133
▁혼란	-9.35134
▁경험	-9.3514
▁소송	-9.35143
▁수천명	-9.3516
▁선수들	-9.35264
엔	-9.35358
▁나왔다	-9.35374
▁인수	-9.35377
초	-9.35479
▁제한	-9.3549
▁참가	-9.35809
▁발견된	-9.35833
▁머리	-9.35894
되면	-9.35965
▁목표	-9.36012
▁회복	-9.36054
▁아내	-9.36466
션	-9.3658
▁교황	-9.36664
▁fbi	-9.36671
▁방글라데시	-9.36671
▁나타나	-9.36672
▁뛰어	-9.36672
▁접근	-9.36678
▁경기에서	-9.36682
▁수백명	-9.3669
▁파견	-9.36695
▁알려진	-9.36707
▁학생들	-9.36763
렸	-9.36951
▁보냈다	-9.37002
▁캐	-9.37175
▁실시된	-9.37226
▁김	-9.37394
▁거주하	-9.37523
▁통제	-9.37641
있다	-9.37687
▁그리스	-9.37711
▁여성들	-9.37827
▁직원들	-9.38107
▁가족들	-9.38148
▁금융	-9.38233
▁넘어	-9.38234
▁데이비드	-9.38234
▁어머니	-9.38234
▁시아파	-9.38235
▁계약	-9.38236
▁고양이	-9.38243
▁질병	-9.38247
▁and	-9.38248
▁구매	-9.38269
▁누구	-9.38274
▁밀	-9.38326
▁오래	-9.38344
▁과거	-9.38372
▁유세	-9.38393
re	-9.3846
▁로마	-9.38585
▁교통	-9.38652
▁때문	-9.38657
▁고용	-9.38765
센터	-9.38768
습니다	-9.38819
시키고	-9.38841
▁왕자	-9.3897
스러	-9.38997
▁사는	-9.38999
▁수출	-9.3909
술	-9.39168
is	-9.39182
▁높다	-9.39223
▁입고	-9.3929
▁선출	-9.39375
▁설명	-9.39471
▁체포했다	-9.39485
시키	-9.39526
당국	-9.39644
▁제공	-9.3976
농	-9.39787
▁평균	-9.39794
▁종교	-9.39814
▁나머지	-9.39822
▁이집트	-9.39822
▁배럴	-9.39836
▁나타냈다	-9.39886
▁나온	-9.39981
▁안정	-9.40017
▁상황이	-9.40071
▁섬	-9.4032
▁책	-9.40357
▁자국	-9.40384
▁사이에	-9.40457
▁살인	-9.40458
▁인물	-9.40789
▁배우	-9.41054
▁제품	-9.41221
st	-9.4126
착	-9.41331
ra	-9.41349
▁허가	-9.41349
▁성화봉송	-9.41373
▁독	-9.41417
▁넘는	-9.41434
▁탁신	-9.41435
▁직후	-9.41436
▁우승	-9.41444
▁공연	-9.41524
▁때까지	-9.41537
▁아마	-9.41546
▁전국	-9.41564
▁성화	-9.41663
담	-9.41676
항	-9.41695
▁시간이	-9.41778
▁시민들	-9.41814
매	-9.41951
▁포인트	-9.41973
▁여성이	-9.41989
광	-9.41996
▁선포	-9.42047
레이	-9.42212
▁저지	-9.42275
까	-9.42312
▁숨	-9.42359
in	-9.42414
림	-9.42478
▁권	-9.42499
▁판사	-9.42532
▁클린턴이	-9.42552
▁이곳에서	-9.42601
▁지지자	-9.42733
▁콘	-9.42741
▁대사	-9.42958
▁정부군	-9.42983
봉	-9.42992
▁발생했	-9.43034
▁올랐다	-9.43073
▁이끄는	-9.43073
▁접촉	-9.43076
▁바이러스	-9.43076
▁로켓	-9.43079
▁긴장	-9.43119
▁뉴스	-9.43239
▁밝혀지	-9.43303
▁키스	-9.43375
▁심장	-9.4347
▁에너지	-9.43565
독	-9.43582
▁전망이	-9.43643
▁동료	-9.43697
▁주간	-9.43757
▁들고	-9.43774
애	-9.43799
▁감시	-9.43819
쿠	-9.43857
▁j	-9.43886
▁평	-9.44184
ic	-9.44235
▁관광	-9.44383
▁쉬	-9.44388
▁문제에	-9.44436
▁in	-9.44469
▁남한	-9.44491
킨	-9.44557
▁백	-9.44623
▁내리	-9.44625
액	-9.44719
▁탑승	-9.44735
▁의미	-9.44738
▁말레이시아	-9.4474
▁싶다	-9.4474
▁헌법	-9.4474
▁왕	-9.44742
▁어려움	-9.44745
▁무장단체	-9.44752
▁빨	-9.44767
▁주장하	-9.44774
▁뿐	-9.44847
▁목	-9.44855
만이	-9.44894
▁권리	-9.44929
▁향해	-9.45039
했을	-9.45063
▁관광객들	-9.45067
▁절	-9.45124
▁박물관	-9.45148
▁수준	-9.45179
ation	-9.45347
▁집회	-9.4545
▁전시	-9.45477
표	-9.45502
손	-9.45598
북	-9.45605
볼	-9.45634
▁붕괴	-9.45782
▁만명이	-9.45838
▁미국인	-9.45961
▁제조	-9.46006
▁임	-9.46029
▁선정	-9.46052
▁결정했다	-9.46156
▁하기	-9.46237
▁사람들을	-9.46265
▁작품	-9.46352
시켜	-9.46366
▁끝에	-9.46435
▁우크라이나	-9.46435
▁얼굴	-9.46436
▁시카고	-9.46438
▁수십	-9.46453
▁구호	-9.46497
▁총격	-9.46549
▁강제	-9.46624
▁선박	-9.46627
때	-9.46633
▁발전	-9.46635
▁관해	-9.4665
▁사원	-9.46808
배	-9.46836
▁따	-9.47013
▁엘	-9.47072
페	-9.47113
▁불만	-9.47163
▁청	-9.47198
놓고	-9.4721
달	-9.47287
▁부모	-9.4732
채	-9.47362
클	-9.4739
창	-9.47402
▁수행	-9.47458
왔다	-9.47469
▁안보	-9.47491
▁커	-9.47526
▁현장	-9.47549
▁마치	-9.47595
▁용	-9.47655
성이	-9.47812
▁실패	-9.47821
랑	-9.47999
환	-9.48122
▁망명	-9.48148
몬	-9.48158
▁네덜란드	-9.48159
▁선거캠프	-9.48159
▁실험	-9.48171
▁임명	-9.48199
▁작성	-9.48219
▁화성	-9.48237
▁공군	-9.48258
▁비용	-9.48392
▁받	-9.48416
▁수익	-9.48455
▁가까	-9.4853
▁밝히지	-9.48646
▁중동	-9.48724
▁이달	-9.48747
▁불리	-9.48862
마다	-9.48977
말	-9.49069
책	-9.49069
올	-9.49142
▁확신	-9.49162
▁성인	-9.49204
▁일반	-9.4921
▁명으로	-9.49249
국가	-9.49298
▁전문	-9.4934
▁군사	-9.49471
칠	-9.49588
▁시민	-9.49614
▁삼	-9.49632
▁되고	-9.49648
충	-9.49907
▁부통령	-9.49914
▁필리핀	-9.49914
▁뇌	-9.49927
▁오픈	-9.49947
▁페르베	-9.49956
▁단계	-9.49986
▁계획이	-9.50028
▁높이	-9.50061
▁대피	-9.50061
▁얻었다	-9.50066
▁자세	-9.50086
▁보이는	-9.50128
▁세금	-9.50148
▁수감	-9.50171
▁니콜라	-9.50228
▁질문에	-9.50274
▁경찰과	-9.50313
▁철	-9.50345
▁바다	-9.50348
▁대비	-9.50386
▁전자	-9.50417
▁개국	-9.50513
▁곳이	-9.50607
▁병원에서	-9.50751
▁관계자가	-9.5077
▁for	-9.50779
▁기소	-9.50964
혼	-9.50968
숙	-9.5106
여전	-9.51091
아니라	-9.51091
▁센터	-9.51092
트리	-9.51123
▁있지	-9.51157
습	-9.51167
▁해야	-9.51259
사건	-9.51263
례	-9.51295
족	-9.51347
▁관광객	-9.51355
앙	-9.51517
it	-9.51549
▁젊은	-9.51639
움	-9.51643
째	-9.51657
느	-9.51666
▁마드리드	-9.51699
▁비슷	-9.51699
▁외곽	-9.51699
▁익명	-9.51701
▁폭풍	-9.51705
▁사무실	-9.51712
▁담배	-9.51715
▁접속	-9.51718
▁대응	-9.51731
▁진출	-9.51736
▁무장	-9.51742
▁치러진	-9.51754
▁집단	-9.51808
▁폐	-9.51845
▁경제적	-9.5186
▁일부터	-9.51904
▁착륙	-9.52216
▁확인했다	-9.52338
▁사망했	-9.52351
▁관계자들	-9.52403
▁없어	-9.52479
턴	-9.52484
▁희생자	-9.52496
▁물질	-9.526
▁l	-9.52862
▁스타	-9.5297
▁집중	-9.53169
흐	-9.53387
▁부르	-9.53388
▁오하이오	-9.53396
▁언제	-9.53436
▁팬들	-9.53448
▁보안관	-9.53514
▁나섰다	-9.53517
▁떨어져	-9.53517
▁민병대	-9.53517
▁비타민	-9.53517
▁외무장관	-9.53517
▁오딩가	-9.53518
▁엄마	-9.53519
▁대표팀	-9.53541
▁행정부	-9.53549
▁비밀	-9.53558
▁지배	-9.53574
▁권력	-9.53581
▁구입	-9.53585
▁예상된다	-9.53621
▁자체	-9.53622
▁반발	-9.53647
▁오르	-9.53671
▁임시	-9.53751
▁의심	-9.53781
들에	-9.54113
▁도움이	-9.54206
▁기지	-9.54241
▁병원에	-9.54432
변	-9.54536
취	-9.5458
빌	-9.549
랜	-9.55193
▁자녀	-9.55276
랄	-9.55357
▁겪고	-9.55369
▁출마	-9.55375
▁진입	-9.55394
▁있음	-9.55472
▁방안	-9.55512
en	-9.55586
▁양국	-9.55615
▁상원	-9.55622
▁운영하	-9.55651
▁못한	-9.5566
▁국왕	-9.55723
▁자주	-9.55812
▁주식	-9.55858
▁매일	-9.55956
▁취하	-9.56434
났다	-9.56641
▁요청했다	-9.56647
합	-9.56661
▁근	-9.5668
랜드	-9.56795
연합	-9.56857
▁이미지	-9.56865
▁연결	-9.57148
▁계속되	-9.57169
▁시대	-9.57183
곤	-9.57216
▁홍보	-9.57225
▁사이트	-9.57253
ed	-9.57255
▁확대	-9.57256
▁외국인	-9.57256
▁칠레	-9.57258
연맹	-9.57266
▁표현	-9.57272
▁공습	-9.57291
▁마음	-9.57361
▁떠나	-9.57375
▁받게	-9.57446
▁예방	-9.57477
▁되면	-9.57588
▁행	-9.57627
▁터	-9.57838
▁붙	-9.5786
▁여사	-9.57947
▁방식	-9.5806
익	-9.58104
▁전기	-9.58148
▁자연	-9.58271
▁이래	-9.58296
▁태	-9.58414
▁도착	-9.58662
글	-9.58759
함으로	-9.58851
능	-9.58911
▁척	-9.59063
▁적이	-9.59093
▁예측	-9.59119
▁국무장관	-9.59179
▁끝나	-9.59179
▁키바키	-9.59179
▁국립	-9.59191
▁기억	-9.59193
▁긴급	-9.59195
▁사과	-9.592
▁근처	-9.59235
겼다	-9.59242
▁귀국	-9.59252
씩	-9.59341
▁빠져	-9.59345
▁도중	-9.5938
▁대형	-9.59397
▁만약	-9.59411
▁제거	-9.59446
▁임기	-9.59482
▁연합	-9.59562
▁피해자	-9.59725
▁참석한	-9.59862
▁승객	-9.59869
시장	-9.59894
▁업무	-9.59908
▁수색	-9.60065
▁두고	-9.60269
▁이라크전	-9.60491
▁박	-9.60528
▁쇼	-9.60536
▁인터뷰	-9.60704
▁벤	-9.60859
한다면	-9.6087
▁황	-9.60888
▁회사들	-9.60894
엄	-9.61127
▁싱가포르	-9.6114
▁에콰도르	-9.6114
▁잘못	-9.61142
▁홍수	-9.61144
▁마이크	-9.61145
▁공장	-9.61151
인지	-9.61153
▁본선	-9.61171
▁다윈	-9.61187
시설	-9.61232
▁즐기	-9.61296
▁작가	-9.61331
▁수천	-9.61387
▁나토	-9.61402
▁제기	-9.61518
▁진정	-9.61537
▁재개	-9.61541
▁경찰관	-9.61576
▁전반	-9.61608
▁없었	-9.61614
▁항공기	-9.61621
▁정신	-9.61692
라도	-9.61751
▁일자리	-9.61936
▁목표로	-9.61999
▁희망	-9.6204
▁고통	-9.62082
▁어린이들	-9.62237
▁세기	-9.62312
▁들어가	-9.62448
대한	-9.62458
▁이용해	-9.62464
찰	-9.6248
▁담당	-9.62603
▁둔	-9.62614
▁지수	-9.62656
▁판	-9.62687
▁외국	-9.62715
▁석	-9.62716
▁공격으로	-9.62804
▁거부	-9.62889
▁전통	-9.62895
골	-9.62909
자와	-9.62912
허	-9.62965
▁현장에	-9.62972
▁대법원	-9.63077
▁논쟁	-9.6314
▁클럽	-9.63143
▁패배	-9.63156
▁사례	-9.63199
▁전투	-9.63227
▁시리아	-9.63236
▁후반	-9.63402
▁미래	-9.63443
냈다	-9.63453
▁사기	-9.63481
돌리	-9.63622
갔다	-9.63734
ma	-9.64222
▁당선	-9.64611
▁극	-9.64762
▁총선에서	-9.6488
us	-9.64946
▁소리	-9.6496
▁되지	-9.65019
엘	-9.65048
▁군인	-9.6505
▁연구소	-9.65055
욕	-9.65075
ia	-9.65113
▁프리	-9.65152
▁맺	-9.65172
▁pkk	-9.65181
▁쓰촨성	-9.65181
▁오랫동안	-9.65181
▁제임스	-9.65181
▁압박	-9.65189
▁결론	-9.65212
▁정말	-9.65222
▁판단	-9.65227
▁약간	-9.6523
▁교체	-9.65232
▁가옥	-9.65234
▁추락	-9.65241
▁숨진	-9.65265
▁상품	-9.6527
▁통치	-9.65362
▁고속도로	-9.65389
▁저장	-9.65476
▁속에	-9.65477
▁병사	-9.65623
ol	-9.65658
▁순	-9.65725
▁아니라고	-9.65743
▁올리	-9.65759
▁바라고	-9.65809
▁군부	-9.65813
▁항의	-9.65855
▁사장	-9.65907
▁가능한	-9.6591
▁r	-9.661
달하는	-9.66169
▁집행	-9.66266
▁유명한	-9.66306
로운	-9.66309
▁만일	-9.66453
▁노동	-9.66463
▁포함한	-9.66472
▁시작된	-9.66797
▁분기	-9.66926
▁국	-9.66959
침	-9.67077
률	-9.67227
슈	-9.67245
힐	-9.67264
▁달라이라마	-9.67264
씬	-9.67264
텐	-9.67264
▁처벌	-9.67266
▁운항	-9.6727
▁게이츠	-9.6727
▁스스로	-9.67271
▁로봇	-9.67272
▁구속	-9.67288
▁절반	-9.67296
▁연락	-9.6738
▁추진	-9.67387
▁장식	-9.674
▁윌리엄스	-9.6741
▁레이스	-9.67424
▁시행	-9.67501
▁신부	-9.67518
베나	-9.67547
▁기업들	-9.67668
▁실제로	-9.67681
▁승	-9.67721
▁장치	-9.67739
▁가졌다	-9.6774
▁옷	-9.67776
▁도착했다	-9.67813
이어	-9.67846
▁공공	-9.67859
▁군정	-9.67904
▁발생할	-9.68024
▁웹사이트에	-9.68143
▁시드	-9.68163
▁크기	-9.68379
▁전략	-9.68453
▁샤	-9.68997
▁시기	-9.69036
▁곳에	-9.69078
▁한다는	-9.69105
▁근무	-9.69139
장에서	-9.6919
견	-9.69261
릭	-9.69263
블	-9.69263
규	-9.69314
먼	-9.6936
▁경매	-9.69372
▁디즈니	-9.69384
시간	-9.69387
▁뉴질랜드	-9.69392
▁할리우드	-9.69392
므	-9.69392
▁도쿄	-9.69392
▁집계	-9.69392
▁국방장관	-9.69393
드리	-9.69398
▁kg	-9.69413
▁연합군	-9.69419
▁커피	-9.69423
▁검거	-9.69447
빈	-9.69456
▁사상	-9.69467
정책	-9.69562
▁동시	-9.69746
▁시내	-9.69765
▁실수	-9.69795
▁작업을	-9.69844
▁축구	-9.69846
▁개혁	-9.69862
이지만	-9.69951
▁유사	-9.69952
▁수퍼	-9.69964
▁방해	-9.7
▁한번	-9.70013
▁나가	-9.70021
lo	-9.70046
▁접	-9.70122
▁카메라	-9.70143
▁풀	-9.70184
▁벨	-9.70219
▁질	-9.70266
▁여기	-9.70338
▁단지	-9.70362
▁휴가	-9.70492
▁의원들	-9.70528
▁테러가	-9.70566
▁주일	-9.70588
▁명령	-9.70622
▁임신	-9.7077
포드	-9.70778
▁후보로	-9.70847
만에	-9.70937
▁환영	-9.71052
▁상점	-9.71066
▁위에	-9.71107
▁일어나	-9.71179
▁가격이	-9.71189
se	-9.71224
▁주가	-9.71248
▁제외	-9.71364
▁정부와	-9.71476
▁기념	-9.71499
▁확산	-9.71512
▁갑	-9.71534
▁ap	-9.71541
컵	-9.71562
▁레바논	-9.71566
싼	-9.71566
▁충격	-9.71566
▁드러났다	-9.71569
통신	-9.71573
▁고위관리	-9.71576
관계	-9.71583
▁생명	-9.71631
▁선두	-9.71634
짜리	-9.7164
현	-9.7164
▁개봉	-9.71665
▁성공했다	-9.71792
▁전투기	-9.7183
▁놀라	-9.71844
▁어린	-9.71879
조치	-9.71964
▁세트	-9.72021
스터	-9.72149
▁분쟁	-9.72215
▁사상자	-9.72295
▁걸어	-9.72358
▁가져	-9.72663
▁방문한	-9.72767
▁면	-9.72996
나갈	-9.73054
▁고든	-9.73238
▁먼	-9.7332
▁합	-9.73373
▁지지하	-9.7346
▁이전에	-9.73648
▁중에는	-9.73754
▁크리스마스	-9.7378
▁dvd	-9.73788
▁노스캐롤라이나	-9.73788
▁사령관	-9.73788
▁소프트웨어	-9.73788
쁜	-9.73788
▁스타디움	-9.73788
▁활용	-9.73789
▁루이스	-9.73795
▁남아공	-9.73799
▁갖추	-9.73803
▁법률	-9.73807
▁아파트	-9.73816
▁보여	-9.73819
▁보낸	-9.73823
▁화산	-9.73824
▁적절	-9.73851
▁센트	-9.73855
▁pc	-9.73864
▁페루	-9.73865
▁경계	-9.73878
▁개표	-9.73887
▁선물	-9.73923
▁조금	-9.73925
▁우주선	-9.73928
▁웹	-9.73937
▁등록	-9.73967
▁영상	-9.73968
▁며칠	-9.73993
▁설립	-9.74086
벌	-9.74089
샤	-9.74102
▁대중	-9.74152
기관	-9.74186
▁대만	-9.74207
▁성적	-9.74331
▁맞아	-9.74455
▁실시되	-9.74572
들도	-9.74599
▁당한	-9.74669
il	-9.7509
▁목격자들	-9.75238
▁범인	-9.75287
▁초기	-9.75344
▁알게	-9.75423
▁ba	-9.7547
▁작	-9.75622
▁심리	-9.75638
▁힘들	-9.7569
tal	-9.75716
▁글	-9.75748
▁머	-9.75858
관리	-9.75886
춘	-9.75997
윈	-9.76005
켈	-9.76044
▁지켜	-9.76058
쯤	-9.76061
▁휴대폰	-9.76062
▁민주화	-9.76062
▁움직임	-9.76064
▁결의안	-9.76064
▁복용	-9.76066
▁슈	-9.76069
▁구체적	-9.76079
▁압력	-9.76082
▁유럽연합	-9.76092
▁노래	-9.76105
▁국내	-9.7611
▁점령	-9.76125
▁소요	-9.7614
▁자격	-9.76149
▁그에게	-9.76185
▁특정	-9.76218
▁제재	-9.76224
▁비판	-9.76262
▁인사	-9.76262
막	-9.76332
낸	-9.76354
▁순간	-9.76405
on	-9.76514
▁과학	-9.76607
▁공개했다	-9.76633
▁i	-9.76793
▁가질	-9.76795
으면	-9.76907
▁되어	-9.76932
▁모양	-9.76981
▁신체	-9.77091
▁증가했다	-9.77131
▁하원	-9.77227
▁현장에서	-9.773
▁벌인	-9.77355
▁당했다	-9.77362
시아	-9.77401
▁위원장	-9.77466
▁곳으로	-9.7758
▁가능	-9.77598
▁유가	-9.7761
▁참	-9.77698
▁권고	-9.77767
것	-9.77797
전에	-9.77826
▁효과	-9.77829
▁조건	-9.77833
▁알아	-9.77874
▁전문가	-9.77907
라스	-9.78038
▁킹	-9.78056
▁cm	-9.78079
▁형	-9.78104
▁늘어	-9.78202
▁퍼	-9.78211
학자	-9.78215
▁다이아몬드	-9.78386
▁레스토랑	-9.78386
▁마쳤다	-9.78386
▁않기	-9.78386
▁예비선거	-9.78386
▁지지선언	-9.78386
▁협조	-9.78386
▁카스트로	-9.78387
▁라운드	-9.78387
▁출발	-9.78389
▁아랍	-9.78394
▁질환	-9.78397
▁맨유	-9.784
▁허용	-9.7842
▁올렸다	-9.78425
▁스위스	-9.78428
▁축하	-9.78463
누	-9.78483
▁양측	-9.78497
▁돼	-9.78507
▁돌아가	-9.78555
▁크리스	-9.78574
▁위기에	-9.78581
▁여당	-9.78603
▁목사	-9.78621
▁속에서	-9.78641
▁유죄	-9.78642
▁문서	-9.78675
밀	-9.78689
▁시위자들	-9.78731
▁말라	-9.78757
▁연구진	-9.78777
▁회원국	-9.7879
▁홀	-9.78806
해졌다	-9.78833
센	-9.78852
▁맡	-9.78943
▁보장	-9.79003
▁쥐	-9.79106
▁id	-9.79256
장관	-9.79411
▁수요	-9.79505
▁이스라엘과	-9.79557
▁마일	-9.79649
▁측	-9.79822
▁전달	-9.79896
▁경찰서	-9.80005
▁미국인들	-9.80047
▁사용하는	-9.80052
▁필	-9.80213
▁소식	-9.80328
▁내린	-9.80355
▁분야	-9.80408
▁어려	-9.80417
▁때문이	-9.80563
백	-9.80565
es	-9.80681
폰	-9.80738
빙	-9.80752
팅	-9.8076
▁아르헨티나	-9.80767
▁케네디	-9.80767
▁공산당	-9.80767
▁드라마	-9.80768
▁복제	-9.80777
▁일으키	-9.80782
▁디스크	-9.80783
▁산림	-9.80794
▁웨스트	-9.80805
▁지도부	-9.80805
있	-9.80814
▁하와이	-9.80833
▁총재	-9.80854
▁무역	-9.8087
▁피해가	-9.80893
▁만들었다	-9.80963
▁세력	-9.80967
▁가입	-9.81069
▁강도	-9.8112
▁사랑	-9.81173
▁감행	-9.81184
▁전까지	-9.8121
▁도전	-9.81215
둔	-9.81244
벨	-9.81251
악	-9.81309
▁라디오	-9.81354
▁피트	-9.81361
활동	-9.81425
톤	-9.81464
▁포기	-9.81524
▁현재까지	-9.8156
▁라이	-9.8174
▁그것이	-9.81847
▁둘	-9.82168
▁아이들이	-9.82191
▁지불	-9.82203
갔	-9.82342
▁예상했다	-9.82372
▁이라크에서	-9.82443
▁동의	-9.82582
▁티	-9.82635
▁가수	-9.8278
택	-9.82974
탁	-9.83147
▁확산되	-9.8315
▁징역	-9.83184
지역에서	-9.83199
렛	-9.83206
▁사우디아라비아	-9.83206
젠	-9.83206
훨	-9.83206
▁봉쇄	-9.83206
▁캠프	-9.83207
▁심지어	-9.83208
▁월드컵	-9.83209
▁신뢰	-9.83212
▁급등	-9.83227
▁철회	-9.83241
▁걸릴	-9.83245
▁입양	-9.83245
▁의료진	-9.8325
▁영토	-9.83273
▁핵심	-9.83279
▁고문	-9.8332
▁원유	-9.83344
▁중요하다	-9.83357
▁대결	-9.83395
▁알려지	-9.8341
▁원제	-9.83424
천	-9.83599
▁차지했다	-9.83621
▁델	-9.837
▁지점	-9.83706
총	-9.83714
▁감사	-9.83772
▁빠르	-9.838
▁인하	-9.83837
▁당신이	-9.83916
▁마시	-9.83972
▁정확한	-9.83998
▁분석	-9.84057
상태	-9.84146
▁중이라고	-9.84305
▁그린	-9.84573
▁전력	-9.84592
ne	-9.84655
산업	-9.84658
▁보이지	-9.84701
▁있는데	-9.8472
문제	-9.84772
▁군인들	-9.85033
▁소비	-9.85063
▁받기	-9.85136
▁치르	-9.85168
▁희생자들	-9.85168
▁기관	-9.85287
▁검	-9.85318
▁미군이	-9.85356
해지	-9.85391
조직	-9.85413
▁견	-9.85425
람	-9.8545
▁시위에	-9.85474
킬	-9.85559
펠	-9.85699
▁결선투표	-9.85706
▁얘기	-9.85706
▁오늘날	-9.85706
▁올메르트	-9.85706
▁정상회담	-9.85706
▁최악	-9.85706
▁매들린	-9.85707
▁분위기	-9.85708
▁스미스	-9.85708
▁득표율	-9.85709
▁격차	-9.85709
▁출시	-9.85722
▁투입	-9.8574
▁관계당국	-9.85743
▁지지율	-9.85753
▁손실	-9.85784
▁인식	-9.85866
▁사임	-9.85879
▁있는지	-9.85889
항공	-9.85891
돌	-9.85921
▁자기	-9.85928
▁이웃	-9.85978
▁꿈	-9.86099
▁있어서	-9.86127
▁지정	-9.86147
▁긴	-9.8619
▁대단	-9.86209
▁전개	-9.86296
▁지하	-9.8631
▁들었다	-9.86375
불	-9.86417
평	-9.86464
ro	-9.86517
▁인사들	-9.86759
거래	-9.86761
▁이중	-9.86762
▁해당	-9.86805
▁팬	-9.86873
▁운전	-9.86902
▁이곳에	-9.86921
려고	-9.8697
카르	-9.87113
▁진술	-9.87126
▁정확	-9.87444
▁취소	-9.87449
름	-9.87504
▁밝혀	-9.87719
▁중국에서	-9.87746
기간	-9.87845
▁슬	-9.87902
▁줄이	-9.87985
▁승리했다	-9.87995
▁교도소	-9.8804
왔	-9.88094
▁교전	-9.88096
념	-9.88109
▁펜	-9.88136
▁무엇	-9.8821
께	-9.88267
▁믿고	-9.8827
▁바르셀로나	-9.8827
▁않겠다	-9.8827
▁외무부	-9.8827
▁이뤄지	-9.8827
▁좋지	-9.8827
▁찾기	-9.8827
딘	-9.8827
▁획득	-9.8827
▁복귀	-9.88271
▁축제	-9.88282
▁면담	-9.88285
▁소녀	-9.88286
▁불참	-9.88302
▁시험	-9.88317
▁벌금	-9.88325
▁해변	-9.88329
▁집권	-9.88331
▁인류	-9.88352
▁국회	-9.88363
▁압둘라	-9.88368
▁결혼식	-9.88372
▁죽음	-9.88389
▁피터	-9.884
▁불안	-9.88408
▁거뒀다	-9.88435
▁외교	-9.8844
▁프로	-9.88492
▁것인지	-9.88493
ate	-9.88512
▁찰스	-9.88677
▁소장	-9.88711
▁느끼	-9.8874
▁유전자	-9.88756
들어	-9.88765
ir	-9.88781
▁작동	-9.88826
▁꾸	-9.88857
▁스키	-9.88889
▁못할	-9.88895
찬	-9.88958
▁이혼	-9.89119
▁외부	-9.89123
▁방향	-9.89151
▁본사	-9.89344
▁일반적	-9.89435
장에	-9.89446
▁de	-9.89598
사인	-9.89632
▁진행된	-9.89655
▁가량	-9.89705
▁바이	-9.89752
▁기자들	-9.89793
니스	-9.89814
▁놀	-9.89926
▁유리	-9.90069
▁백인	-9.90101
▁집에	-9.90134
▁용의자들	-9.90136
▁의한	-9.90139
▁방법으로	-9.90166
▁동원	-9.90226
경기	-9.90292
ha	-9.90354
▁빛	-9.90414
개발	-9.90433
원들	-9.9048
▁이주	-9.9051
et	-9.9053
▁승리한	-9.90556
▁베르	-9.90557
널	-9.90589
▁사인	-9.90715
▁윌리엄	-9.90718
웠다	-9.90719
▁아카데미	-9.90805
▁행성	-9.90877
▁스리랑카	-9.90877
싱	-9.90901
▁스포츠	-9.90902
▁얻어	-9.90902
▁인디애나	-9.90902
▁챔피언스리그	-9.90902
룬	-9.90902
▁리히터	-9.90902
▁목숨	-9.90902
▁침몰	-9.90902
▁누군가	-9.90903
▁아바스	-9.90903
▁침체	-9.90903
▁케이블	-9.90908
▁cia	-9.90934
▁속도	-9.90938
▁추방	-9.90962
▁소개	-9.90981
▁날씨	-9.90994
▁형성	-9.90996
▁나달	-9.90998
▁지목	-9.91018
▁연루	-9.91026
▁신속	-9.91037
ode	-9.91095
불어	-9.91133
▁방화	-9.91137
영화	-9.9116
▁텍사스주	-9.91197
웨이	-9.91324
▁주년	-9.91436
▁분리	-9.91486
▁이번주	-9.91493
▁마르	-9.91526
▁약물	-9.91562
▁입원	-9.91586
▁무사	-9.91631
▁실시한	-9.91694
▁다니	-9.9171
▁주위	-9.91746
▁법적	-9.91756
협회	-9.91856
▁진행되	-9.91919
폭	-9.91925
at	-9.91943
▁후보에	-9.92032
왕	-9.92049
▁총기	-9.92156
▁케	-9.92198
▁본부	-9.92362
체제	-9.92455
▁영국에서	-9.92494
▁중심	-9.92498
▁방문할	-9.925
해진	-9.92563
시킨	-9.92581
조차	-9.92612
▁의사들	-9.92615
▁술	-9.92646
레스	-9.92669
▁조정	-9.92697
▁향하	-9.92712
▁코커스	-9.92763
▁서울	-9.9283
▁근로자들	-9.92932
▁파악	-9.92958
▁포함해	-9.93005
▁휴	-9.93015
▁그룹	-9.93112
▁상징	-9.93118
▁연구원	-9.93369
▁대부분이	-9.93416
▁잔	-9.93462
▁업체	-9.93463
▁아이오와	-9.93512
▁울	-9.9352
▁스테	-9.93556
덴	-9.93561
▁걱정	-9.93605
▁남자친구	-9.93605
▁브루니	-9.93605
▁에베레스트	-9.93605
▁유나이티드	-9.93605
▁창기라이	-9.93605
▁최신	-9.93605
▁쿠데타	-9.93605
▁태어난	-9.93605
▁돌고래	-9.93605
▁블랙	-9.93605
▁테이프	-9.93606
▁와인하우스	-9.93606
▁화장실	-9.93611
▁언어	-9.93614
▁산사태	-9.93617
▁산불	-9.93624
▁검색	-9.93625
▁니	-9.93626
▁cat	-9.9363
▁탈	-9.93655
▁ht	-9.93666
▁바람	-9.93673
▁연구팀	-9.93688
▁행진	-9.93707
▁묻	-9.93789
▁우선	-9.93793
▁치안	-9.93794
▁시절	-9.93805
▁높아지	-9.93837
▁약속했다	-9.93852
▁분노	-9.93886
▁공정	-9.93896
▁평화적	-9.93932
▁이들이	-9.93957
▁위로	-9.93959
필드	-9.93986
▁지진이	-9.94082
▁레이	-9.94108
▁해제	-9.94145
▁공원	-9.94228
▁그중	-9.94288
▁치러지	-9.94306
▁그림	-9.94468
▁만든	-9.94651
▁주고	-9.9466
▁나타내	-9.94758
겠	-9.94774
철	-9.948
▁층	-9.94883
ur	-9.94886
참	-9.94912
▁깊	-9.94916
▁케이	-9.94959
j	-9.94965
▁내전	-9.94999
▁광	-9.95022
▁협회	-9.95176
▁사용할	-9.95232
▁총리와	-9.95274
▁못했	-9.95286
▁학생들이	-9.95339
▁선원	-9.95407
▁생존자	-9.95481
▁참석했다	-9.9555
▁길이	-9.95564
▁의원이	-9.95592
▁시작한	-9.95601
객	-9.95632
▁짐	-9.95701
들로	-9.95792
▁흡연	-9.95837
▁대선에서	-9.95837
▁에드	-9.95872
▁명에게	-9.95953
▁잡지	-9.95964
▁대기	-9.95974
▁프라이머리에서	-9.95988
▁음	-9.95988
퇴	-9.96151
▁us	-9.96151
▁be	-9.96228
냐	-9.96295
▁순찰	-9.96325
▁떠	-9.96342
멘	-9.96367
뜨	-9.96371
탐	-9.96377
닝	-9.96382
▁근육	-9.96382
▁무릎	-9.96382
▁북서부	-9.96382
▁에드워즈	-9.96382
▁오스트리아	-9.96382
▁출구조사	-9.96382
▁캠페인	-9.96382
▁훌륭	-9.96382
▁전당대회	-9.96382
▁크루즈	-9.96382
▁복잡	-9.96383
▁수니파	-9.96384
▁쉽게	-9.96384
▁답변	-9.96389
▁식품	-9.96401
▁마틴	-9.96404
▁주인공	-9.96404
▁asp	-9.96405
▁여왕	-9.9641
▁크리스티	-9.96428
▁야생	-9.96429
▁월까지	-9.96429
▁완화	-9.96437
▁조합	-9.96437
▁발병	-9.96473
▁신경	-9.96516
▁말한	-9.96533
▁점차	-9.96538
▁서명	-9.96561
▁언급하지	-9.96606
▁자산	-9.96616
▁통화	-9.96623
▁기반	-9.96638
▁남성이	-9.9666
▁대량	-9.96661
▁금리	-9.96794
▁사항	-9.96822
▁군대	-9.9688
▁현대	-9.96941
된다고	-9.96962
▁국장	-9.9699
량이	-9.97024
▁의식	-9.97069
다른	-9.97114
▁노동자	-9.972
▁집에서	-9.97235
▁부정	-9.97471
순	-9.97619
▁그와	-9.97638
▁ac	-9.97887
▁민	-9.98107
▁베이	-9.98117
▁마크	-9.98166
▁말하고	-9.9818
어야	-9.98222
겼	-9.98226
▁후보들	-9.98237
없이	-9.98253
▁역사적	-9.98305
운동	-9.98308
▁중부	-9.9834
▁인정했다	-9.98424
am	-9.98543
▁희생	-9.98582
▁소비자	-9.98592
▁뉴	-9.98731
▁부문	-9.98776
▁주인	-9.98958
논	-9.99142
딕	-9.99169
닥	-9.99186
꺼	-9.99231
렉	-9.99239
▁샌프란시스코	-9.99239
▁앞섰	-9.99239
▁엘리자베스	-9.99239
▁원숭이	-9.9924
▁파예드	-9.9924
▁ibm	-9.9924
▁리버풀	-9.99241
▁인터폴	-9.99241
▁에어버스	-9.99242
▁공룡	-9.99244
▁규제	-9.99246
▁빈곤	-9.9926
▁인권단체	-9.99264
▁멀	-9.99272
▁자극	-9.99273
▁오바마와	-9.99288
▁아침	-9.9932
▁마무리	-9.99345
▁연속	-9.99351
▁기준	-9.99351
▁억류	-9.99383
행위	-9.99396
▁기후	-9.994
▁법정	-9.99405
▁중앙	-9.99412
▁전면	-9.99422
▁재산	-9.99459
자기	-9.99504
▁수백	-9.99519
▁맛	-9.99562
▁기타	-9.99656
▁대처	-9.99675
▁연장	-9.99687
▁미니	-9.99709
▁움직이	-9.99758
▁절대	-9.99872
▁철도	-9.99883
자로	-9.99948
▁수집	-10.0002
▁사전	-10.0014
▁동물들	-10.0018
▁주로	-10.0018
향	-10.0021
입어	-10.0028
▁달라	-10.003
▁아일랜드	-10.0034
▁이루	-10.0064
계획	-10.0067
월	-10.0075
▁하루에	-10.0075
치고	-10.008
푸	-10.0081
▁경쟁자	-10.0084
접	-10.0086
듯	-10.0087
폐	-10.0089
칸	-10.0092
▁광산	-10.01
했습니다	-10.0109
했는지	-10.0111
학교	-10.0111
보호	-10.0114
▁색	-10.012
▁발간	-10.0121
▁기본	-10.0133
▁라이트	-10.0136
자들에게	-10.0143
스크	-10.015
▁눈에	-10.0152
▁엔	-10.0154
조사	-10.0157
▁확정	-10.0186
th	-10.019
켜	-10.0198
득	-10.0203
래서	-10.0204
▁가해	-10.0204
▁보건	-10.0208
▁제출	-10.0211
▁친구들	-10.0213
홍	-10.0217
▁frb	-10.0218
▁끝난	-10.0218
▁스티븐	-10.0218
▁온난화	-10.0218
▁육군	-10.0218
▁천연가스	-10.0218
▁허커비	-10.0218
▁출동	-10.0218
▁얼음	-10.0219
▁mdc	-10.0219
▁증상	-10.022
▁모하메드	-10.022
▁애플	-10.0222
▁건축	-10.0222
▁밀란	-10.0223
▁허락	-10.0225
▁찬성	-10.0225
▁나누	-10.0226
▁진실	-10.0226
▁수용	-10.0226
op	-10.0229
▁화면	-10.0229
▁경찰서장	-10.0229
▁소년	-10.0231
▁서방	-10.0231
▁응	-10.0233
가격	-10.0233
▁서신	-10.0236
▁지키	-10.0244
▁조명	-10.0247
▁영향력	-10.025
▁밑	-10.0251
▁무선	-10.0252
▁st	-10.0263
▁깨	-10.0264
▁자유롭	-10.0272
▁대의	-10.0272
▁뉴욕주	-10.0274
▁분명	-10.0282
▁발생하지	-10.0285
▁아부	-10.0287
▁보기	-10.0288
▁보좌관	-10.0291
진다	-10.0312
▁존재	-10.0324
▁대통령에게	-10.0328
련	-10.0332
국은	-10.0333
▁운송	-10.0344
▁목격	-10.0362
▁경기장	-10.0377
달라고	-10.0379
▁보유	-10.0383
극	-10.0389
▁목격자	-10.0392
풍	-10.0393
하려고	-10.0394
생활	-10.0397
▁한국은	-10.0417
▁사용되	-10.0432
▁대답	-10.0435
▁남동부	-10.0436
▁남북	-10.0439
▁발생하는	-10.0441
▁벽	-10.0465
▁보관	-10.0468
▁못한다	-10.0475
▁보였	-10.0476
▁법원에	-10.0496
▁악화	-10.0498
어지	-10.05
탕	-10.0504
전선	-10.0506
▁공항에서	-10.0514
▁혁명	-10.0515
▁여러분	-10.0518
딩	-10.0519
스코	-10.052
핑	-10.052
멸	-10.0521
▁궤도	-10.0521
▁떨어지	-10.0521
▁많다	-10.0521
▁베트남	-10.0521
▁북동부	-10.0521
▁활주로	-10.0521
▁덴마크	-10.0521
▁중남미	-10.0521
▁벌어진	-10.0521
▁말리키	-10.0521
▁삭제	-10.0521
▁타이틀	-10.0521
▁한반도	-10.0521
▁복구	-10.0522
▁조종사	-10.0522
▁면접	-10.0522
▁라호르	-10.0523
▁성관계	-10.0525
▁폭행	-10.0526
▁수십명	-10.0527
▁사막	-10.0528
▁요구한	-10.0528
▁의혹	-10.0529
▁체중	-10.0529
▁벗어나	-10.053
▁테러단체	-10.0531
▁항소	-10.0532
▁동반	-10.0533
▁번역	-10.0533
▁폭우	-10.0536
▁동물원	-10.0538
▁추적	-10.054
▁뿐만	-10.0546
▁사회적	-10.0547
▁소지	-10.0548
▁주목	-10.0548
▁이재민	-10.055
▁손상	-10.0554
▁조지아	-10.0554
▁방어	-10.0566
▁즐	-10.0577
▁시리즈	-10.0583
물이	-10.0583
나갔다	-10.0588
id	-10.0596
ion	-10.0601
웨	-10.061
▁해고	-10.0611
린다	-10.0616
▁시작됐다	-10.0619
▁사실상	-10.062
도시	-10.062
버렸다	-10.0626
▁런던에서	-10.0634
으려	-10.0663
리나	-10.0663
▁개월간	-10.0669
▁it	-10.0679
▁만들	-10.0682
▁오바마에	-10.0686
▁명에	-10.0686
▁re	-10.0687
▁클린턴에	-10.0689
▁만화	-10.0689
▁거두	-10.0696
▁시에	-10.07
▁찬	-10.0705
▁생물	-10.0707
혔다	-10.071
칭	-10.0711
▁사람에게	-10.0711
맨	-10.0722
▁하락했다	-10.0725
카운티	-10.0727
▁준	-10.074
▁현상	-10.074
▁장비	-10.0748
▁내용이	-10.075
▁치러	-10.076
▁항의하	-10.0761
▁근거	-10.077
▁연설에서	-10.0773
tv	-10.0791
▁매장	-10.08
럽	-10.0812
멜	-10.0821
▁사살	-10.0821
젤	-10.0828
▁마이애미	-10.0834
▁마찬가지	-10.0834
▁샌디에이고	-10.0834
▁여자친구	-10.0834
▁장례식	-10.0834
▁토네이도	-10.0834
▁헨리	-10.0834
▁흥분	-10.0834
▁nasa	-10.0834
▁쓰레기	-10.0834
▁섹스	-10.0834
▁증언	-10.0834
▁보이콧	-10.0834
▁하원의원	-10.0834
▁베컴	-10.0834
▁권한	-10.0834
▁침대	-10.0834
▁앨범	-10.0835
▁예멘	-10.0835
▁취할	-10.0836
▁관영	-10.0836
▁경호	-10.0837
▁왕실	-10.0839
▁식당	-10.0839
▁절차	-10.0839
▁보고했다	-10.0841
▁뼈	-10.0841
▁단속	-10.0843
▁조각	-10.0845
▁비율	-10.0845
▁난민	-10.0848
▁공포	-10.085
▁배출	-10.0852
▁오하이오주	-10.0855
▁클	-10.0855
▁지급	-10.0857
▁밖에서	-10.086
▁악어	-10.0862
▁요인	-10.0862
▁예를들	-10.0864
▁대체	-10.0869
▁신호	-10.0877
▁확인됐다	-10.0877
▁상황에서	-10.0878
▁자원	-10.088
▁중에	-10.0881
▁고향	-10.0884
사회	-10.0886
▁올린	-10.0895
브라	-10.09
▁비상	-10.0914
세이	-10.0924
▁해결하기	-10.0931
▁고객들	-10.0933
후드	-10.095
안에	-10.0953
수가	-10.0963
주의자	-10.0964
▁것보다	-10.0982
해줄	-10.0984
▁취해	-10.099
▁이식	-10.0991
▁숨졌	-10.0996
▁생각하고	-10.1002
드시	-10.1003
▁것이었다	-10.101
시키기	-10.1012
지수	-10.1024
▁지시	-10.1037
▁승객들	-10.1041
베이	-10.1054
섬	-10.1055
니아	-10.1057
▁년이	-10.1066
ml	-10.1068
쪽	-10.1084
▁달간	-10.1085
▁고객	-10.109
▁착용	-10.1099
▁끌어	-10.1128
▁z	-10.1137
롭	-10.1138
▁공기	-10.1139
헌	-10.1147
▁취임	-10.1153
▁장애	-10.1154
롱	-10.1156
▁기독교	-10.1156
▁마흐디	-10.1156
▁페더러	-10.1156
▁펼치	-10.1156
▁프로젝트	-10.1156
▁훼손	-10.1156
▁휴대전화	-10.1156
▁폴란드	-10.1156
▁히드로	-10.1156
▁반기문	-10.1156
▁스티브	-10.1156
▁롬니	-10.1156
▁습격	-10.1156
▁학살	-10.1157
▁쇼핑	-10.1157
▁신청	-10.1158
▁토론회	-10.1158
▁빙하	-10.1158
▁페이지	-10.1158
▁심각하	-10.1159
▁음모	-10.116
▁라덴	-10.1161
▁폭설	-10.1162
▁생긴	-10.1162
▁구조대	-10.1163
▁기능	-10.1165
▁물건	-10.1167
▁오랜	-10.1169
▁인형	-10.117
▁완	-10.1172
▁여론	-10.1173
▁대상	-10.1174
▁위하여	-10.1176
▁들어갔다	-10.1179
▁잔해	-10.118
▁북	-10.1185
▁영어	-10.1185
▁아난	-10.1187
▁백만	-10.1188
▁광장	-10.1189
▁웨	-10.1193
▁선전	-10.1194
▁비난하	-10.1197
▁환	-10.1207
▁현실	-10.121
▁조성	-10.122
▁카드	-10.1221
▁노출	-10.1221
화물	-10.1238
▁되기	-10.1239
▁전날	-10.124
▁무시	-10.1243
▁자제	-10.1247
▁환자들	-10.127
▁감지	-10.1277
마리	-10.1281
▁답	-10.1284
▁모습이	-10.1284
▁고래	-10.1297
▁전역에	-10.1298
▁세워	-10.1308
▁수반	-10.1314
▁부대	-10.1321
▁세상	-10.134
정보	-10.1351
되어야	-10.1353
▁부과	-10.1374
▁콜	-10.1381
▁갖는	-10.1383
압	-10.139
▁굴	-10.1399
귀	-10.1399
▁선거에서	-10.1408
▁해안에서	-10.1411
▁와인	-10.1419
해주	-10.1434
▁린	-10.1435
▁카페	-10.1435
▁시점	-10.1441
▁가까이	-10.1443
대회	-10.1445
▁실제	-10.1446
▁왔	-10.1452
았던	-10.1456
tion	-10.1469
▁표했다	-10.1479
효	-10.148
▁명단	-10.1486
▁그렇지	-10.149
▁맨체스터	-10.149
▁미시시피	-10.149
▁베탕쿠르	-10.149
▁왼쪽	-10.149
▁포르투갈	-10.149
▁휘발유	-10.149
겐	-10.149
▁고등학교	-10.149
▁사드르	-10.149
▁파운드	-10.149
▁타임즈	-10.149
▁완벽	-10.149
▁목소리	-10.149
▁바스라	-10.149
▁맞춰	-10.149
▁바꾸	-10.1491
▁농장	-10.1492
▁추정되	-10.1494
▁상대방	-10.1496
▁측정	-10.1497
▁금년	-10.1497
▁날개	-10.1498
▁직장	-10.1499
▁드러냈다	-10.15
▁수위	-10.1502
▁실행	-10.1504
▁공식적으로	-10.1505
▁만드는	-10.1505
▁보통	-10.1508
▁송	-10.1508
▁유발	-10.1508
▁자행	-10.1509
▁읽	-10.1512
▁화학	-10.1514
▁개입	-10.1515
▁생일	-10.1516
▁중국이	-10.1517
▁입국	-10.1518
▁불러	-10.152
▁반군이	-10.1522
▁열대	-10.1522
▁떨어졌다	-10.1523
▁극장	-10.1533
▁달린	-10.1539
▁수정	-10.1542
▁연주	-10.1543
력이	-10.1547
di	-10.1547
▁기다리고	-10.1553
▁국경지역	-10.156
▁등이	-10.1575
▁정치인	-10.1576
▁블	-10.1587
▁구성된	-10.1592
▁대치	-10.1597
▁가구	-10.1599
el	-10.1603
▁연구원들	-10.1603
▁상업	-10.1604
▁고립	-10.1605
▁풍	-10.1612
▁시작했	-10.1615
▁화	-10.1624
▁진술했다	-10.163
제를	-10.1637
▁구역	-10.1651
빠진	-10.1657
우스	-10.1661
▁전역	-10.1674
▁pa	-10.1683
네스	-10.1685
▁검토	-10.1686
▁솔	-10.1691
▁주에서	-10.1692
▁형태	-10.1693
▁건의	-10.1698
▁상원의원과	-10.1706
민주	-10.1708
▁체제	-10.171
▁중국과	-10.1715
스톤	-10.1717
▁운전자	-10.1717
▁조사에	-10.1725
요원	-10.173
델	-10.1736
▁발생하	-10.1744
뿐	-10.1751
▁보험	-10.1762
▁낸	-10.1764
▁남자들	-10.1767
▁불과	-10.1771
축구	-10.1772
▁승무원	-10.1776
▁문제로	-10.1802
▁확실	-10.1809
자료	-10.1809
▁총장	-10.1816
징	-10.1828
▁줄어들	-10.1829
업계	-10.183
▁탐사	-10.1831
▁fa	-10.1831
넬	-10.1834
▁ioc	-10.1834
▁가택연금	-10.1834
▁골키퍼	-10.1834
▁긍정적	-10.1834
▁베어스턴스	-10.1834
▁스웨덴	-10.1834
▁자선단체	-10.1834
▁주최측	-10.1834
▁쿠웨이트	-10.1834
꾼	-10.1834
햄	-10.1834
▁랭킹	-10.1834
▁요르단	-10.1834
▁겨울	-10.1835
▁품목	-10.1835
▁증명	-10.1835
▁지붕	-10.1835
▁새끼	-10.1836
▁침해	-10.1836
▁대선주자	-10.1836
비아	-10.1836
▁단순	-10.1836
▁통합	-10.1838
▁선거운동	-10.1838
▁행복	-10.1838
▁머물	-10.1839
▁돌입	-10.1839
▁세포	-10.1841
▁방법이	-10.1843
▁자본	-10.1844
▁접전	-10.1844
▁입증	-10.1844
▁간단	-10.1848
▁분열	-10.1849
▁김치	-10.1849
▁진화	-10.1849
▁장군	-10.185
▁보복	-10.1851
▁물체	-10.1853
▁경보	-10.1853
one	-10.1853
▁대학교	-10.1856
▁의료	-10.1857
▁생각했다	-10.186
▁했었다	-10.186
▁as	-10.1865
▁참석하	-10.1873
▁만들어진	-10.1879
▁소수	-10.1885
▁이사	-10.1893
▁유치	-10.1894
▁주연	-10.1899
ke	-10.19
na	-10.1901
▁일본에서	-10.1905
▁수배	-10.1907
▁태도	-10.1909
▁지속	-10.1916
포트	-10.1919
▁상승했다	-10.1921
▁살아	-10.1928
▁차전	-10.193
▁나와	-10.1937
▁됐	-10.1946
▁편지	-10.1952
▁이틀	-10.1964
▁못해	-10.1969
었습니다	-10.1977
▁un	-10.1983
▁논란이	-10.2009
▁그대로	-10.2017
▁요원	-10.2021
스키	-10.2033
▁정부에	-10.2037
▁장면이	-10.2037
▁정신적	-10.2041
원인	-10.2065
시대	-10.2069
▁피해자들	-10.2076
▁농민들	-10.2081
어져	-10.2082
대표	-10.2093
비치	-10.2094
▁의도	-10.2096
▁센	-10.2103
▁자택	-10.2112
▁이루어	-10.2127
▁에어	-10.2163
▁행사에	-10.2167
▁시기에	-10.2176
▁at	-10.2178
▁버지니아	-10.2182
▁곡	-10.2185
▁공격에	-10.2186
쪽으로	-10.2187
▁태양	-10.2189
▁지휘	-10.219
롤	-10.2191
짝	-10.2191
▁uefa	-10.2191
▁그루지아	-10.2191
▁쇠고기	-10.2191
▁자르다리	-10.2191
▁케르비엘	-10.2191
▁nato	-10.2191
▁선관위	-10.2191
▁혜택	-10.2191
▁남서부	-10.2192
▁좌석	-10.2192
▁세계대전	-10.2192
▁치열한	-10.2192
▁잇따	-10.2192
▁천주교	-10.2192
▁출석	-10.2192
▁대다수	-10.2192
▁송환	-10.2192
▁다니엘	-10.2192
▁복원	-10.2193
▁레알	-10.2193
▁가벼	-10.2193
ment	-10.2193
▁모기지	-10.2194
▁해결책	-10.2195
▁예술	-10.2195
▁진영	-10.2195
▁급증	-10.2196
▁원자로	-10.2196
▁임금	-10.2197
▁폭동	-10.2197
▁소행성	-10.2199
▁쓰러	-10.2201
▁보석	-10.2201
▁수백만	-10.2202
▁무료	-10.2203
▁돌아오	-10.2204
▁확실히	-10.2204
▁인종	-10.2204
▁분명히	-10.2206
▁가득	-10.2207
▁도입	-10.2207
▁포터	-10.2207
승	-10.2209
▁상공	-10.2209
▁아니었다	-10.221
▁카터	-10.221
▁요소	-10.2214
▁키우	-10.222
▁거래됐다	-10.2229
▁일으	-10.2231
▁포함돼	-10.2231
스타인	-10.2233
▁mo	-10.2235
▁주기	-10.2236
국장	-10.2238
▁폐기	-10.2238
ta	-10.2239
▁개방	-10.2241
▁씨	-10.2241
▁입수	-10.2242
▁이론	-10.2242
▁제보	-10.2254
▁푸	-10.2255
▁걸린	-10.2255
▁테러범	-10.2259
▁특사	-10.2268
▁의문	-10.2272
▁실종됐다	-10.2272
▁차지	-10.2281
▁전통적	-10.2286
▁앞에	-10.2292
▁즉각적	-10.2296
▁요리	-10.2302
▁받는다	-10.2309
▁수석	-10.2311
▁발언에	-10.2317
▁묘사	-10.2334
▁생각하는	-10.2336
▁주제	-10.235
▁기구	-10.2352
▁화재로	-10.2358
▁경기에	-10.2399
▁시장에서	-10.2403
ow	-10.2409
▁주는	-10.241
학자들	-10.2431
▁거절	-10.2433
▁폭탄이	-10.2444
타르	-10.2452
▁국적	-10.2461
▁시청	-10.2471
▁장악	-10.2471
▁지시했다	-10.2472
놓	-10.2475
▁구조대원들	-10.2478
웠	-10.2482
▁대회에서	-10.2485
져야	-10.2491
▁벌였	-10.2493
▁전사	-10.2494
혹	-10.2495
▁좋아	-10.2498
▁바그다드에서	-10.2498
균	-10.2498
▁실망	-10.2507
값	-10.2511
▁봤다	-10.2512
대학	-10.2513
완	-10.2514
응	-10.2514
칼	-10.2515
▁강타	-10.2519
리오	-10.2527
니다	-10.2527
▁아래	-10.2528
▁감염된	-10.253
험	-10.2533
▁부리	-10.2538
사항	-10.2538
▁편의	-10.2542
▁뉴햄프셔	-10.2552
▁세대	-10.2558
▁국가비상사태	-10.2561
럭	-10.2561
▁뮤지컬	-10.2562
▁블라디미	-10.2562
▁샤라포바	-10.2562
▁아메리칸	-10.2562
▁줄리아니	-10.2562
▁퍼센트	-10.2562
▁펼쳤다	-10.2562
▁사우스캐롤라이나	-10.2562
▁받아들일	-10.2562
▁활약	-10.2562
▁엄청	-10.2562
▁일요일	-10.2562
▁일으킨	-10.2563
▁슈퍼	-10.2563
▁상하이	-10.2563
경찰	-10.2563
▁여학생	-10.2564
▁평양	-10.2564
▁소련	-10.2565
▁노벨	-10.2565
▁영양	-10.2565
▁연행	-10.2566
▁순방	-10.2566
▁감축	-10.2567
▁타밀	-10.2568
어질	-10.2568
▁종류	-10.2569
▁경매에	-10.2569
▁플레이어	-10.257
▁쓸	-10.2571
▁불편	-10.2574
▁파병	-10.2575
▁음성	-10.2576
▁미첼	-10.2576
▁벨기에	-10.2576
▁진단	-10.2577
▁존슨	-10.2578
▁총격전	-10.2578
▁재난	-10.2581
▁오염	-10.2583
▁기소됐다	-10.2583
▁배경	-10.2583
ce	-10.2584
▁보건부	-10.2587
▁원조	-10.259
▁상관	-10.259
돼있	-10.2591
▁공중	-10.2592
▁견해	-10.2593
▁파티	-10.2593
▁아동	-10.2596
▁화해	-10.2599
▁투어	-10.26
▁인질들	-10.2601
▁갖게	-10.2604
▁있어야	-10.2604
▁추정된다	-10.2609
▁상처	-10.261
▁혹	-10.2612
▁코트	-10.2624
됐었다	-10.2633
▁클린턴과	-10.2649
▁회원	-10.265
▁남아	-10.2655
▁킬로미터	-10.2655
▁투자자들	-10.2662
▁전복	-10.2663
▁식	-10.2663
▁수영	-10.2664
▁인근에서	-10.2673
장치	-10.2675
▁탈출	-10.2692
했기	-10.2692
부장	-10.2709
▁판사들	-10.2712
▁나서	-10.2736
▁경호원	-10.2744
▁원하는	-10.2747
▁의지	-10.275
부분	-10.2784
ig	-10.2791
▁의존	-10.2799
▁가족과	-10.2806
▁물이	-10.2814
▁선포했다	-10.2817
▁청소년	-10.2836
▁실적	-10.2841
들로부터	-10.2847
제도	-10.2851
da	-10.2851
▁싸	-10.2851
▁협상이	-10.2859
▁비용이	-10.2861
▁경영	-10.288
man	-10.2889
▁가했다	-10.2889
▁제공하는	-10.2898
▁상사	-10.2898
▁적합	-10.2906
▁그리	-10.2915
▁남편이	-10.2919
▁노동자들	-10.2931
▁결승	-10.2933
▁이에따라	-10.2935
픈	-10.2939
좌	-10.2941
럴	-10.2943
셔	-10.2943
노조	-10.2944
웅	-10.2945
▁광우병	-10.2946
▁구호물품	-10.2946
▁동티모르	-10.2946
▁인명피해	-10.2946
▁패트릭	-10.2946
▁나타난	-10.2946
턱	-10.2946
▁양키스	-10.2946
▁여겨지	-10.2947
▁월요일	-10.2947
▁ceo	-10.2947
▁엄격	-10.2947
▁다르푸르	-10.2947
▁어떠	-10.2947
▁티벳	-10.2947
▁북극	-10.2947
▁출입	-10.2947
▁일어난	-10.2947
▁핵프로그램	-10.2947
▁cbs	-10.2947
▁태풍	-10.2947
▁일주일	-10.2948
▁두바이	-10.2948
▁해리포터	-10.2948
▁새벽	-10.2948
▁dna	-10.2948
▁남극	-10.2948
▁부패	-10.2949
▁구호단체	-10.2949
▁소탕	-10.2949
▁러드	-10.295
▁성향	-10.2951
▁황금	-10.2951
▁테러조직	-10.2952
▁디자인	-10.2953
▁지도	-10.2953
▁사무	-10.2954
▁무엇보다	-10.2954
▁과격	-10.2955
▁청구	-10.2955
▁형제	-10.2956
▁승부	-10.2957
버그	-10.2958
▁인도분	-10.296
▁각국	-10.2961
▁결승전	-10.2961
▁군함	-10.2962
▁돌파	-10.2962
▁제목	-10.2964
land	-10.2964
▁분간	-10.2968
▁올라가	-10.2968
ity	-10.2974
▁늘어나	-10.2976
▁이르는	-10.2978
▁수송	-10.2981
▁안보리	-10.2984
드라	-10.2986
x	-10.2987
▁달려	-10.2993
▁방문했다	-10.2996
▁걸리	-10.2997
▁값	-10.2998
▁조사에서	-10.2999
▁모금	-10.3007
▁ai	-10.3008
더스	-10.3009
지역에	-10.3011
▁나선	-10.3023
▁실패했다	-10.3024
▁촉구하	-10.3039
▁공격이	-10.3043
▁자사	-10.3052
▁기분	-10.3054
▁전역에서	-10.3055
ti	-10.3059
▁입었	-10.3066
▁고려	-10.3072
▁기상	-10.3089
he	-10.3097
▁거주	-10.3101
▁거절했다	-10.3102
▁데이	-10.3103
▁영국인	-10.3104
아야	-10.3109
▁보수	-10.3111
▁거부했다	-10.3113
▁마비	-10.3114
▁해적들	-10.3114
me	-10.3117
▁버리	-10.3121
타운	-10.3132
▁가리	-10.3146
▁보면	-10.3147
▁보유하	-10.3153
▁알라	-10.3157
송	-10.3176
▁오브	-10.3189
타임	-10.3195
▁크레	-10.3209
스카	-10.321
▁다르	-10.3221
▁해산	-10.323
▁차량에	-10.3238
▁비교	-10.3247
자금	-10.3263
ga	-10.3269
▁니콜	-10.3273
▁여론조사에서	-10.3278
▁전원	-10.3278
▁닐	-10.3283
ft	-10.3294
잡	-10.3295
▁중재	-10.3298
▁모여	-10.3312
▁발표된	-10.3316
뉴	-10.3316
사들	-10.3317
▁압둘	-10.3331
잔	-10.3331
암	-10.3332
▁적십자	-10.3336
▁테러리스트	-10.3339
▁왕세자	-10.3341
▁불가능	-10.3343
▁이씨	-10.3345
릿	-10.3345
ight	-10.3346
넷	-10.3346
▁봉송	-10.3346
▁america	-10.3346
▁who	-10.3346
▁검문소	-10.3346
▁내무장관	-10.3346
▁네트워크	-10.3346
▁러닝메이트	-10.3346
▁사형집행	-10.3346
▁스탈린	-10.3346
▁알코올	-10.3346
▁예루살렘	-10.3346
▁유혈사태	-10.3346
닉	-10.3346
▁쏟아	-10.3346
▁오사마빈라덴	-10.3346
▁헤즈볼라	-10.3346
▁과반수	-10.3346
▁롤링	-10.3347
▁침입	-10.3347
▁교통사고	-10.3347
▁라파엘	-10.3347
▁복무	-10.3347
▁출판	-10.3347
▁택시	-10.3347
▁쉽지	-10.3347
▁대책	-10.3347
▁연쇄	-10.3348
▁계산	-10.3348
▁외교관	-10.3348
▁동굴	-10.3348
▁현지경찰	-10.3348
▁직면	-10.3349
▁nation	-10.3349
▁보존	-10.335
▁개헌안	-10.3351
▁강풍	-10.3352
▁가능하다	-10.3353
▁리비아	-10.3353
▁사생활	-10.3354
▁co	-10.3355
▁급락	-10.3356
▁통증	-10.3356
▁넓	-10.3357
▁봄	-10.3357
no	-10.3357
▁준수	-10.3357
▁우주비행사	-10.3357
▁들여	-10.3359
▁재판관	-10.336
사태	-10.336
▁신임	-10.3363
▁대항	-10.3363
▁대법원장	-10.3365
▁감정	-10.3365
▁보급	-10.3367
▁폭격기	-10.3369
▁뿐이다	-10.337
▁심문	-10.3371
▁얼마전	-10.3373
▁도난	-10.3375
리차드	-10.3375
▁신중	-10.3377
▁x	-10.3377
▁가담	-10.3378
▁내각	-10.3378
▁이스라엘군	-10.3379
▁잃었다	-10.3383
슬리	-10.3385
▁우리베	-10.3386
작전	-10.339
▁성당	-10.339
▁다루	-10.3392
▁가난한	-10.3393
기술	-10.3399
▁보호하기	-10.3401
▁지내	-10.3403
▁공개됐다	-10.3403
▁맞서	-10.3414
▁다르다	-10.3418
▁총상	-10.3421
▁달성	-10.3443
나무	-10.3448
▁약세	-10.3451
▁수립	-10.3455
▁관찰	-10.3457
▁적극적	-10.3458
▁로비	-10.3462
▁상황에	-10.347
▁다수	-10.3473
▁차지하고	-10.3478
▁막아	-10.3484
체계	-10.3496
과정	-10.3501
▁중단할	-10.3501
▁고어	-10.3513
▁수사관	-10.3516
▁세우	-10.3523
▁듯	-10.3529
▁일본은	-10.3549
▁논란	-10.3555
▁사라	-10.3559
▁노스	-10.356
▁여성들이	-10.3561
▁말했	-10.3562
▁일간지	-10.3568
▁기대한다	-10.357
▁이민	-10.3571
스턴	-10.3572
▁내에	-10.3573
▁전부터	-10.3619
▁제작사	-10.3621
▁과학자	-10.3621
▁제안했다	-10.3622
▁알바	-10.3628
▁즉각	-10.3642
▁국가에서	-10.3649
▁북부에	-10.365
▁원인이	-10.3653
▁공간	-10.3654
▁톤	-10.3658
▁생존	-10.3677
▁잡고	-10.3682
녀	-10.3698
▁예상되	-10.37
▁정상적	-10.371
▁북쪽	-10.3715
슬	-10.3722
▁하나로	-10.3726
co	-10.3727
▁일치	-10.3732
존	-10.374
▁프라	-10.374
켓	-10.3752
▁고대	-10.3759
갑	-10.3761
혜	-10.3762
떼	-10.3763
▁출산	-10.3763
▁사카쉬빌리	-10.3763
▁식료품	-10.3763
▁응답자	-10.3763
▁콜로라도	-10.3763
▁평화협상	-10.3763
밍	-10.3763
웬	-10.3763
컬	-10.3763
톱	-10.3763
▁이슬라마바드	-10.3763
큐	-10.3763
▁리조트	-10.3763
▁아이디어	-10.3763
▁오마르	-10.3763
▁파나마	-10.3763
곡	-10.3763
▁범행	-10.3764
▁졸리	-10.3764
삼	-10.3764
▁국민투표	-10.3764
▁탑승객	-10.3764
▁무렵	-10.3765
▁알려져	-10.3765
▁학대	-10.3766
▁국회의원	-10.3766
▁드러내	-10.3766
▁대륙	-10.3766
▁결정에	-10.3766
▁커플	-10.3766
▁영화배우	-10.3767
▁교환	-10.3767
▁징역형	-10.3767
as	-10.3767
▁게재	-10.3767
▁핵시설	-10.3767
▁고유가	-10.3768
헤	-10.3768
방송	-10.3768
▁토론	-10.3769
걸	-10.3769
▁둘러	-10.3769
▁맞추	-10.377
▁일리노이주	-10.377
▁지켜보	-10.3771
▁시드니	-10.3775
▁인생	-10.3775
▁성과	-10.3776
la	-10.3779
뿐만	-10.3779
시키려	-10.3779
▁발전소	-10.3779
▁물에	-10.378
▁타격	-10.3781
▁소설	-10.3783
▁돌려	-10.3784
▁받아야	-10.3784
▁어디	-10.3786
▁구출	-10.3787
▁강요	-10.3788
▁매각	-10.3789
▁숲	-10.3792
▁맥주	-10.3792
▁동결	-10.3794
▁걸렸다	-10.3794
▁것인가	-10.3796
▁스카이	-10.38
▁기여	-10.38
▁사설	-10.3804
▁한때	-10.3805
▁중독	-10.3808
▁선거관리위원회	-10.3811
▁플로리다주	-10.3816
▁리치	-10.3819
▁부위	-10.3826
▁누리	-10.3827
▁국기	-10.3829
▁지연	-10.3829
▁의무	-10.3829
▁외치	-10.3832
▁야기	-10.3832
▁승무원들	-10.3835
▁재정	-10.3836
▁용기	-10.3836
▁위안	-10.3838
▁가동	-10.3846
▁계속될	-10.3848
▁달한다	-10.3849
호가	-10.3849
▁방문해	-10.3853
▁이용하는	-10.3856
차량	-10.3858
▁예정이었다	-10.3859
▁개정	-10.3862
▁빅	-10.3865
▁이후로	-10.3867
▁꽃	-10.3868
하고자	-10.3869
▁보상	-10.3871
▁정부군과	-10.3879
국인	-10.3886
▁숙	-10.3891
▁이익	-10.3894
▁코커스에서	-10.3895
수록	-10.3902
▁칭	-10.3905
▁맨	-10.3913
▁공화국	-10.3926
▁재단	-10.3943
▁유럽의	-10.3945
▁이하	-10.3955
▁죄	-10.3957
▁주었다	-10.396
시장에서	-10.3965
▁설득	-10.3975
▁도착한	-10.3982
▁윤	-10.3983
위해	-10.3988
um	-10.3991
▁가게	-10.3997
ers	-10.3999
▁해주	-10.4001
▁있으	-10.4001
▁옮겨	-10.4012
▁무너	-10.4031
텔	-10.4046
▁연대	-10.4049
▁차지하	-10.4064
▁있다면	-10.4069
스케	-10.4074
ve	-10.4078
▁흔들	-10.4088
▁한국인	-10.4098
▁해적	-10.412
▁맡은	-10.4124
▁마감	-10.4127
▁지구에	-10.4143
▁부여	-10.4145
▁흉	-10.4154
▁국제적	-10.4156
짜	-10.4167
▁몰아	-10.4167
▁지속적	-10.4171
되자	-10.4174
업자	-10.4177
▁폭격	-10.4178
첼	-10.418
▁네바다	-10.4189
▁민간	-10.4191
촉	-10.4197
첨	-10.4198
▁국제공항	-10.4198
▁그루지야	-10.4198
▁데이빗	-10.4198
▁메드베데프	-10.4198
▁수하르토	-10.4198
▁아랍에미리트	-10.4198
▁않으면	-10.4198
▁앤더슨	-10.4198
▁유니세프	-10.4198
▁이산화탄소	-10.4198
▁일으켰다	-10.4198
▁플라스틱	-10.4198
▁히틀러	-10.4198
닷컴	-10.4198
▁넘겨	-10.4198
▁미성년자	-10.4198
▁쌍둥이	-10.4198
▁테일러	-10.4198
▁두려움	-10.4198
▁하워드	-10.4198
▁응급	-10.4198
▁라모스	-10.4198
▁북핵	-10.4198
▁객실	-10.4198
▁베를린	-10.4198
▁화이트	-10.4198
▁마사지	-10.4198
▁직업	-10.4198
▁코미디	-10.4199
▁어휘	-10.4199
▁싸움	-10.4199
▁소매	-10.4199
▁리처드슨	-10.4199
▁봉사	-10.4199
▁술집	-10.42
▁첼시	-10.42
▁벌어지	-10.42
▁보잉	-10.42
▁발굴	-10.42
▁연승	-10.4201
▁데이터	-10.4201
▁합병	-10.4201
▁경비	-10.4201
▁소득	-10.4202
▁결합	-10.4202
▁민감	-10.4202
▁서식하	-10.4203
▁승점	-10.4203
▁예약	-10.4205
▁추측	-10.4205
▁연예	-10.4206
▁구글	-10.4206
▁부탁	-10.4207
▁현금	-10.4208
남	-10.4208
▁폭파	-10.421
짓	-10.421
▁차별	-10.4211
▁이슬람교	-10.4211
답	-10.4212
▁딸이	-10.4212
▁부담	-10.4212
▁마무	-10.4212
속도로	-10.4212
필	-10.4213
니까	-10.4213
▁토마	-10.4214
▁예산	-10.4215
▁sp	-10.4216
▁극복	-10.4216
▁문구	-10.4217
▁소형	-10.4217
▁통계	-10.4218
▁도망	-10.4218
▁유도	-10.4219
▁표명	-10.4219
먹	-10.4219
척	-10.4221
펜	-10.4221
▁해임	-10.4222
팔	-10.4223
▁분류	-10.4224
▁구금	-10.4225
폴	-10.4226
▁떠났다	-10.4229
상황	-10.4233
▁호세	-10.4234
▁지출	-10.4235
▁정식	-10.4238
▁알려	-10.424
▁비교적	-10.4241
▁차질	-10.4242
▁주석	-10.4242
▁파손됐다	-10.4243
▁매체	-10.4243
▁메르	-10.4243
▁기차	-10.4244
ess	-10.4245
▁차단	-10.4249
▁클레	-10.425
▁로저	-10.425
▁캘리포니아주	-10.4251
▁주류	-10.426
버스	-10.4266
▁영국군	-10.4269
▁베리	-10.4271
▁만났다	-10.4275
러스	-10.4276
▁카페인	-10.4277
행사	-10.428
▁체포됐	-10.4282
▁시티	-10.4285
▁근거로	-10.4293
▁반지	-10.4305
▁신장	-10.4305
▁생기	-10.4321
▁초대	-10.4323
ent	-10.4333
▁아르	-10.4345
▁기본적	-10.4346
▁태평양	-10.4348
ai	-10.4351
▁거리에	-10.4355
▁급속	-10.4359
z	-10.4364
▁이름이	-10.4368
▁투쟁	-10.4369
▁수업	-10.4369
▁인근에	-10.4371
▁언론에	-10.4375
결과	-10.4376
▁문제점	-10.4376
▁해병	-10.4379
▁범인이	-10.438
내내	-10.438
▁무리	-10.4392
▁제대	-10.4408
▁열어	-10.4419
▁실종자	-10.4421
▁제공한	-10.4426
▁풀어	-10.4427
▁방지	-10.4428
▁사용된	-10.4474
▁자라	-10.4479
▁궁	-10.4512
▁함	-10.453
▁파리에서	-10.4536
해준	-10.4549
▁섭취	-10.4555
▁검은	-10.4557
▁제작한	-10.4562
▁기금	-10.4563
로써	-10.4565
▁li	-10.4577
▁인정받	-10.4588
▁중단했다	-10.4608
▁정보부	-10.4612
▁우리에게	-10.4617
▁외교적	-10.462
더라	-10.4621
▁래	-10.4631
닌	-10.4641
▁플레이	-10.4642
촌	-10.4646
둥	-10.4647
해달라	-10.4648
묘	-10.465
딜	-10.4652
▁opec	-10.4652
▁노르웨이	-10.4652
▁다우존스	-10.4652
▁많아	-10.4652
▁보여줬다	-10.4652
▁숫자	-10.4652
▁웨스트버지니아	-10.4652
▁최선	-10.4652
▁협정	-10.4652
▁호나우두	-10.4652
▁휩쓸	-10.4652
▁토요일	-10.4652
▁아스널	-10.4652
▁유조선	-10.4652
▁기번스	-10.4653
▁징후	-10.4653
▁호르타	-10.4653
▁그린피스	-10.4653
▁에이커	-10.4653
▁구멍	-10.4653
▁곳곳	-10.4654
▁화합	-10.4654
▁fda	-10.4655
▁갑작스	-10.4655
▁호송	-10.4655
▁특징	-10.4655
day	-10.4655
▁함유	-10.4655
▁부총리	-10.4656
▁환호	-10.4656
▁음반	-10.4657
▁성행위	-10.4657
▁붙여	-10.4658
▁작년	-10.4658
▁델타	-10.4659
▁변경	-10.466
▁오스카	-10.4661
▁로딕	-10.4664
▁직접적	-10.4666
▁열심	-10.4666
▁연임	-10.4667
▁해양	-10.4667
▁공약	-10.4668
▁종식	-10.4669
▁주장한	-10.4669
▁나올	-10.4669
▁상병	-10.4669
▁접수	-10.4669
▁배후	-10.467
ell	-10.4671
▁전형적	-10.4671
▁사용자들	-10.4671
▁cd	-10.4671
황	-10.4671
▁도살	-10.4671
▁발발	-10.4674
▁신도들	-10.4675
▁조작	-10.4675
▁에릭	-10.4679
▁공개된	-10.4681
▁강경	-10.4681
▁골프	-10.4683
▁초반	-10.4684
▁무력	-10.4684
▁양쪽	-10.4685
동맹	-10.4692
▁당부	-10.4697
풀	-10.4697
▁걸려있	-10.4699
시스템	-10.47
▁강세	-10.4705
▁북쪽으로	-10.4706
▁단장	-10.4706
▁내릴	-10.4706
▁소화	-10.4707
차례	-10.4708
▁알래스카	-10.471
▁폭스	-10.4713
뉴스	-10.4717
▁생산량	-10.4717
▁나오지	-10.4718
▁남부에	-10.4729
레나	-10.4731
▁무대	-10.4733
▁국민들에게	-10.4736
구조	-10.4737
▁호수	-10.4741
▁포장	-10.4743
▁기부	-10.4747
스럽게	-10.4756
▁프레	-10.4759
▁정전	-10.4765
▁착수했다	-10.477
▁칼리	-10.4777
▁바위	-10.4778
▁먹이	-10.4782
▁남성들	-10.4784
▁로한	-10.4786
▁참여하	-10.479
▁글로	-10.4797
▁미국인들이	-10.4798
▁목적으로	-10.4816
▁부서	-10.4829
▁잡아	-10.4838
▁말까지	-10.4848
▁비행사	-10.4861
라트	-10.4866
▁힘들다	-10.4867
▁납	-10.488
▁위협하	-10.4881
▁제기했다	-10.4881
▁이내	-10.4891
▁수행하	-10.4898
▁회사에	-10.49
▁십	-10.4905
▁동쪽	-10.4928
▁파키스탄에서	-10.4929
▁사용자	-10.4931
▁분만	-10.4932
▁유럽에서	-10.4942
▁고급	-10.495
▁촉구	-10.495
▁도시에서	-10.4959
▁이끌어	-10.4962
▁사용하	-10.4964
▁차량이	-10.4975
▁감독이	-10.4987
▁수감자들	-10.4991
▁일제	-10.5003
▁사태에	-10.5014
▁웃	-10.5023
▁사용했다	-10.503
우드	-10.5049
▁고려하	-10.5052
▁내놓	-10.5053
기록	-10.5055
▁참석해	-10.5056
▁동기	-10.5065
▁분명하	-10.5065
▁an	-10.5068
▁언론과	-10.5081
▁오리	-10.5083
▁주문	-10.5084
▁프레스	-10.5088
▁흥미	-10.51
▁표시	-10.5107
▁최소한	-10.511
옥	-10.5113
▁호텔에	-10.5115
▁아시아에서	-10.5118
해왔	-10.5125
죠	-10.5127
흘	-10.5128
랭	-10.5129
▁imf	-10.5129
▁wfp	-10.5129
▁광범위	-10.5129
▁노대통령	-10.5129
▁느낄	-10.5129
▁로드리게스	-10.5129
▁부정선거	-10.5129
▁스타벅스	-10.5129
▁야생동물	-10.5129
▁에드워드	-10.5129
▁오차범위	-10.5129
▁원자바오	-10.5129
▁이뤄졌다	-10.5129
▁최루탄	-10.5129
▁카리스마	-10.5129
▁프리미어리그	-10.5129
슛	-10.5129
핀	-10.5129
▁게릴라	-10.5129
▁받아들여	-10.5129
▁아칸소	-10.5129
▁페이스북	-10.5129
▁은신처	-10.5129
▁new	-10.5129
▁멸종	-10.5129
▁스트레스	-10.5129
▁호랑이	-10.5129
▁정거장	-10.5129
▁맥도날드	-10.5129
▁앤드류	-10.5129
▁abc	-10.513
▁남학생	-10.513
▁라이벌	-10.513
▁떠올	-10.513
▁실질적	-10.5131
▁귀환	-10.5132
▁핵개발	-10.5132
▁치명적	-10.5132
▁사냥	-10.5132
▁정교회	-10.5133
▁패션	-10.5133
▁예배	-10.5133
▁직전	-10.5134
▁생명체	-10.5134
▁폐기물	-10.5135
▁주식시장	-10.5135
▁참모	-10.5136
▁해병대	-10.5137
▁베네	-10.5137
▁지역사회	-10.5137
▁작용	-10.5138
▁수컷	-10.5138
▁sg	-10.5138
▁금속	-10.5139
▁소비자들	-10.5139
▁화려	-10.514
▁보안군	-10.5141
▁버지니아주	-10.5141
▁적십자사	-10.5141
▁휴일	-10.5141
▁식수	-10.5143
▁높아	-10.5143
▁방출	-10.5143
▁몰려	-10.5144
▁드러	-10.5144
▁사담	-10.5145
▁젊은이들	-10.5145
▁상승세	-10.5145
all	-10.5147
일정	-10.5147
▁교내	-10.5148
▁태우	-10.5148
▁스타일	-10.5149
▁인터	-10.5149
▁존경	-10.515
▁여자들	-10.515
▁조류	-10.5152
▁산타	-10.5153
▁예전	-10.5161
▁분량	-10.5163
▁초점	-10.5164
슬로	-10.5169
▁te	-10.5172
경제	-10.5173
▁교도소에	-10.5176
타이거	-10.5177
▁지지한다	-10.5182
▁석방됐다	-10.5185
▁특수	-10.5187
▁기계	-10.519
몰	-10.5192
▁단어	-10.5192
▁운전사	-10.5193
킹	-10.5193
▁마리아	-10.5193
닐	-10.5193
▁공안	-10.5197
벤	-10.5198
▁난사	-10.5198
폭탄	-10.5202
▁압	-10.5202
▁만날	-10.5204
▁이라크군	-10.5209
롭게	-10.5213
▁on	-10.5218
▁만난	-10.5224
▁제프	-10.5225
▁템	-10.5227
▁반전	-10.5227
▁제공할	-10.5228
▁것들	-10.523
▁필요성	-10.523
부대	-10.5233
▁선박이	-10.5235
▁대안	-10.5236
▁소식이	-10.5242
▁자택에서	-10.5243
▁앨	-10.5244
▁마감했다	-10.5244
▁상어	-10.5252
▁중요성	-10.5253
봤다	-10.5264
▁민족	-10.5267
나와즈	-10.5278
▁진행자	-10.5282
▁의회에서	-10.5282
▁만들기	-10.5284
▁만들고	-10.5303
▁사용한	-10.5305
▁달러화	-10.531
▁지상	-10.5313
▁감자	-10.5327
시위	-10.5344
▁매니저	-10.5375
▁바르	-10.538
▁시사	-10.5385
▁세인	-10.5396
▁인터넷에	-10.5412
▁명령했다	-10.543
▁조약	-10.5445
▁전하고	-10.5448
ice	-10.5454
▁나에게	-10.5455
▁증가하	-10.5457
호프	-10.546
cc	-10.5461
이라면	-10.5467
▁md	-10.5469
▁관계에	-10.5473
▁가르	-10.5476
▁사용하기	-10.5479
▁성공적	-10.5481
▁책임자	-10.5485
▁앞서있	-10.5491
▁기록했	-10.55
▁개막식	-10.5501
법원	-10.5504
ort	-10.5514
▁경선이	-10.5522
▁끼	-10.5524
▁현상이	-10.5531
▁보냈	-10.5532
▁연구에	-10.5534
▁리그	-10.5536
▁합동	-10.5537
한번	-10.5541
▁경로	-10.5547
▁관객	-10.5551
▁받으	-10.5556
▁도착했	-10.5559
▁강조	-10.557
▁병사들	-10.5572
▁내렸	-10.5583
▁정지	-10.5592
▁원한다	-10.5594
점으로	-10.5603
ca	-10.5614
▁무슬림	-10.5621
어서	-10.5621
▁이라크와	-10.5623
▁대피했다	-10.5623
▁농업	-10.5628
낙	-10.5628
▁챔피언	-10.5628
▁두번째	-10.5629
▁라우터바흐	-10.5629
▁마이크로소프트	-10.5629
▁매사추세츠	-10.5629
▁무승부	-10.5629
▁산타클로스	-10.5629
▁스튜디오	-10.5629
▁에르도간	-10.5629
▁유튜브	-10.5629
▁잭슨	-10.5629
▁켄터키	-10.5629
랩	-10.5629
춤	-10.5629
▁신용위기	-10.5629
▁클라크	-10.5629
▁호킨스	-10.5629
▁파트너	-10.5629
▁탐험	-10.5629
▁겨냥	-10.5629
▁공산주의	-10.5629
▁번호판	-10.5629
▁서브프라임	-10.5629
▁안락사	-10.5629
▁서식지	-10.5629
▁둘러싸	-10.5629
▁암컷	-10.5629
▁증권	-10.5629
▁붙잡	-10.563
▁남자아이	-10.563
▁피랍	-10.563
▁소규모	-10.563
▁발휘	-10.563
▁제재조치	-10.563
▁제이미	-10.563
▁오른쪽	-10.563
자르	-10.563
▁처방	-10.5631
▁자치구	-10.5631
▁드레스	-10.5632
▁냉	-10.5632
▁대피령	-10.5633
▁출장	-10.5633
▁면역	-10.5634
▁영업	-10.5635
▁피닉스호	-10.5636
▁치매	-10.5636
▁받아들이	-10.5636
▁풍부	-10.5637
▁건너	-10.5637
▁관여	-10.5638
혁명군	-10.5638
▁싸우	-10.5638
▁소집	-10.5639
▁상담	-10.5639
▁엔진	-10.564
▁수색작업	-10.5641
▁카를로	-10.5641
▁상영	-10.5642
▁개막	-10.5642
▁은퇴	-10.5644
▁입법	-10.5644
▁성격	-10.5646
▁공항에	-10.5647
▁체니	-10.5652
▁도달	-10.5653
▁라울	-10.5655
프레드	-10.5655
▁거쳐	-10.5655
▁멀리	-10.5658
▁공유	-10.566
▁좋아하	-10.566
▁이륙	-10.5661
▁주장했	-10.5661
▁형사	-10.5664
▁북한과	-10.5664
▁학교에서	-10.5666
▁흔	-10.5667
▁남아있다	-10.5668
▁파산	-10.5669
▁올려	-10.567
▁증가한	-10.5673
▁선보	-10.5673
▁인기가	-10.5674
▁잠시	-10.5675
▁미칠	-10.5676
검	-10.5677
▁미술	-10.5678
▁연안	-10.5681
▁프랑	-10.5682
어스	-10.5684
▁불길	-10.5685
▁정상들	-10.5686
▁전반적	-10.5686
▁쏘	-10.5687
▁준다	-10.5692
▁피부	-10.5696
▁강조하	-10.5698
▁노인	-10.5698
▁지지자들에게	-10.5703
▁담당자	-10.5704
▁살아있	-10.5705
▁천만	-10.5706
끼	-10.5708
▁청사	-10.571
덕	-10.5716
얼	-10.5717
벽	-10.5717
▁암살된	-10.5717
맥	-10.5719
▁콩고	-10.572
그룹	-10.5723
빛	-10.5723
▁어렵다	-10.5724
▁리드	-10.5725
▁보일	-10.5726
특	-10.5726
▁찾아내	-10.5727
▁돼지	-10.5727
공격	-10.5731
▁이사회	-10.5732
▁폭발물	-10.5732
콘	-10.5732
▁컨	-10.5733
▁가방	-10.5747
▁영화제	-10.5752
본부	-10.5754
▁맹	-10.5756
▁판다	-10.577
▁아내와	-10.5774
▁인적	-10.5779
사업	-10.5787
▁사망자수	-10.5789
받았다	-10.5814
▁아프간에서	-10.5837
anu	-10.5843
▁입원했다	-10.5847
▁확신한다	-10.585
▁안에서	-10.5857
▁파업이	-10.5861
ak	-10.5868
▁정치인들	-10.5871
선수	-10.5874
▁hd	-10.5881
▁책임이	-10.5883
▁선고했다	-10.5886
자리에	-10.5899
무장	-10.5924
으	-10.5924
▁방문했	-10.5931
▁사람들과	-10.5932
▁슈퍼대의원	-10.5934
▁열리	-10.5937
▁수퍼대의원	-10.5939
▁수여	-10.5939
▁집회에	-10.5955
▁수감자	-10.5963
▁의학	-10.5972
▁조기	-10.598
▁싶어	-10.5991
▁이른	-10.5992
▁처한	-10.5997
▁아들이	-10.5998
▁뉴욕에서	-10.6004
▁유전	-10.6006
▁인정하	-10.601
직원	-10.6013
▁프랑스와	-10.6021
▁갈라	-10.6026
▁so	-10.6027
▁원주민	-10.6034
▁월드	-10.6045
▁손에	-10.6054
▁동맹	-10.6075
봤	-10.6077
▁독재	-10.61
바니	-10.6101
▁출신으로	-10.6115
준다	-10.6128
활	-10.6137
▁동영상에서	-10.614
픽	-10.6152
캔	-10.6154
콤	-10.6154
곰	-10.6155
깃	-10.6155
탑	-10.6155
▁bbc	-10.6155
▁골든글로브	-10.6155
▁교착상태	-10.6155
▁나눴다	-10.6155
▁느낌	-10.6155
▁브리트니	-10.6155
▁아웅산수치	-10.6155
▁언색호	-10.6155
▁우비넨	-10.6155
▁유람선	-10.6155
▁유죄판결	-10.6155
▁이뤄진	-10.6155
▁인플레이션	-10.6155
▁자회담	-10.6155
▁캥거루	-10.6155
▁파바로티	-10.6155
▁페르난데스	-10.6155
▁협박	-10.6155
▁후진타오	-10.6155
룰	-10.6155
찌	-10.6155
▁김정일	-10.6155
▁뉴욕타임스	-10.6155
▁카르자이	-10.6155
브라이언	-10.6155
▁니케이	-10.6155
▁흐름	-10.6155
▁촉발	-10.6155
▁균형	-10.6155
▁이메일	-10.6155
▁취재	-10.6155
▁재무장관	-10.6155
▁대지진	-10.6156
▁부동산	-10.6156
▁축소	-10.6156
▁기상청	-10.6157
▁탄압	-10.6157
▁intern	-10.6157
▁관람	-10.6157
▁추천	-10.6158
▁연관	-10.6158
▁에이즈	-10.6158
▁생각하지	-10.6158
▁적응	-10.6159
▁합류	-10.6159
▁블루	-10.616
▁솔직	-10.616
▁불과하다	-10.6161
▁아이폰	-10.6161
▁나토군	-10.6161
▁기존	-10.6162
▁경영진	-10.6164
▁서양	-10.6165
▁미치는	-10.6165
▁추산했	-10.6166
▁백신	-10.6166
▁pf	-10.6167
▁헐	-10.6169
리그	-10.617
▁부채	-10.6171
▁파편	-10.6172
▁신분	-10.6174
▁초래	-10.6174
▁아담	-10.6175
▁경관	-10.6176
▁계기	-10.6177
▁관점	-10.6178
▁반박했	-10.6179
▁마친	-10.6182
▁군복	-10.6182
▁실린	-10.6184
▁공개적으로	-10.6186
▁보여준다	-10.6186
▁모술	-10.6187
슬러	-10.6188
▁사법	-10.619
▁트레	-10.619
▁도심	-10.6191
▁경쟁력	-10.6191
▁노선	-10.6191
▁기증	-10.6192
▁회수	-10.6194
▁배제	-10.6201
▁끌어들	-10.6202
▁들소	-10.6203
▁내려진	-10.6203
웃	-10.6207
▁후임	-10.6208
▁때문이라	-10.6209
▁부실	-10.621
▁상당수	-10.621
▁진행됐다	-10.6211
▁인원	-10.6211
▁다음주	-10.6212
▁조용	-10.6214
▁조선	-10.6218
▁전환	-10.6218
▁여야	-10.622
레즈	-10.622
▁정원	-10.6235
▁추구하	-10.6242
▁피해지역	-10.6243
▁시계	-10.6245
▁경영자	-10.6245
▁인민	-10.6248
틴	-10.6261
▁회담이	-10.6263
싸	-10.6266
쓰	-10.6273
▁라일	-10.6275
▁강타한	-10.6276
놀	-10.6279
▁손해	-10.6279
짐	-10.6284
연구소	-10.6285
▁스톤	-10.6289
▁근로자	-10.629
감독	-10.6291
▁감기	-10.6293
총장	-10.6296
업자들	-10.6298
▁벗	-10.6302
▁죽어	-10.6306
▁있을지	-10.6307
▁공학	-10.6307
▁전쟁에	-10.631
세포	-10.631
▁온도	-10.6318
▁테리	-10.6318
전쟁	-10.6324
▁들어있는	-10.6327
▁의미한다	-10.6331
▁중이었다	-10.6345
▁진지	-10.6346
▁시일	-10.6348
▁토지	-10.6351
▁동성애자	-10.6353
비용	-10.6369
▁주당	-10.6375
▁셀	-10.6377
▁털	-10.6388
▁정리	-10.6388
go	-10.6388
▁이해하	-10.6389
▁지불하	-10.639
▁무게	-10.6396
▁위험성	-10.6398
▁생물학	-10.6409
대사	-10.6417
▁전달했다	-10.6419
▁보인	-10.6424
▁나빠	-10.6434
▁중심가	-10.6438
▁과도	-10.6449
▁개시	-10.6462
▁자신과	-10.6463
▁나타내는	-10.6474
스티	-10.6487
민들	-10.6491
▁사용한다	-10.6516
▁유기	-10.6519
▁성공한	-10.6524
▁화가	-10.654
▁간주	-10.6559
금지	-10.6571
났	-10.6595
rs	-10.66
▁기다리	-10.6606
▁파손	-10.6621
▁이들에게	-10.6653
▁나왔	-10.6655
달아	-10.666
▁정상에	-10.6661
학생	-10.6665
▁시작됐	-10.6679
▁주지	-10.6685
르트	-10.6686
▁짓	-10.6689
▁이행	-10.6699
▁국경지역에	-10.6702
병원	-10.6703
▁출연해	-10.6703
셰	-10.6703
▁이송	-10.6705
쁘	-10.6705
첸	-10.6706
틱	-10.671
듀	-10.6711
▁bmw	-10.6711
▁nymex	-10.6711
▁usgs	-10.6711
▁겪었다	-10.6711
▁금메달	-10.6711
▁넘어섰다	-10.6711
▁뉴욕상업거래소	-10.6711
▁단백질	-10.6711
▁라크시미	-10.6711
▁마이스페이스	-10.6711
▁마호메트	-10.6711
▁믿는다	-10.6711
▁브로드웨이	-10.6711
▁선거기부금	-10.6711
▁소렌스탐	-10.6711
▁앉아	-10.6711
▁우라늄	-10.6711
▁이끌었	-10.6711
▁인디아나	-10.6711
▁재검토	-10.6711
▁짝짓기	-10.6711
▁최우선	-10.6711
▁캐릭터	-10.6711
▁코끼리	-10.6711
▁필라델피아	-10.6711
왈	-10.6711
킴	-10.6711
팩	-10.6711
헴	-10.6711
▁기준금리	-10.6711
▁나이지리아	-10.6711
▁소방대원	-10.6711
▁아테네	-10.6711
▁임산부	-10.6711
▁몸무게	-10.6711
▁시나리오	-10.6711
▁뉴욕증시	-10.6711
▁예언자	-10.6711
▁카트리나	-10.6711
▁언덕	-10.6711
▁피해여성	-10.6711
▁장난감	-10.6711
▁주유소	-10.6711
▁활발	-10.6711
▁온실가스	-10.6711
▁나이로비	-10.6711
▁퇴임	-10.6711
▁아마디네자드	-10.6711
▁흘러	-10.6711
▁개체수	-10.6711
▁메이저	-10.6711
▁흡수	-10.6711
▁촉진	-10.6711
▁순례객	-10.6711
▁거짓말	-10.6711
▁잔혹	-10.6711
▁알제리	-10.6711
▁모로코	-10.6711
▁군사작전	-10.6712
▁혜성	-10.6712
▁밝혀냈다	-10.6712
팍스	-10.6712
▁영웅	-10.6712
▁사용해	-10.6713
▁산맥	-10.6713
▁당황	-10.6714
▁화석	-10.6714
▁혼자	-10.6714
▁영변	-10.6714
미디어	-10.6714
▁쿠퍼	-10.6715
▁지휘관	-10.6715
▁기쁘	-10.6716
▁교외	-10.6716
▁노엘	-10.6716
▁식물	-10.6717
▁빠졌다	-10.6717
▁테스트	-10.6718
▁채택	-10.6719
▁당초	-10.672
▁행정	-10.672
▁창설	-10.672
▁호텔에서	-10.6721
▁광부	-10.6722
▁수용소	-10.6723
▁감금	-10.6724
▁풀려	-10.6725
▁느낀다	-10.6726
▁예선	-10.6728
▁서류	-10.6728
▁항구	-10.6729
프링	-10.6731
▁인공	-10.6732
▁들어가는	-10.6732
▁위축	-10.6734
▁인체	-10.6734
▁체결	-10.6734
▁다이애나비	-10.6735
▁물품	-10.6735
▁운동가들	-10.6736
▁호소	-10.6736
▁재활용	-10.6737
워터	-10.6737
▁게시	-10.6737
▁신발	-10.6737
▁탄소	-10.6738
▁자동	-10.6739
▁대립	-10.6739
처분	-10.6741
▁무죄	-10.6741
▁들어오	-10.6741
▁힐러리경	-10.6741
▁사람과	-10.6742
▁불행	-10.6743
▁수감됐다	-10.6744
▁소문	-10.6745
▁중순	-10.6746
▁훔	-10.6748
▁쓴	-10.675
▁시각	-10.675
▁유력	-10.6751
▁갔다	-10.6751
▁모집	-10.6751
▁임대	-10.6752
▁인력	-10.6753
▁열었다	-10.6758
▁유산	-10.6761
▁동일한	-10.6761
▁모여들	-10.6769
▁경력	-10.6771
▁아메리카	-10.6775
▁흉기	-10.6776
▁사라지	-10.6778
▁중대	-10.6781
▁식사	-10.6784
▁테러와	-10.6785
▁일어났다	-10.6789
하우스	-10.6797
▁파손되	-10.6798
▁관객들	-10.68
▁world	-10.6801
▁지위	-10.6802
▁레드	-10.6802
▁취했다	-10.6803
▁연어	-10.6812
▁분석가들	-10.6812
▁서서	-10.6814
▁저가	-10.6817
▁조국	-10.6826
▁포함됐다	-10.6826
▁아미	-10.6827
▁저자	-10.6827
▁칼라	-10.6831
▁관광지	-10.6833
▁억제	-10.6839
▁방문하	-10.6841
▁상상	-10.6844
궁	-10.6848
▁못하다	-10.6851
굴	-10.6856
▁커지	-10.6857
▁당수	-10.6859
▁높게	-10.6866
쇼	-10.6868
▁취소했다	-10.6872
▁휘	-10.6878
▁기록한	-10.6878
스텔	-10.6879
조건	-10.6887
▁기대하	-10.6889
후보	-10.6892
▁가족들과	-10.6895
검사	-10.691
▁일환	-10.692
▁데리	-10.6925
▁분석가	-10.6931
부문	-10.695
▁별도	-10.6957
▁fc	-10.6959
▁카라	-10.6961
▁주전	-10.698
▁q	-10.6983
sa	-10.6986
▁강진	-10.6991
없는	-10.6993
▁개인적	-10.7
세력	-10.701
▁맡았	-10.7011
재판소	-10.702
▁의제	-10.7021
▁깊이	-10.7029
▁해당하	-10.7033
to	-10.704
▁위치해	-10.7045
▁의자	-10.7063
▁wa	-10.7066
▁제도	-10.708
mp	-10.7081
▁완전한	-10.7086
▁진행되는	-10.7095
기금	-10.7103
▁단체들	-10.7114
▁번지	-10.7123
▁지방에서	-10.7125
▁총선에	-10.7136
ot	-10.7151
했음	-10.716
▁부정적	-10.7165
▁쓰고	-10.7166
▁기분이	-10.717
▁사용하지	-10.7175
측에	-10.7186
▁당했	-10.7188
▁어렵	-10.7189
▁얼	-10.7189
▁계속하고	-10.7194
▁펼쳐	-10.7204
ox	-10.7205
▁언급했다	-10.7215
▁이어지	-10.7219
▁만족	-10.722
쟁	-10.7225
▁가상	-10.7226
네트	-10.7227
▁전국적	-10.7256
죄로	-10.727
▁살았	-10.7275
ine	-10.7281
▁루이지애나	-10.7284
▁피닉스	-10.7291
▁벗어	-10.7293
얀	-10.7293
▁생각했	-10.7293
닫	-10.7294
▁배심원	-10.7295
흡	-10.7296
▁에티오피아	-10.7296
희	-10.7298
▁nbc	-10.7299
▁넣었다	-10.7299
▁뉴올리언스	-10.7299
▁댈러스	-10.7299
▁라왈핀디	-10.7299
▁망원경	-10.7299
▁선거캠페인	-10.7299
▁성추행	-10.7299
▁엑스파일	-10.7299
▁오토바이	-10.7299
▁위스콘신	-10.7299
▁윈프리	-10.7299
▁이뤄질	-10.7299
▁천문학자들	-10.7299
▁첫번째	-10.7299
▁캄보디아	-10.7299
▁키드먼	-10.7299
▁톰슨	-10.7299
▁펼친	-10.7299
▁항공우주국	-10.7299
▁호주오픈	-10.7299
▁흰색	-10.7299
▁블레어	-10.7299
▁세실리아	-10.7299
▁파파라치	-10.7299
▁해리왕자	-10.7299
▁산악지역	-10.7299
▁멈추	-10.7299
▁대주교	-10.7299
▁자전거	-10.7299
▁center	-10.7299
▁프리츨	-10.7299
▁경제성장	-10.7299
▁무장대원	-10.7299
▁재미있	-10.7299
▁공무원	-10.7299
▁유적지	-10.7299
▁플래	-10.7299
▁돌아다니	-10.7299
▁일어날	-10.7299
▁살아남	-10.7299
▁페라로	-10.7299
▁침수	-10.73
▁지하철	-10.73
▁본격적	-10.73
▁힌두교	-10.73
▁자리잡	-10.73
▁환율	-10.7301
▁가져올	-10.7301
▁대략	-10.7301
▁피난	-10.7301
▁환경보호	-10.7302
▁전인대	-10.7302
▁레이건	-10.7302
▁물고기	-10.7303
▁wti	-10.7303
▁성장률	-10.7303
▁종합	-10.7303
▁선거자금	-10.7303
▁금액	-10.7303
▁모아이	-10.7303
▁제조업체	-10.7304
▁연구결과	-10.7304
▁낮추	-10.7304
▁접종	-10.7304
▁불안감	-10.7305
▁부검	-10.7305
▁산책	-10.7305
▁급격	-10.7305
▁탄생	-10.7306
▁종료	-10.7306
▁표준	-10.7307
▁요격	-10.7308
▁정치범	-10.7309
▁채취	-10.7311
▁다음날	-10.7311
▁세균	-10.7312
▁지낸	-10.7313
▁테러리스트들	-10.7313
▁동생	-10.7314
▁맞았다	-10.7317
▁일반인들	-10.7317
▁낸시	-10.7317
▁필수	-10.7319
▁고조되	-10.7319
▁재건	-10.7319
▁하락세	-10.7319
▁외출	-10.732
▁성분	-10.732
▁음주	-10.7321
▁코피	-10.7323
▁우방	-10.7323
▁적발	-10.7323
▁선발	-10.7323
▁문화원	-10.7324
▁대대적	-10.7324
▁문신	-10.7325
▁밝혀진	-10.7327
▁지나가	-10.7328
▁여유	-10.7329
▁ad	-10.7329
▁약혼	-10.733
▁무슨	-10.7331
▁고안	-10.7333
▁저질렀다	-10.7333
▁구경	-10.7334
▁상호	-10.7334
▁유행	-10.7336
▁말하는	-10.7341
느냐	-10.7343
▁생성	-10.7348
리안	-10.7353
▁의석	-10.7353
디아	-10.7354
▁강전에서	-10.7356
▁동전	-10.7357
▁베어	-10.7361
▁대출	-10.7362
▁좋아한다	-10.7366
▁수상자	-10.7367
▁도디	-10.737
▁동성	-10.7371
▁sa	-10.7373
▁참가자들	-10.7374
▁문어	-10.7376
▁경사	-10.7378
▁최고치	-10.7384
▁자신감	-10.7385
▁상승한	-10.7387
▁참여했다	-10.7392
▁각자	-10.7399
age	-10.7402
ul	-10.7402
에게서	-10.7404
▁음와	-10.7405
▁중단됐다	-10.7407
▁빨간	-10.7411
▁주장한다	-10.7417
▁당선자	-10.742
레이크	-10.7421
▁폐지	-10.7423
었는지	-10.7432
▁대학생	-10.7433
▁선장	-10.7435
▁중상	-10.7436
▁정신과	-10.7437
▁클로	-10.744
▁리오	-10.744
엑스	-10.7443
▁바라는	-10.7447
▁콩	-10.7451
▁할지	-10.7457
▁대상이	-10.746
▁여진이	-10.7474
질러	-10.7475
▁방송사	-10.7478
셀	-10.7486
콜	-10.7487
▁중반	-10.7487
달러	-10.7493
투표	-10.7498
마드	-10.7507
▁테니스	-10.7507
▁분야에서	-10.7515
ly	-10.7518
▁않았던	-10.7532
범죄	-10.7533
▁증세	-10.7533
▁시도하	-10.7553
▁이양	-10.757
▁전용	-10.7574
▁맡고	-10.7577
안전	-10.7578
▁통제하	-10.7595
시킨다	-10.7595
▁개장	-10.761
라이트	-10.7611
▁소니	-10.7615
▁명단에	-10.7616
▁몽	-10.7617
▁확보해	-10.7617
▁모건	-10.7622
▁내장	-10.7623
▁누르	-10.7624
▁직원이	-10.7626
▁두려워	-10.7667
▁파기	-10.7668
▁부모들	-10.767
▁발견한	-10.7673
▁예정인	-10.768
때까지	-10.7684
▁당원	-10.7684
티드	-10.7685
지도자	-10.7693
▁동성애	-10.7694
▁백악관에서	-10.7697
▁ge	-10.7707
자마	-10.7709
벨리	-10.7709
▁보지	-10.7713
▁엘리	-10.7713
▁입지	-10.7714
▁그래	-10.7718
베르	-10.7721
▁거부한	-10.7729
▁사이트에	-10.7729
▁고발	-10.7731
▁강진이	-10.7735
▁여지	-10.774
브레	-10.7742
▁시도했	-10.7745
▁막대	-10.775
▁승인했다	-10.7773
시오	-10.7776
담당	-10.7794
ry	-10.7794
▁국왕이	-10.7804
리어	-10.7807
라드	-10.781
▁덕	-10.7815
▁문제들	-10.7833
으면서	-10.7834
▁물러	-10.7848
▁나라에서	-10.7849
하겠	-10.785
▁방문객들	-10.7854
▁유감	-10.7864
평화상	-10.7864
▁장착	-10.7886
기업	-10.7901
공사	-10.7908
▁지어	-10.791
▁애리조나	-10.7914
▁포기하	-10.7921
▁시경	-10.7922
섭	-10.7922
롬	-10.7923
▁경기후퇴	-10.7924
▁냄새	-10.7924
▁농작물	-10.7924
▁동점골	-10.7924
▁디지털	-10.7924
▁무장괴한	-10.7924
▁민주변화	-10.7924
▁박테리아	-10.7924
▁빼앗	-10.7924
▁승용차	-10.7924
▁왕복선	-10.7924
▁전자메일	-10.7924
▁최고경영자	-10.7924
▁피라미드	-10.7924
▁홈페이지	-10.7924
연방수사국	-10.7924
줘	-10.7924
▁기후변화	-10.7924
▁마라톤	-10.7924
▁목요일	-10.7924
▁재규어	-10.7924
▁총기난사	-10.7924
쉐	-10.7924
▁대서양	-10.7924
▁콘서트	-10.7924
▁타디치	-10.7924
▁낙태	-10.7924
▁로리언	-10.7924
▁격렬	-10.7924
▁다행히	-10.7924
▁타이완	-10.7924
▁마리화나	-10.7924
▁도메인	-10.7924
▁살모넬라균	-10.7924
▁두뇌	-10.7924
▁나눠	-10.7924
▁침공	-10.7924
▁이소연	-10.7924
▁합법적	-10.7924
▁출범	-10.7924
▁용납	-10.7925
▁계열	-10.7925
▁자치정부	-10.7925
▁바꿔	-10.7925
▁의약품	-10.7925
▁케빈	-10.7925
▁소방관	-10.7925
▁원칙	-10.7926
▁터널	-10.7926
▁졸업	-10.7926
▁상륙	-10.7926
▁집필	-10.7927
▁매코맥	-10.7927
▁극단주의자들	-10.7927
▁스피처	-10.7927
▁박탈	-10.7927
▁제패	-10.7928
▁보험금	-10.7928
▁소식에	-10.7929
▁교황청	-10.7929
▁시위자	-10.7929
▁불가능하다	-10.7929
▁평범	-10.7929
▁각료	-10.793
▁토양	-10.793
▁종양	-10.7931
▁메달	-10.7931
▁카불	-10.7931
▁철저	-10.7932
▁왕세자비	-10.7932
▁곡물	-10.7933
▁국방성	-10.7933
▁포착	-10.7934
▁피살	-10.7934
▁대기업	-10.7934
▁종교적	-10.7934
▁뇌물	-10.7935
▁jp	-10.7935
▁비극	-10.7935
▁이송됐다	-10.7935
▁상표	-10.7937
▁순위	-10.7937
▁중심부	-10.7937
▁창문	-10.7938
▁태어났다	-10.7938
▁오프라	-10.794
폴리스	-10.7941
▁확실하지	-10.7941
웰스	-10.7941
▁체코	-10.7942
▁폴락	-10.7942
▁암호	-10.7942
▁개념	-10.7943
▁원래	-10.7943
▁변호사들	-10.7944
▁치른	-10.7947
▁투명	-10.7947
▁지하드	-10.7947
▁대피소	-10.7948
▁추세	-10.7948
▁본토	-10.7948
▁야구	-10.7948
▁이룩	-10.7949
▁mm	-10.7952
▁대표단	-10.7953
▁회전	-10.7953
lif	-10.7953
▁화상	-10.7955
▁보았다	-10.7955
▁남미	-10.7955
▁전송	-10.7957
▁유출	-10.796
▁잡았다	-10.7961
▁선택했다	-10.7962
▁로렌	-10.7964
▁한국과	-10.7964
▁부품	-10.7967
▁붐	-10.7968
▁확정된	-10.797
▁장착된	-10.7972
▁나이트	-10.7972
▁머리에	-10.7974
▁알았다	-10.7974
▁보조	-10.7976
▁무너지	-10.7977
▁향상	-10.7979
min	-10.7982
▁출전한	-10.7985
▁상세	-10.7985
▁비유	-10.7986
▁세웠다	-10.799
ress	-10.7991
▁부상자들	-10.7994
▁잇	-10.7997
▁겸	-10.7997
▁나노	-10.8014
▁만개	-10.8015
▁숨기	-10.8021
▁자치	-10.8024
▁중앙은행	-10.8026
▁것임	-10.8033
▁불구	-10.8034
▁아프	-10.8035
▁부당	-10.8038
▁오락	-10.8042
▁웨인	-10.8049
▁애국	-10.8051
▁수습	-10.8055
▁덜	-10.8056
▁부상했	-10.8059
▁페리	-10.8059
거래소	-10.8059
▁참여할	-10.8065
▁vi	-10.8087
▁대통령직	-10.8106
▁위장	-10.8112
▁계속됐다	-10.8121
▁농민	-10.8123
▁생산하는	-10.8129
▁따르	-10.8138
국들	-10.8145
▁중국인들	-10.8146
리스트	-10.8146
려진	-10.8154
▁던지	-10.8155
새	-10.8159
▁발견됐	-10.816
전문가	-10.816
폭탄테러	-10.8161
음악	-10.8165
폭력	-10.8176
월드	-10.8176
대변인	-10.8179
생산	-10.8187
연구	-10.8193
총리	-10.8202
▁중계	-10.8202
▁미라	-10.8206
▁교사	-10.8206
▁일시적	-10.8217
▁북부지역	-10.8217
여부	-10.8222
내용	-10.8231
▁여성에게	-10.8232
▁승자	-10.8235
▁제작자	-10.824
▁제출한	-10.8248
ue	-10.8249
▁납치됐	-10.8249
▁일상적	-10.8262
▁희망한다	-10.8283
▁소비자들이	-10.8288
▁작가들	-10.8291
▁참석하기	-10.8292
▁차지했	-10.8313
▁조절	-10.8322
ib	-10.8326
▁기소했다	-10.8344
▁동료들	-10.8347
▁아프가니스탄에서	-10.8349
▁거리에서	-10.8372
▁이름으로	-10.8386
장비	-10.84
▁해상	-10.8406
▁착수	-10.8419
블리	-10.8427
▁낮아	-10.844
▁수상한	-10.8455
▁제작자들	-10.8467
▁선수로	-10.8471
▁진전	-10.8492
냈	-10.8504
▁모스크바	-10.8505
▁마을에서	-10.8506
ii	-10.8507
▁투표했다	-10.8527
버린	-10.8529
▁총격으로	-10.8532
▁파도	-10.856
▁게이	-10.8563
웰	-10.8572
▁남겨	-10.8576
▁쥐들	-10.8578
▁허리케인	-10.8579
▁파타	-10.858
봐	-10.8584
냥	-10.8585
쾌	-10.8587
렬	-10.8587
졸	-10.8587
▁리처드	-10.8588
컴	-10.8589
삭	-10.859
겔	-10.859
닭	-10.859
▁associat	-10.859
▁갤런	-10.859
▁뉴델리	-10.859
▁두개골	-10.859
▁라스베이거스	-10.859
▁맨해튼	-10.859
▁메릴린치	-10.859
▁미끄러	-10.859
▁미쳤다	-10.859
▁법무장관	-10.859
▁불매운동	-10.859
▁스파이스	-10.859
▁이브라힘	-10.859
▁잃어버	-10.859
▁친선경기	-10.859
▁침팬지	-10.859
▁크로아티아	-10.859
▁토크쇼	-10.859
▁투탕카멘	-10.859
▁평화유지군	-10.859
▁푸에르토리코	-10.859
▁프랭크	-10.859
▁피추시킨	-10.859
▁흥정	-10.859
찔	-10.859
▁노트북	-10.859
▁녹화	-10.859
▁수개월	-10.859
▁억만장자	-10.859
▁침략	-10.859
▁카라카스	-10.859
▁펠로시	-10.859
▁캠벨	-10.859
▁깨끗	-10.859
▁수족관	-10.859
▁하버드	-10.859
▁깃발	-10.8591
▁북서쪽	-10.8591
▁후쿠다	-10.8591
▁침투	-10.8591
▁소수민족	-10.8591
▁코카인	-10.8591
▁농축	-10.8591
▁부사장	-10.8591
▁공군기지	-10.8591
▁액체	-10.8591
▁크라우	-10.8591
▁습관	-10.8591
▁축출	-10.8591
▁소탕작전	-10.8591
▁발자국	-10.8591
▁잡혀있	-10.8591
▁행렬	-10.8591
▁풀려났다	-10.8591
▁증산	-10.8592
▁포셋	-10.8592
▁효력	-10.8592
▁교섭	-10.8592
▁열렬	-10.8592
▁포획	-10.8592
▁감옥	-10.8592
▁터뜨	-10.8592
▁늘어났다	-10.8593
▁국영방송	-10.8593
▁리옹	-10.8593
▁보조금	-10.8593
▁포경선	-10.8593
▁사라졌다	-10.8593
▁cdc	-10.8594
▁회견	-10.8594
▁컬럼비아호	-10.8594
▁버려진	-10.8594
▁경향	-10.8594
▁미술관	-10.8595
▁떠날	-10.8595
▁돌아왔다	-10.8595
▁않는다면	-10.8595
▁lg	-10.8595
▁가끔	-10.8595
▁피터슨	-10.8596
▁목록	-10.8596
봐야	-10.8596
▁저택	-10.8597
▁확보했다	-10.8597
▁부활	-10.8597
▁탄약	-10.8598
▁구호품	-10.8598
▁팔렸다	-10.8598
▁실현	-10.8598
▁건립	-10.8599
▁아닐	-10.8599
▁운명	-10.8599
▁탐사선	-10.8599
▁로켓포	-10.8599
▁불평	-10.86
▁푸미	-10.86
▁민간인들	-10.86
▁경비대	-10.8601
▁평방	-10.8601
▁나이키	-10.8602
▁회동	-10.8602
▁놓았다	-10.8602
▁형식	-10.8602
▁사탕	-10.8603
▁변형	-10.8603
▁마찰	-10.8605
▁기밀	-10.8606
▁휴전	-10.8608
▁이어졌다	-10.861
▁밀려	-10.8611
▁조언	-10.8612
▁통행	-10.8612
▁분리주의자들	-10.8613
▁전시회	-10.8613
▁어두	-10.8614
▁시골	-10.8614
▁장교	-10.8616
▁천명	-10.8617
▁취소됐다	-10.8618
▁남측	-10.8618
▁시인했다	-10.8619
▁싶어한다	-10.8619
▁알렸다	-10.862
▁입장권	-10.8621
▁성교	-10.8621
▁단식	-10.8621
▁비행선	-10.8623
▁구조작업	-10.8624
▁리버	-10.8624
▁간부	-10.8626
▁줄여	-10.8626
▁그때	-10.8629
▁연계	-10.863
▁토니	-10.863
▁정체	-10.8631
▁my	-10.8631
▁호소했다	-10.8633
▁흔적	-10.8633
▁반복	-10.8634
널리	-10.8635
▁북해	-10.8636
▁쌍	-10.8638
▁흐르	-10.8639
▁해저	-10.864
▁피고인	-10.864
▁소위	-10.8643
▁등장하	-10.8645
▁아이티	-10.8646
▁자문	-10.8647
▁들어있다	-10.8648
▁사살했다	-10.8652
▁부유	-10.8654
▁방치	-10.8655
▁안내	-10.8659
▁변호인	-10.8664
▁모색	-10.8666
▁예수	-10.8669
▁전례	-10.8669
▁가축	-10.8673
▁골드	-10.8674
▁모스크바에서	-10.8676
▁데비	-10.8677
▁근무하	-10.8678
▁결함	-10.8679
▁교전이	-10.8681
▁중심지	-10.8683
▁기내	-10.8684
▁지식	-10.8687
▁기울이	-10.8693
▁윗	-10.87
▁활동하	-10.8706
▁총리직	-10.8713
라이프	-10.8718
▁미친	-10.8723
▁면적	-10.8736
▁비교해	-10.8744
▁이른다	-10.8756
사무소	-10.8756
▁아크	-10.8759
페이스	-10.8771
▁무어	-10.878
▁상자	-10.8781
▁보트	-10.8783
▁그랜드	-10.8784
▁청소년들	-10.8787
ty	-10.8789
▁pe	-10.8794
▁하스	-10.8802
▁목격했다	-10.8808
▁서울에서	-10.8808
▁보여주기	-10.8813
▁국정	-10.8814
▁중년	-10.882
스런	-10.8824
답했다	-10.8828
▁과학적	-10.8838
어드	-10.8839
▁남기	-10.8839
▁램	-10.8844
▁전설	-10.8849
▁방송국	-10.8856
▁임신한	-10.886
▁아버지와	-10.886
spa	-10.8862
▁살아가	-10.8868
uc	-10.8869
억	-10.8871
솔	-10.8871
알	-10.8872
둘	-10.8873
앤	-10.8876
잠	-10.8876
▁시까지	-10.8877
위원장	-10.8878
조약	-10.8891
제품	-10.891
▁남성과	-10.8915
▁부상으로	-10.8954
▁참가한	-10.8956
▁브로	-10.896
안보	-10.8981
▁손님	-10.8988
▁해외에서	-10.8991
▁전파	-10.8995
소리	-10.9016
ds	-10.9026
▁헤어	-10.9048
▁의상	-10.9064
▁유대인	-10.9065
▁위원	-10.9068
▁한국인들	-10.9092
▁전장에	-10.9125
▁보고서에따	-10.9126
▁여행객들	-10.9139
스틴	-10.9148
▁중단했	-10.9154
▁전부	-10.916
▁주시	-10.9166
해질	-10.9166
▁석방했다	-10.9171
af	-10.9177
▁물어	-10.9181
▁들었	-10.9187
▁실시했다	-10.9207
▁취급	-10.921
▁한쪽	-10.9213
혔	-10.9223
▁얻었	-10.9241
▁실려	-10.9255
▁해결하	-10.9262
▁코스	-10.9269
▁우리들	-10.9269
ex	-10.928
▁그곳에	-10.9295
퀴	-10.9295
▁최저	-10.9298
잉	-10.9299
▁국방	-10.93
▁아름다	-10.9304
켄	-10.9304
▁스코틀랜드	-10.9305
▁유엔사무총장	-10.9305
▁후지모리	-10.9305
껏	-10.9305
렁	-10.9305
톨	-10.9305
▁hiv	-10.9305
▁끊임없	-10.9305
▁노무현	-10.9305
▁다비덴코	-10.9305
▁됩니다	-10.9305
▁드라이브	-10.9305
▁멸종위기	-10.9305
▁무혐의	-10.9305
▁빔보	-10.9305
▁슈나이더	-10.9305
▁애완동물	-10.9305
▁양육권	-10.9305
▁예방접종	-10.9305
▁우주정거장	-10.9305
▁저녁식사	-10.9305
▁첫날	-10.9305
▁초등학교	-10.9305
▁커뮤니티	-10.9305
▁펌프	-10.9305
▁확률	-10.9305
댄	-10.9305
콰	-10.9305
툴	-10.9305
퓨	-10.9305
▁부작용	-10.9305
▁스머프	-10.9305
▁쿠마르	-10.9305
▁국가주석	-10.9305
▁알렉스	-10.9305
▁감바리	-10.9305
▁배터리	-10.9305
▁삭감	-10.9305
▁좌절	-10.9305
▁담겨있	-10.9305
▁혼합	-10.9305
▁충족	-10.9305
스프레이	-10.9305
▁반짝이	-10.9305
▁섹시	-10.9305
▁클라인	-10.9305
▁낙관	-10.9305
▁격돌	-10.9305
▁덴버	-10.9305
▁첨단	-10.9305
▁논문	-10.9305
▁요즘	-10.9305
▁얼룩말	-10.9305
▁프린스	-10.9305
▁하원의장	-10.9305
istan	-10.9305
▁수만명	-10.9305
▁빅토리아	-10.9306
▁도와주	-10.9306
▁글로벌	-10.9306
▁잠재적	-10.9306
▁일으킬	-10.9306
▁불쾌	-10.9306
▁복권	-10.9306
▁작곡	-10.9306
▁결승골	-10.9306
▁브레이크	-10.9306
▁아마존	-10.9306
▁학년	-10.9306
▁연방법원	-10.9307
▁긴밀	-10.9307
▁참석했	-10.9307
▁놀랄	-10.9307
▁보건당국	-10.9307
▁홀랜드	-10.9307
▁순례	-10.9307
▁친척	-10.9307
▁남녀	-10.9307
▁설정	-10.9307
▁묘지	-10.9307
▁완료	-10.9307
▁앙리	-10.9308
▁무덤	-10.9308
▁날짜	-10.9308
▁장벽	-10.9308
▁중태라	-10.9308
▁하렐	-10.9308
▁성범죄	-10.9309
▁점검	-10.9309
▁복수	-10.9309
▁글렌	-10.9309
▁관측	-10.9309
▁제압하	-10.9309
▁로널드	-10.9309
▁받아왔다	-10.9309
▁당혹	-10.931
▁토마토	-10.931
▁격리	-10.931
▁그래미	-10.931
▁이르기	-10.9311
▁소방서	-10.9311
▁태양계	-10.9311
▁벌써	-10.9312
▁사법부	-10.9312
▁삼았다	-10.9312
▁취임식	-10.9313
▁대리인	-10.9313
▁연구조사	-10.9314
▁없습니다	-10.9314
리서치	-10.9314
▁독립국가	-10.9314
▁그곳에서	-10.9315
▁소환	-10.9316
▁브랜드	-10.9316
▁시민권	-10.9317
▁사귀	-10.9317
▁gm	-10.9318
▁발달	-10.9318
바닥에	-10.9318
▁재배	-10.9319
▁후송	-10.9319
▁막았다	-10.932
▁노동력	-10.9321
▁월마트	-10.9322
▁유명하다	-10.9322
▁차림	-10.9323
▁세인트	-10.9323
관계자	-10.9323
▁주주들	-10.9325
▁간다	-10.9326
▁바탕	-10.9327
▁경유	-10.9328
est	-10.9329
▁확정됐다	-10.933
▁드물	-10.9331
▁선임	-10.9331
▁히트	-10.9332
▁유입	-10.9332
▁과실	-10.9333
▁심슨	-10.9334
▁의뢰인	-10.9334
▁반등	-10.9335
▁당연	-10.9336
▁경신	-10.9337
▁두목	-10.9337
▁감량	-10.9338
▁부족하다	-10.9339
▁피난민	-10.9341
▁석상	-10.9343
▁유통	-10.9345
▁자녀들	-10.9348
▁취한	-10.9349
▁정기적	-10.935
▁호위	-10.9353
▁케리	-10.9354
▁인명	-10.9354
▁케이스	-10.9356
▁강연	-10.9356
▁죽었다	-10.9358
돌렸다	-10.9358
▁분출	-10.9359
▁민주적	-10.9361
▁부른	-10.9365
▁매달	-10.9371
▁산소	-10.9371
▁보호소	-10.9372
▁가난	-10.9373
▁신용	-10.9373
▁의약	-10.9375
▁호전	-10.9375
▁분실	-10.9375
▁메일	-10.9376
▁이민자들	-10.9377
▁표면	-10.9377
▁한달	-10.9378
▁눈물	-10.9381
▁악화되	-10.9383
▁박스	-10.9383
▁본드	-10.9385
▁구단	-10.9388
▁저항	-10.9388
▁맡았다	-10.9389
▁학생들에게	-10.9389
▁칩	-10.9389
▁끈	-10.939
타그	-10.9394
▁당일	-10.9399
▁제외하고	-10.94
▁공부	-10.9403
▁이루어지	-10.9405
▁살해됐다	-10.9407
▁물었다	-10.941
▁패스	-10.941
▁무크	-10.9414
▁실시됐다	-10.9426
▁서장	-10.9427
▁서부지역	-10.9428
▁모터	-10.9429
▁먼지	-10.943
▁거물	-10.9432
▁도착할	-10.9433
▁표시했다	-10.9437
▁식으로	-10.9441
▁결정될	-10.9443
▁가사	-10.9446
▁기원	-10.9469
▁진전이	-10.9473
▁만년	-10.9474
▁남아있는	-10.9476
▁원주민들	-10.9476
▁정부로부터	-10.9482
▁피하기	-10.9485
▁주관	-10.9491
▁파악하	-10.9492
▁구조대원	-10.9497
▁개막식에	-10.9498
▁요청할	-10.9503
▁판매되	-10.9504
▁폐쇄했다	-10.9513
▁남동부에서	-10.9513
▁등정	-10.9514
▁미터	-10.9522
베즈	-10.9532
▁외국인들	-10.9534
▁이겼다	-10.9536
▁가중	-10.9538
▁우려해	-10.9539
▁전세계적	-10.9541
▁없애	-10.9572
▁대우	-10.9578
▁홀에서	-10.9579
죄	-10.9581
▁남편과	-10.9583
▁빠지	-10.9588
▁세트에서	-10.9598
십	-10.9601
▁개들	-10.9631
▁동맹국	-10.9632
캐	-10.9641
▁독자	-10.9642
전략	-10.9646
홀	-10.9646
서비스	-10.9647
▁아이들에게	-10.9651
▁장소로	-10.9655
fi	-10.9661
▁군사적	-10.9664
공급	-10.9666
배우	-10.9666
▁발견했	-10.9671
여행	-10.9675
▁남부지역	-10.9675
사람	-10.9679
▁손자	-10.9685
치료	-10.9686
▁안나	-10.9688
그램	-10.969
▁생존자들	-10.9704
거라고	-10.9706
잡지	-10.971
▁유해	-10.9713
조정	-10.972
▁메리	-10.9746
▁기술자	-10.9747
▁발생하기	-10.976
▁제출했다	-10.9769
장난	-10.9774
사이트	-10.9788
▁포함된	-10.9795
ies	-10.9804
rea	-10.9804
▁압수	-10.9816
▁피어	-10.9816
▁서쪽	-10.9828
ive	-10.9832
▁제공하	-10.9856
실적	-10.9862
내달	-10.9877
마트	-10.9877
▁요원들	-10.988
연대	-10.9885
▁운전자들	-10.9885
▁로드	-10.9926
▁느끼지	-10.9931
레그	-10.9936
▁반대한다	-10.9939
ven	-10.994
▁일어났	-10.9965
▁벌여	-10.9967
무라	-10.9985
▁모가디슈	-10.9988
▁모두에게	-10.9999
▁재정적	-11.0022
뛰	-11.0034
▁확인되	-11.0049
▁지냈	-11.0059
▁버몬트	-11.0059
▁일리노이	-11.0061
옹	-11.0069
덤	-11.007
▁힌두	-11.0072
첩	-11.0072
븐	-11.0074
▁가솔린	-11.0074
▁국가평의회	-11.0074
▁국립공원	-11.0074
▁끝내고	-11.0074
▁나르기스	-11.0074
▁넘겼다	-11.0074
▁농산물	-11.0074
▁되돌아	-11.0074
▁밀리밴드	-11.0074
▁블룸버그	-11.0074
▁서부텍사스	-11.0074
▁신용카드	-11.0074
▁심장질환	-11.0074
▁싶었	-11.0074
▁아닙니다	-11.0074
▁외쳤다	-11.0074
▁잉그리드	-11.0074
▁자카르타	-11.0074
▁캔자스	-11.0074
▁코네티컷	-11.0074
▁쿠즈넷소바	-11.0074
▁클랩튼	-11.0074
▁터미널	-11.0074
▁퍼시픽	-11.0074
▁페르난도	-11.0074
▁프린트	-11.0074
▁하드웨어	-11.0074
▁혐오	-11.0074
넨	-11.0074
듬	-11.0074
룸	-11.0074
믹	-11.0074
밥	-11.0074
샬	-11.0074
▁고이즈미	-11.0074
▁느꼈	-11.0074
▁메사추세츠	-11.0074
▁볼리비아	-11.0074
▁손해배상	-11.0074
▁시애틀	-11.0074
▁윈도우	-11.0074
▁항생제	-11.0074
벡	-11.0074
샘	-11.0074
찮	-11.0074
▁브래드	-11.0074
▁월경작전	-11.0074
▁노리에가	-11.0074
▁낙찰	-11.0074
▁비영리	-11.0074
▁되풀이	-11.0074
▁모니터	-11.0074
▁원자력	-11.0074
▁중질유	-11.0074
▁여객선	-11.0074
▁블로거	-11.0074
▁산악인	-11.0074
▁빈민가	-11.0074
▁바하마	-11.0074
▁첩보	-11.0074
▁영부인	-11.0074
▁etc	-11.0074
▁멜론	-11.0074
▁몬테	-11.0074
▁격추	-11.0074
▁골드버그	-11.0074
▁저렴	-11.0074
▁관절염	-11.0075
▁치솟	-11.0075
▁압승	-11.0075
▁알라스카	-11.0075
▁마스리	-11.0075
▁출생	-11.0075
▁어깨	-11.0075
▁완승	-11.0075
▁중동평화회의	-11.0075
▁동맹관계	-11.0075
▁친환경	-11.0075
▁iss	-11.0075
▁왕궁	-11.0075
▁right	-11.0075
▁공략	-11.0075
▁세계은행	-11.0076
▁요새	-11.0076
▁방콕	-11.0076
▁유명인사	-11.0076
▁캐롤	-11.0076
▁우간다	-11.0076
▁애쓰	-11.0076
▁연패	-11.0076
▁인디언	-11.0076
▁무엇인가	-11.0076
▁성직자	-11.0077
▁벌어들	-11.0077
▁eta	-11.0077
▁라이언	-11.0078
베르토	-11.0078
▁급습	-11.0078
▁환급	-11.0079
▁배심원단	-11.0079
▁애견	-11.0079
▁지명되기	-11.008
▁운반	-11.008
▁투항	-11.0081
▁보스턴	-11.0081
▁심장병	-11.0081
▁모르겠다	-11.0081
엠	-11.0081
마누엘	-11.0081
▁nh	-11.0082
▁비싸	-11.0082
▁지하실	-11.0083
▁어려워	-11.0083
▁민족주의	-11.0083
▁미시건주	-11.0083
▁사진기자	-11.0083
▁경제학자들	-11.0083
▁바퀴	-11.0084
▁카누	-11.0084
▁휴식	-11.0084
▁풍선	-11.0085
▁납치범	-11.0085
▁허용하	-11.0085
▁양곤	-11.0085
▁채널	-11.0085
▁북미	-11.0086
▁투표율	-11.0087
▁절감	-11.0087
▁필립스	-11.0087
▁줄어들었다	-11.0087
▁배제하지	-11.0088
▁관행	-11.0088
▁신랑	-11.0088
▁오존	-11.0088
▁정글	-11.0089
▁매춘	-11.009
▁마침	-11.009
▁네바다주	-11.0091
▁해준다	-11.0092
▁오델	-11.0092
▁유독	-11.0092
▁조항	-11.0092
▁순찰대	-11.0093
▁코너	-11.0093
▁판정	-11.0094
▁도왔다	-11.0094
▁것이냐	-11.0095
▁편안	-11.0095
▁연행됐다	-11.0096
▁후퇴	-11.0096
▁물러나	-11.0097
▁이빨	-11.0097
▁대도시	-11.0098
▁구축	-11.0101
▁신병	-11.0101
▁초청	-11.0101
▁아이오와주	-11.0101
▁테마	-11.0102
▁사이버	-11.0103
▁우연	-11.0104
▁매매	-11.0105
▁걸프	-11.0106
▁받아들였다	-11.0107
▁메디	-11.0108
▁독점	-11.0109
▁안개	-11.011
▁돌아갔다	-11.0113
▁발포	-11.0113
▁배급	-11.0115
▁시청자들	-11.0117
▁외계	-11.0117
▁au	-11.0118
▁토레	-11.0118
▁서안	-11.0119
▁당국자들	-11.0125
▁예비	-11.0125
▁밀어	-11.0128
▁미시간	-11.0129
▁약탈	-11.0129
▁카카	-11.0132
▁군데	-11.0132
▁우즈	-11.0133
▁분경	-11.0133
way	-11.0134
관련	-11.0135
▁행성들	-11.0135
▁벌어졌다	-11.0137
▁공모	-11.0137
▁받아들이지	-11.0137
▁열렸다	-11.0138
▁집안	-11.0139
▁차관	-11.0141
▁번식	-11.0142
▁일본인들	-11.0142
▁이틀간	-11.0145
▁사체	-11.0146
▁적당	-11.0148
▁전해지	-11.0151
▁되려	-11.0152
▁유대	-11.0155
▁호화	-11.0156
▁리비	-11.0157
▁중국정부	-11.0164
▁해명	-11.0165
▁방문객	-11.0168
▁제거하	-11.0168
▁몰리	-11.0169
▁호우	-11.017
노동자당	-11.017
▁나란	-11.0174
▁주거지	-11.0175
▁지문	-11.0175
아누	-11.0178
▁명예	-11.0179
▁만족한다	-11.0185
▁분석했다	-11.0187
▁아파	-11.02
▁you	-11.02
▁대조	-11.0202
▁신성	-11.0207
▁파일	-11.0212
▁제정	-11.0217
▁피우	-11.0218
▁일어나지	-11.0223
▁뉴욕시	-11.0226
▁지원하기	-11.0235
▁해소	-11.024
▁전달한	-11.0246
▁사면	-11.0253
▁들리	-11.0255
노브	-11.0259
▁시간대	-11.0263
ef	-11.0265
▁매력	-11.0268
▁농부	-11.0273
내려	-11.0277
▁오프	-11.0281
▁싶어하	-11.0287
▁루디	-11.0287
▁승려	-11.0288
▁남북한	-11.0298
▁제기되	-11.0305
▁고려해	-11.031
▁논의하고	-11.0312
▁tru	-11.0314
▁확인해	-11.0323
피스	-11.0323
▁공원에서	-11.0326
▁석유회사	-11.0328
▁압도적	-11.0344
▁무너졌	-11.0346
데르	-11.0351
▁압수했다	-11.0352
▁동원해	-11.0355
▁감염자	-11.0361
▁더미	-11.0364
▁설치된	-11.0369
아졌다	-11.0377
▁살리	-11.0392
▁난자	-11.04
▁이외	-11.04
▁형태로	-11.0408
▁입원했	-11.0409
▁교도	-11.0428
▁검토하	-11.0431
▁주사	-11.0433
▁아기들	-11.0437
패	-11.0455
▁수행했다	-11.0458
몽	-11.0468
휴	-11.047
납	-11.047
▁도착하	-11.0472
윤	-11.0472
김	-11.0478
훈련	-11.0479
페르	-11.0484
▁선원들	-11.0485
▁선출된	-11.0489
보드	-11.0493
됐는지	-11.0502
▁자연적	-11.0506
▁승리했	-11.0536
▁나비	-11.0559
▁개성	-11.0562
▁심리학자	-11.0564
호르	-11.0567
머리	-11.0577
▁강사	-11.0578
주재	-11.0587
▁들어있	-11.0593
비오	-11.0601
▁신고했다	-11.0608
▁탈출했다	-11.0621
시키는데	-11.0642
▁상업적	-11.065
전승	-11.0689
조종	-11.071
교회	-11.0717
▁방영	-11.0743
▁소식통들	-11.0753
▁회원들	-11.0765
▁맞이하	-11.0782
▁비만	-11.0782
▁떨어졌	-11.0823
▁잃었	-11.083
▁걸려	-11.0854
▁재활	-11.0873
▁결과에따	-11.0889
▁보내기	-11.089
획	-11.0896
쇄	-11.0902
▁데일리	-11.0902
님	-11.0905
췄	-11.0905
▁중동평화	-11.0906
꼬	-11.0907
훈	-11.0907
꿀	-11.0907
▁거머쥐었	-11.0907
▁녹음	-11.0907
▁무책임	-11.0907
▁백과사전	-11.0907
▁수족구병	-11.0907
▁죄책감	-11.0907
▁촛불	-11.0907
▁효율적	-11.0907
맘	-11.0907
▁human	-11.0907
▁microsoft	-11.0907
▁nba	-11.0907
▁sncf	-11.0907
▁검정색	-11.0907
▁국영언론	-11.0907
▁뉴멕시코	-11.0907
▁댕기열	-11.0907
▁동유럽	-11.0907
▁마케팅	-11.0907
▁매릴랜드	-11.0907
▁박격포	-11.0907
▁버냉키	-11.0907
▁부동층	-11.0907
▁아르메니아	-11.0907
▁안타깝	-11.0907
▁여동생	-11.0907
▁자원봉사자	-11.0907
▁작가조합	-11.0907
▁조코비치	-11.0907
▁침묵	-11.0907
▁캐시미르	-11.0907
▁트러스트	-11.0907
▁퍼거슨	-11.0907
▁플루토늄	-11.0907
▁하르툼	-11.0907
긋	-11.0907
넌	-11.0907
띠	-11.0907
륭	-11.0907
쉴	-11.0907
안토니오	-11.0907
젭	-11.0907
톡	-11.0907
푼	-11.0907
▁contr	-11.0907
▁겁니다	-11.0907
▁독립선언	-11.0907
▁법무부	-11.0907
▁비즈니스	-11.0907
▁스타워즈	-11.0907
▁축구팬들	-11.0907
▁로페즈	-11.0907
▁부적절	-11.0907
▁에버튼	-11.0907
▁할머니	-11.0907
▁time	-11.0907
▁블로그	-11.0907
▁중산층	-11.0907
▁트로피	-11.0907
▁회교도	-11.0907
▁수류탄	-11.0907
▁경찰청장	-11.0907
▁논평	-11.0907
▁만델라	-11.0907
▁좌익	-11.0907
▁하토야	-11.0907
▁부회장	-11.0907
▁오디오	-11.0907
▁곤봉	-11.0907
▁로보트	-11.0907
▁오렌지	-11.0907
▁반도체	-11.0908
▁심사위원	-11.0908
▁이라와디	-11.0908
▁투데이	-11.0908
▁징계	-11.0908
스트리트	-11.0908
▁말리부	-11.0908
▁유원지	-11.0908
▁화물선	-11.0908
▁소아과	-11.0908
▁프레슬리	-11.0908
▁계층	-11.0908
▁주어진	-11.0908
▁존드로	-11.0908
▁중앙정보	-11.0909
▁소요사태	-11.0909
▁설교	-11.0909
▁맞붙	-11.0909
▁맥캔	-11.0909
▁격려	-11.0909
▁지방법원	-11.0909
▁증오	-11.0909
▁오스만	-11.091
▁우리나라	-11.091
▁토끼	-11.091
▁안드레	-11.091
▁방침이	-11.091
▁할렘	-11.091
▁랄리	-11.091
▁취업	-11.0911
▁wto	-11.0911
▁고통스러	-11.0911
▁리콜	-11.0911
▁쉽다	-11.0911
▁숙박비	-11.0912
▁척추	-11.0912
▁밀림	-11.0912
▁난폭	-11.0912
▁빌딩	-11.0912
▁faa	-11.0913
▁빅토	-11.0913
▁풍경	-11.0913
▁선거결과	-11.0913
▁연합정부	-11.0914
▁상무위원	-11.0914
▁정상회의	-11.0914
▁떠난	-11.0914
▁마쓰	-11.0914
▁휴전선	-11.0914
▁라싸	-11.0914
계좌	-11.0915
▁인접	-11.0915
▁최저치	-11.0915
▁돌아갈	-11.0915
▁몰래	-11.0915
▁거짓	-11.0916
▁평생	-11.0916
▁피델	-11.0916
▁하얀	-11.0916
▁흉선	-11.0916
▁수백만명	-11.0916
▁몸집	-11.0916
▁극심	-11.0916
▁카라치	-11.0917
▁기둥	-11.0917
▁청색	-11.0917
▁진료	-11.0917
▁미시간주	-11.0918
▁억압	-11.0918
▁양빈	-11.0918
▁통과시켰다	-11.0918
▁태형	-11.0918
▁가죽	-11.0918
▁매몰	-11.0918
▁던졌다	-11.0919
▁주차장	-11.0919
▁잔디	-11.092
▁들어갈	-11.092
▁연애	-11.092
▁구름	-11.092
▁inc	-11.092
▁긴장감	-11.0921
▁기념식	-11.0921
▁노예	-11.0921
▁성능	-11.0922
▁정규	-11.0922
▁지속될	-11.0924
▁거둔	-11.0924
▁진동	-11.0926
▁서열	-11.0926
▁타이어	-11.0926
차원에서	-11.0926
▁대통령궁	-11.0927
▁난동	-11.0927
▁휴대	-11.0928
▁지침	-11.093
디언	-11.093
▁포탄	-11.093
▁발렌	-11.0931
▁시사회	-11.0931
▁만들어내	-11.0931
▁권위	-11.0932
▁공개되지	-11.0932
▁데이트	-11.0933
▁수요일	-11.0934
▁구호작업	-11.0934
▁과속	-11.0935
▁준장	-11.0936
▁뉴욕시장	-11.0936
럽게	-11.0939
▁재생	-11.094
▁연금	-11.094
▁평소	-11.0943
▁소포	-11.0943
따	-11.0944
▁점심	-11.0944
▁재임	-11.0944
▁남용	-11.0944
▁코란	-11.0946
▁문명	-11.0947
▁재무	-11.0947
▁언제든	-11.0947
▁남쪽으로	-11.0947
▁정복	-11.0949
▁만평	-11.0949
▁불교	-11.095
▁영원	-11.095
▁로케	-11.0954
▁제약	-11.0955
시켜주	-11.0955
▁제조회사	-11.0958
▁발견되지	-11.0961
▁생크	-11.0962
ton	-11.0963
▁사이즈	-11.0967
퍼드	-11.0968
▁포럼	-11.0969
▁화제	-11.0969
키마	-11.097
▁명백	-11.0971
담당자	-11.0974
▁공조	-11.0975
▁암시	-11.0978
▁중재자	-11.098
▁앞선	-11.098
▁양보	-11.098
▁누드	-11.0982
▁효과적인	-11.0984
▁업적	-11.0988
▁삼성	-11.0988
▁토드	-11.0989
▁제방	-11.0994
▁팔려	-11.0994
▁당선된	-11.0997
▁투수	-11.0997
▁나체	-11.0999
▁데려	-11.1
▁투표소	-11.1001
▁기권	-11.1004
▁투자가들	-11.1004
▁정오	-11.1006
▁시체	-11.1008
▁휴스	-11.1008
▁자정	-11.1009
장거리	-11.1012
▁인치	-11.1012
▁경상	-11.1012
▁배정	-11.1014
▁모임	-11.1015
▁모았다	-11.1016
▁개인적으로	-11.1018
▁농촌	-11.1022
▁레이더	-11.1024
▁판매량	-11.1029
▁개설	-11.1029
▁수반과	-11.1029
▁자바	-11.103
▁하산	-11.1031
▁가이드	-11.1036
▁여아	-11.1037
▁신문사	-11.1038
▁전용기	-11.1039
▁기록됐다	-11.1046
▁반미	-11.1051
▁과제	-11.1051
▁논의하기	-11.1058
▁사정	-11.1062
▁치료제	-11.1066
▁세관	-11.1071
▁지미	-11.1071
▁거부하	-11.1075
ore	-11.109
▁발사된	-11.1092
▁구제	-11.1095
▁빌리	-11.1096
▁환영한다	-11.1115
▁생산성	-11.1117
▁문자	-11.1143
▁무서	-11.1144
▁기아	-11.116
nc	-11.1166
▁지아	-11.1167
▁나치	-11.1171
▁도주	-11.1171
▁대답했다	-11.1177
▁분리주의	-11.1178
▁퇴원했다	-11.1184
▁감행했다	-11.1186
▁공격하기	-11.1208
▁만든다	-11.1211
▁상점들	-11.1214
cal	-11.1236
ster	-11.1249
▁자랑하	-11.1278
세르	-11.1285
▁실종됐	-11.1288
▁재개했다	-11.1309
▁제조업	-11.1324
ase	-11.1344
▁제공했다	-11.1362
▁그것들	-11.1366
q	-11.1378
▁참가했다	-11.138
책임자	-11.138
힘	-11.1389
▁석방된	-11.139
▁중단된	-11.1392
영향	-11.1392
▁경호원들	-11.1395
▁강전	-11.1395
모델	-11.1396
▁당원들	-11.14
번호	-11.1403
▁po	-11.1411
▁반영	-11.1412
차장	-11.1425
ng	-11.1451
▁part	-11.1457
방법	-11.1459
▁범죄자들	-11.1474
▁측근	-11.1494
포르	-11.1508
▁감소했다	-11.151
our	-11.1513
az	-11.1517
▁존재하	-11.1521
공학	-11.1524
ls	-11.1527
▁경비원	-11.1538
ant	-11.1544
공장	-11.1546
마크	-11.1549
▁스페	-11.156
▁사과했다	-11.1562
▁we	-11.1567
▁관찰하	-11.1567
▁인정하지	-11.158
▁압도	-11.1584
▁농부들	-11.1586
▁승려들	-11.1588
▁보수적	-11.1607
▁나라들	-11.1617
▁제품들	-11.162
▁살해했다	-11.1638
주민들	-11.1657
▁여진	-11.1668
▁발견되	-11.1678
▁논의했다	-11.1691
▁추구	-11.1695
▁적극	-11.172
▁만났	-11.1734
륙	-11.1746
▁sc	-11.1748
▁나타났	-11.1749
▁난민들	-11.179
▁대변	-11.1793
▁뉴저지	-11.1807
혁	-11.1807
쉽	-11.1809
틸	-11.1812
▁브랜	-11.1813
▁inter	-11.1813
콕	-11.1814
흙	-11.1815
▁얼룩	-11.1816
▁대중교통	-11.1816
▁떨어질	-11.1816
▁록펠러	-11.1816
▁흑색종	-11.1816
곱	-11.1816
뚝	-11.1816
쿨	-11.1816
book	-11.1816
▁fifa	-11.1816
▁iaea	-11.1816
▁with	-11.1816
▁work	-11.1816
▁wwf	-11.1816
▁가톨릭	-11.1816
▁공공장소에서	-11.1816
▁구스마오	-11.1816
▁나타낸	-11.1816
▁노스웨스트	-11.1816
▁뉴잉글랜드	-11.1816
▁뉴캐슬	-11.1816
▁대기오염	-11.1816
▁대선예비후보	-11.1816
▁덩어리	-11.1816
▁듀프레	-11.1816
▁루마니아	-11.1816
▁메릴랜드	-11.1816
▁베테랑	-11.1816
▁복부비만	-11.1816
▁분리독립	-11.1816
▁브뤼셀	-11.1816
▁빈민층	-11.1816
▁사이언톨로지	-11.1816
▁서둘러	-11.1816
▁않습니다	-11.1816
▁오키나와	-11.1816
▁우주왕복선	-11.1816
▁윌리암	-11.1816
▁이르렀다	-11.1816
▁이바노비치	-11.1816
▁인수제안	-11.1816
▁질렀다	-11.1816
▁찾았다	-11.1816
▁초콜릿	-11.1816
▁캠퍼스	-11.1816
▁테러지원국	-11.1816
▁퍼레이드	-11.1816
▁프리메라리가	-11.1816
▁하이브리드	-11.1816
▁햇빛	-11.1816
▁협약	-11.1816
▁휩싸였다	-11.1816
샹	-11.1816
연방준비제도이사회	-11.1816
쩌	-11.1816
▁금요일	-11.1816
▁깁슨	-11.1816
▁모하마드	-11.1816
▁줄기세포	-11.1816
▁법무상	-11.1816
▁자부심	-11.1816
▁고래상어	-11.1816
▁무소속	-11.1816
▁석유수출	-11.1816
▁앙겔	-11.1816
▁의구심	-11.1816
▁카제미	-11.1816
▁호르몬	-11.1816
▁시달리	-11.1816
▁유니티	-11.1816
▁스콜스	-11.1816
▁리프트	-11.1816
▁남아프리카공화국	-11.1816
▁싱글	-11.1816
▁아스날	-11.1816
▁탑재	-11.1817
▁afp	-11.1817
▁로드아일랜드	-11.1817
▁착취	-11.1817
▁농담	-11.1817
▁린제이	-11.1817
▁넬슨	-11.1817
▁세비르	-11.1817
▁침범	-11.1817
▁취약	-11.1817
▁휘둘	-11.1817
▁바라보	-11.1817
▁챔피언십	-11.1817
▁복합	-11.1817
▁유태인	-11.1817
▁좌파	-11.1817
▁sars	-11.1817
▁헌신	-11.1817
▁unite	-11.1817
▁바우어	-11.1817
▁시티그룹	-11.1817
ttle	-11.1817
▁북극곰	-11.1817
▁청와대	-11.1817
▁욕구	-11.1817
▁확실시되	-11.1817
▁쇼핑몰	-11.1817
▁증강	-11.1817
▁파키스탄무슬림리그	-11.1817
▁복역	-11.1817
▁사무국장	-11.1817
▁여자아이	-11.1817
▁정해지지	-11.1817
▁워너	-11.1818
▁히잡	-11.1818
▁바르샤	-11.1818
▁칭찬	-11.1818
▁애틀랜타	-11.1818
▁데뷔	-11.1818
▁메인주	-11.1818
▁참혹	-11.1818
▁다국적군	-11.1818
▁벽돌	-11.1818
▁eng	-11.1818
▁od	-11.1818
▁바바라	-11.1818
▁당직자	-11.1819
▁계란	-11.1819
▁훔쳐	-11.1819
브리지	-11.1819
▁이송됐으	-11.1819
아프리카민족	-11.1819
▁불가피하다	-11.182
▁암호키	-11.182
▁물러난	-11.182
▁유의원	-11.182
▁헤스턴	-11.182
▁크리스마스트리	-11.182
▁식별	-11.182
▁권총	-11.182
▁따돌리	-11.182
▁에티오피아군	-11.182
▁즐겨	-11.182
▁냉동	-11.182
▁콜롬보	-11.182
▁파키스탄인민당	-11.1821
▁무패	-11.1821
ect	-11.1821
▁동남	-11.1821
▁종말	-11.1821
▁차관보	-11.1822
▁나눈	-11.1822
▁탄광	-11.1822
▁높아졌다	-11.1823
▁준결승전	-11.1823
▁추산하	-11.1823
▁종교단체	-11.1824
▁연극	-11.1824
▁피켓	-11.1824
▁라틴	-11.1824
▁레이저	-11.1825
▁유혹	-11.1826
▁확실하다	-11.1826
▁소총	-11.1826
▁유효	-11.1827
▁수사팀	-11.1827
▁지방정부	-11.1827
▁냉전	-11.1827
▁납부	-11.1828
ack	-11.1828
▁지나친	-11.1828
▁정보기관	-11.1828
▁연방정부	-11.1828
▁다녀	-11.1829
▁개정안	-11.1829
▁bl	-11.183
▁응용	-11.183
▁공급받	-11.183
▁하더라	-11.1831
▁강철	-11.1831
▁군사력	-11.1831
▁정밀	-11.1831
▁친분	-11.1831
▁볼튼	-11.1832
▁통신망	-11.1833
▁세레나	-11.1834
▁폴슨	-11.1834
▁꾸미	-11.1834
▁동의안	-11.1834
▁그릇	-11.1834
▁발매	-11.1834
▁대승	-11.1834
▁황제	-11.1835
▁있을까	-11.1835
▁복지	-11.1835
▁응원	-11.1836
▁놓여	-11.1836
▁즐거	-11.1836
▁바이오	-11.1836
▁울프	-11.1837
▁노동당	-11.1838
▁투여	-11.1838
▁금연	-11.1839
▁dc	-11.184
▁저격	-11.184
▁샤프	-11.184
▁회계	-11.1841
▁조별	-11.1843
▁급파	-11.1843
▁생중계된	-11.1844
▁버튼	-11.1844
▁가짜	-11.1844
▁책정	-11.1844
▁내려오	-11.1845
▁동일	-11.1845
▁추모	-11.1845
▁ab	-11.1845
▁피플	-11.1846
▁여개	-11.1847
▁바스크	-11.1847
▁가졌	-11.1847
▁이뤘	-11.1848
▁측면	-11.185
시켜야	-11.185
▁건조	-11.1852
▁흔들리	-11.1852
▁해석	-11.1854
▁토티	-11.1855
▁태아	-11.1855
▁안건	-11.1856
▁왕국	-11.1856
탈루	-11.1857
▁대담	-11.1857
▁국제법	-11.1857
▁동의한다	-11.186
▁투표권	-11.186
▁정교	-11.1861
▁지나치	-11.1863
▁재발	-11.1864
▁당선됐다	-11.1864
▁만톤	-11.1865
▁매력적	-11.1869
▁올림픽위원회	-11.1869
▁명칭	-11.1869
▁내려졌다	-11.187
▁스피	-11.187
▁서브	-11.1871
▁난처	-11.1871
▁질서	-11.1872
▁안심	-11.1873
▁후보작	-11.1873
▁국민당	-11.1874
▁한가지	-11.1875
▁위법	-11.1875
▁통보	-11.1876
▁저지르	-11.1876
▁우세	-11.1877
▁시작되는	-11.1878
▁실내	-11.1879
▁성공회	-11.188
▁대령	-11.1885
▁시에나	-11.1885
▁오메	-11.1886
▁시범	-11.1886
프라임	-11.1886
▁페니	-11.1887
▁유실	-11.1888
▁제작진	-11.1888
▁여파	-11.1891
▁구직	-11.1894
▁파괴됐다	-11.1896
▁정문	-11.1896
▁거주지	-11.1902
▁자질	-11.1904
▁인부	-11.1913
▁구타	-11.1917
▁만료	-11.1918
▁모가디슈에서	-11.192
▁일방적	-11.1923
▁승리해야	-11.1925
▁독재자	-11.1925
▁근거지	-11.1927
▁라파	-11.1932
▁펼쳐지	-11.1941
▁전술	-11.1941
▁산하	-11.1942
ace	-11.1943
▁포기할	-11.195
▁탈라	-11.1954
▁걸스	-11.1962
드리스	-11.1962
▁사제	-11.1962
▁원치	-11.1964
▁비티	-11.1965
▁벌여왔	-11.1966
▁조원	-11.1967
cur	-11.1975
▁후안	-11.1985
▁버진	-11.1986
▁양상	-11.1989
불명	-11.1992
▁중령	-11.1996
nd	-11.2
▁우주국	-11.2004
▁유아	-11.2009
▁실업	-11.2017
▁지났	-11.2018
▁개제	-11.2024
버렸	-11.2026
▁전달하	-11.2026
▁청년들	-11.2033
▁웨스	-11.2034
▁자회사	-11.2036
▁패했	-11.2041
▁퍼지	-11.2044
▁대표하	-11.2063
푸르	-11.208
▁불과했다	-11.2093
▁해치	-11.2125
▁담당하	-11.2132
키야	-11.2146
▁주문했다	-11.2149
arch	-11.2195
▁행해	-11.2199
▁의존하	-11.2206
▁두려워하	-11.2207
▁대신해	-11.2212
▁슈퍼대의원들	-11.2218
구역	-11.2227
▁손님들	-11.2241
▁기적	-11.2241
wb	-11.2255
▁자랑	-11.2282
곳	-11.2324
▁종업원들	-11.2347
▁ev	-11.2373
죽	-11.2375
콩	-11.2377
털	-11.2379
팬	-11.2384
ish	-11.2388
잘	-11.2389
시즌	-11.239
▁되어있	-11.24
되었는데	-11.2408
모건	-11.2412
운송	-11.2412
▁묘사하	-11.2415
▁이용자들	-11.2422
▁ph	-11.2427
현상	-11.2428
세계	-11.2464
물질	-11.2464
혀있	-11.2492
▁내놓았	-11.2506
▁선박들	-11.2513
▁ag	-11.2528
▁소행	-11.2534
ard	-11.2581
▁시위대들	-11.2622
▁편집	-11.2636
▁관료	-11.265
▁회원국들	-11.2655
▁안되	-11.2656
회사들	-11.2658
▁par	-11.2661
▁설립자	-11.2668
▁배치된	-11.2677
▁근본	-11.268
▁만나기	-11.2684
▁모으	-11.2701
▁조심	-11.2708
▁지속되	-11.271
레비	-11.2712
▁기울	-11.2729
번씩	-11.2729
ath	-11.2754
▁거뒀	-11.2755
▁실시됐	-11.2757
▁영광	-11.2757
▁밝혀내	-11.2781
▁호흡	-11.2795
▁처해	-11.2797
ug	-11.2807
렵	-11.281
뒀	-11.2812
둑	-11.2812
▁콜롬	-11.2812
▁덧붙	-11.2812
칙	-11.2813
춰	-11.2813
▁불가피	-11.2814
▁득표	-11.2816
▁숙박	-11.2816
뷰	-11.2816
캠	-11.2816
갱	-11.2816
슐	-11.2816
랫	-11.2816
▁브리티시	-11.2816
▁epl	-11.2816
▁olpc	-11.2816
▁ufo	-11.2816
▁가깝게	-11.2816
▁개성공단	-11.2816
▁경기침체	-11.2816
▁국제사면위원회	-11.2816
▁그랜드슬램	-11.2816
▁나이트클럽	-11.2816
▁낙하산	-11.2816
▁다운로드	-11.2816
▁동남아시아	-11.2816
▁뒷좌석에	-11.2816
▁라자스탄	-11.2816
▁로맨틱	-11.2816
▁루프트한	-11.2816
▁류마티스	-11.2816
▁만장일치	-11.2816
▁몬타나	-11.2816
▁몸싸움	-11.2816
▁미드필더	-11.2816
▁박스데일	-11.2816
▁부패혐의	-11.2816
▁불렀다	-11.2816
▁사우스다코타	-11.2816
▁사우스웨스트	-11.2816
▁산티아고	-11.2816
▁서유럽	-11.2816
▁세계보건기구	-11.2816
▁슈워제네거	-11.2816
▁스턴트맨	-11.2816
▁싱가폴	-11.2816
▁아디다스	-11.2816
▁알렉산더	-11.2816
▁애널리스트	-11.2816
▁애완견	-11.2816
▁엔지니어	-11.2816
▁엔터테인먼트	-11.2816
▁오리건주	-11.2816
▁오마이뉴스	-11.2816
▁옵션	-11.2816
▁와이오밍	-11.2816
▁윔블던	-11.2816
▁의료보험	-11.2816
▁카스파로프	-11.2816
▁칸다하르	-11.2816
▁컵케이크	-11.2816
▁타블로이드	-11.2816
▁티셔츠	-11.2816
▁파르베즈	-11.2816
▁파이어폭스	-11.2816
▁페르난데즈	-11.2816
▁포토맥	-11.2816
▁프랑크푸르트	-11.2816
▁플로렌스	-11.2816
▁피츠버그	-11.2816
▁항공모함	-11.2816
▁햇볕	-11.2816
▁호주오픈테니스대회	-11.2816
▁황열병	-11.2816
궈	-11.2816
댓	-11.2816
돔	-11.2816
셈	-11.2816
쯔	-11.2816
쿤	-11.2816
펴	-11.2816
▁가비알	-11.2816
▁고혈압	-11.2816
▁꼬리	-11.2816
▁만토바니	-11.2816
▁버틀러	-11.2816
▁불능화	-11.2816
▁블랙베리	-11.2816
▁비평가들	-11.2816
▁빙붕	-11.2816
▁세번째	-11.2816
▁고등법원	-11.2816
▁선거유세	-11.2816
▁심장마비	-11.2816
▁아라비아	-11.2816
▁안타까	-11.2816
▁잠수함	-11.2816
▁전화통화	-11.2816
▁점유율	-11.2816
▁주일미군	-11.2816
▁프로세서	-11.2816
▁희귀	-11.2816
군사령관	-11.2816
▁덕분에	-11.2816
▁마스터스	-11.2816
▁오스네스	-11.2816
▁정신지체	-11.2816
▁제네바	-11.2816
▁소실됐다	-11.2816
▁아메드	-11.2816
▁외무성	-11.2816
▁irna	-11.2816
▁메모리	-11.2816
▁힐러리여사	-11.2816
▁도미니카공화국	-11.2816
▁솔라나	-11.2816
▁카펠로	-11.2816
▁오피니언리서치	-11.2816
▁혈압	-11.2816
▁오스본	-11.2816
▁오마바	-11.2817
▁다저스	-11.2817
▁포르노	-11.2817
▁낭비	-11.2817
▁재처리	-11.2817
▁셔츠	-11.2817
▁혈액	-11.2817
▁유니버	-11.2817
▁계곡	-11.2817
▁도덕적	-11.2817
▁디아즈	-11.2817
▁득점	-11.2817
▁통행금지	-11.2817
사령부	-11.2817
▁추락사고	-11.2817
▁출항	-11.2817
▁수하물	-11.2817
▁럭비	-11.2817
▁실업률	-11.2817
▁격분	-11.2817
▁남아프리카	-11.2817
▁강아지	-11.2817
▁즐거움	-11.2817
▁intel	-11.2817
▁기다려	-11.2817
▁갖춰	-11.2817
▁난민촌	-11.2817
▁퇴진	-11.2817
▁디스커버리호	-11.2818
▁크리스틴	-11.2818
▁바레인	-11.2818
▁시청률	-11.2818
▁로이터	-11.2818
▁품질	-11.2818
ence	-11.2818
▁번화가	-11.2819
▁화폐	-11.2819
▁설계	-11.2819
▁나중에	-11.2819
▁펠리	-11.2819
▁인쇄	-11.2819
▁켈리	-11.282
▁포옹	-11.282
▁둘째	-11.282
▁자본주의	-11.282
▁만들어낸	-11.2821
▁소년병	-11.2822
▁니콜슨	-11.2822
▁화염	-11.2822
▁usb	-11.2823
▁친밀	-11.2823
▁올라왔다	-11.2823
▁국가안보	-11.2823
▁완공	-11.2823
▁형편	-11.2823
▁재무부	-11.2824
▁매춘부	-11.2824
▁시민단체	-11.2824
▁북경	-11.2824
▁fao	-11.2824
▁웨버	-11.2825
▁핵문제	-11.2825
▁종족	-11.2825
▁퍼져	-11.2825
▁사라질	-11.2826
▁피셔	-11.2826
▁절약	-11.2826
▁편집장	-11.2826
▁있느냐	-11.2826
▁제라드	-11.2826
▁야외	-11.2827
▁dis	-11.2827
▁머무	-11.2827
▁대기권	-11.2828
▁외교관계	-11.2828
▁숨져	-11.2828
▁빈번	-11.2828
▁아끼	-11.2829
▁함정	-11.2829
▁적용되	-11.2829
▁위스키	-11.283
▁외환	-11.283
▁설사	-11.283
▁토로했다	-11.283
▁수익금	-11.283
▁들렸다	-11.2831
셰르	-11.2831
▁회색	-11.2832
▁마스크	-11.2832
▁수십년	-11.2832
▁중단하라	-11.2833
▁고위급	-11.2833
▁피살됐다	-11.2833
▁속편	-11.2834
▁기대감	-11.2835
▁불안정	-11.2835
▁버몬트주	-11.2835
▁남았다	-11.2836
▁비참	-11.2837
▁장려하	-11.2837
▁있겠	-11.2838
▁따내	-11.2838
▁기름	-11.2838
▁표결	-11.2839
▁외교부	-11.2839
▁부장관	-11.284
▁악화될	-11.284
▁루이지애나주	-11.2842
▁어디서	-11.2842
▁예정되어	-11.2843
▁번영	-11.2843
▁모험	-11.2843
▁펼쳐진	-11.2845
▁간직	-11.2846
▁이해할	-11.2846
▁비난했었다	-11.2847
▁높았다	-11.2847
▁발견돼	-11.2849
▁삼바	-11.2849
▁끼치	-11.285
▁감안	-11.2851
▁있었습니다	-11.2851
▁소유즈	-11.2852
▁본선거	-11.2852
▁기초	-11.2853
▁공범	-11.2854
▁있었는지	-11.2854
▁올릴	-11.2854
▁아카데미상	-11.2855
▁뒤집	-11.2855
▁교토	-11.2855
▁sh	-11.2855
▁케이트	-11.2857
▁동행	-11.2857
▁순수	-11.2857
멜라	-11.2858
ian	-11.286
▁가르치	-11.286
▁예정이었으	-11.2861
tter	-11.2862
▁대원들	-11.2862
▁서버	-11.2863
▁올라있	-11.2864
▁메카	-11.2864
▁유로화	-11.2864
▁걸었다	-11.2866
▁확산됐다	-11.2866
▁돌보	-11.2866
▁조그	-11.2867
▁can	-11.2867
먼트	-11.2868
rese	-11.2868
▁생선	-11.2868
▁구속됐다	-11.2868
▁위생	-11.287
▁결단	-11.287
▁소란	-11.2871
▁부각	-11.2871
▁시립	-11.2872
▁정통	-11.2873
▁배포	-11.288
▁매입	-11.2883
▁인자	-11.2884
▁악성	-11.2884
▁발표되지	-11.2884
▁재직	-11.289
▁앤드	-11.2892
작업이	-11.2894
▁투하	-11.2896
▁대개	-11.2902
▁몰린	-11.2906
▁스위	-11.2906
▁구조됐다	-11.2908
▁심정	-11.2909
▁양당	-11.2911
▁조카	-11.2913
▁고려할	-11.2913
▁앞당	-11.2913
▁자식	-11.2914
▁올바	-11.2917
▁공세	-11.2917
▁반란	-11.2917
▁비방	-11.292
▁파키스탄군	-11.2927
▁소유주	-11.2928
▁car	-11.2931
▁마신	-11.2931
▁골든	-11.2934
▁도구	-11.2936
▁상인들	-11.2937
▁연기됐다	-11.2939
▁로키	-11.294
▁말했었다	-11.2941
▁만찬에	-11.2941
▁발행	-11.2942
점이다	-11.2942
▁고민하	-11.2943
▁부족장	-11.2945
▁약품	-11.2946
end	-11.2948
▁신비	-11.2951
▁참사	-11.2955
▁단서	-11.2955
▁과시	-11.2966
▁진압하기	-11.297
▁개발도상국들	-11.2974
son	-11.2976
▁모욕	-11.2983
tan	-11.2988
▁유물	-11.2992
▁음식점	-11.2992
▁노린	-11.3002
▁힘들었	-11.3004
▁수의사	-11.3038
▁변했다	-11.3049
▁임원	-11.3055
▁캐리	-11.3058
▁환자에게	-11.3064
▁여행객	-11.3064
▁사회주의	-11.3064
▁시청자	-11.3079
▁유전적	-11.3082
보관소	-11.3088
▁거래되	-11.3115
학회	-11.3252
▁들어왔	-11.3311
▁베니	-11.3391
▁감행했	-11.3395
▁움직	-11.3438
▁밀리	-11.346
▁do	-11.3461
▁신체적	-11.3473
공화국	-11.3492
눈	-11.3493
투쟁	-11.3494
아일랜드	-11.3495
프로그램	-11.3497
딸	-11.3499
돈	-11.3499
환경	-11.3512
프레스	-11.3512
공개	-11.3521
업무	-11.3525
능력	-11.3531
증세	-11.3545
▁진압하	-11.3554
수술	-11.3555
ther	-11.3558
▁퇴원	-11.3566
방식	-11.357
▁남아있	-11.3583
벨트	-11.3589
역대	-11.3625
▁감시하	-11.3643
▁청년	-11.3685
pt	-11.3691
▁작동되	-11.3692
ead	-11.3696
▁보이기	-11.3733
▁노출되	-11.3735
▁테네시	-11.3735
▁dr	-11.3752
▁테러범들	-11.3753
▁변호	-11.3786
▁세포들	-11.3791
여금	-11.3812
▁이재민들	-11.3817
▁제공되	-11.3821
▁프란시스	-11.3828
하느냐	-11.3834
▁벌어졌	-11.3836
▁열렸	-11.3865
▁채굴	-11.3879
▁남쪽	-11.3883
▁부부들	-11.3888
▁필립	-11.3912
▁미시건	-11.3914
렐	-11.3918
셉	-11.3924
▁음료	-11.3925
▁알바니아	-11.3925
낭	-11.3927
▁islam	-11.3927
▁국제영화제	-11.3927
▁델라웨어	-11.3927
▁도로매설	-11.3927
▁라이베리아	-11.3927
▁마다가스카르	-11.3927
▁매카트니	-11.3927
▁상파울루	-11.3927
▁신용경색	-11.3927
▁아쿠아리움	-11.3927
▁알렉산드	-11.3927
▁요하네스버그	-11.3927
▁워터큐브	-11.3927
▁은자메나	-11.3927
▁핀란드	-11.3927
▁히스패닉	-11.3927
륜	-11.3927
셜	-11.3927
▁agenc	-11.3927
▁uae	-11.3927
▁건강검진	-11.3927
▁골든노리호	-11.3927
▁국제올림픽위원회	-11.3927
▁넣으	-11.3927
▁네그로폰테	-11.3927
▁네브라스카	-11.3927
▁넷스케이프	-11.3927
▁놀랐다	-11.3927
▁대량살상무기	-11.3927
▁머물렀다	-11.3927
▁미주리주	-11.3927
▁바티칸	-11.3927
▁베를루스코니	-11.3927
▁보디가드	-11.3927
▁불필요	-11.3927
▁블래터	-11.3927
▁싫어하	-11.3927
▁아흐메드	-11.3927
▁알깔드	-11.3927
▁알리탈리아	-11.3927
▁알자와히리	-11.3927
▁양귀비	-11.3927
▁오렌지민주운동	-11.3927
▁원정경기	-11.3927
▁이뤄져야	-11.3927
▁자바코뿔소	-11.3927
▁즈보나레바	-11.3927
▁지구온난화	-11.3927
▁청문회	-11.3927
▁최우수	-11.3927
▁카톨릭	-11.3927
▁캄푸쉬	-11.3927
▁콘크리트	-11.3927
▁크리스토퍼	-11.3927
▁크메르루즈	-11.3927
▁퍼트레이어스	-11.3927
▁프란체스카	-11.3927
▁항생물질	-11.3927
굽	-11.3927
륨	-11.3927
샷	-11.3927
윅	-11.3927
쥬	-11.3927
츄	-11.3927
▁russia	-11.3927
▁sun	-11.3927
▁각성위원회	-11.3927
▁구소련	-11.3927
▁무효화	-11.3927
▁방사능	-11.3927
▁싸이월드	-11.3927
▁우울증	-11.3927
▁유투브	-11.3927
▁클루니	-11.3927
▁트레제게	-11.3927
됨	-11.3927
증후군	-11.3927
▁당나귀	-11.3927
▁선제골	-11.3927
▁아침식사	-11.3927
▁우편물	-11.3927
▁지질조사	-11.3927
▁파라과이	-11.3927
▁가석방	-11.3928
▁바쿠바	-11.3928
▁신생아	-11.3928
▁장신구	-11.3928
▁전염병	-11.3928
▁즐긴다	-11.3928
▁목걸이	-11.3928
▁오초아	-11.3928
▁청원서	-11.3928
▁관람객들	-11.3928
▁주머니	-11.3928
▁코레아	-11.3928
▁트레이너	-11.3928
▁폭넓	-11.3928
▁심카드	-11.3928
▁루카스	-11.3928
▁만여명	-11.3928
헤럴드	-11.3928
▁앗아	-11.3928
▁백일해	-11.3928
▁도서관	-11.3928
▁메수드	-11.3928
▁아바타	-11.3928
▁이석씨	-11.3928
▁헌혈	-11.3928
▁상반기	-11.3928
▁식량위기	-11.3928
▁commission	-11.3928
▁순조롭	-11.3928
▁잉카	-11.3928
▁세비야	-11.3928
▁사마라	-11.3928
▁힐튼	-11.3928
▁봉착	-11.3928
▁카지노	-11.3928
▁범람	-11.3928
▁불상사	-11.3928
▁야자수	-11.3928
▁하반기	-11.3928
▁본거지	-11.3928
▁폭락했다	-11.3928
▁브루스	-11.3928
▁놀랍	-11.3928
▁개구리	-11.3928
도날드	-11.3928
▁시라크	-11.3928
▁곤경에	-11.3928
▁어쩔	-11.3928
▁염두	-11.3928
▁꺼내	-11.3928
▁페트로	-11.3928
▁침실	-11.3928
▁켄트	-11.3928
▁학습	-11.3928
▁로하스	-11.3928
▁침식	-11.3928
▁방수로	-11.3928
▁놓여있다	-11.3929
▁워렌	-11.3929
▁퇴치	-11.3929
▁수비수	-11.3929
▁망설	-11.3929
▁그린존	-11.3929
▁퇴장	-11.3929
▁항의시위	-11.3929
▁흘리	-11.3929
▁구조조정	-11.3929
▁열쇠	-11.3929
▁말보로	-11.3929
▁올라간다	-11.3929
▁간첩	-11.3929
▁복직	-11.3929
▁윤리적	-11.393
▁파이프	-11.393
▁프렌	-11.393
▁체첸	-11.393
▁활기	-11.393
▁해룡	-11.393
▁금연법	-11.393
▁스튜	-11.393
▁즐겼다	-11.393
▁not	-11.393
▁피해규모	-11.393
▁자살폭탄	-11.393
▁압축	-11.3931
▁알바니아계	-11.3931
▁망치	-11.3931
▁밀접	-11.3931
▁조셉	-11.3931
▁버렐	-11.3931
▁관광산업	-11.3931
▁연합통신	-11.3931
▁지도층	-11.3932
▁몸값	-11.3932
▁처형	-11.3932
▁기차역	-11.3932
▁os	-11.3932
▁자발적	-11.3932
▁머레이	-11.3932
▁타계했다	-11.3932
▁역임했	-11.3932
▁도둑	-11.3932
▁이슬람교도들	-11.3933
▁자치권	-11.3933
▁폭락하	-11.3933
▁샤리아	-11.3933
▁이민법	-11.3933
▁비공개	-11.3933
▁돌풍	-11.3933
▁star	-11.3933
▁검열	-11.3933
▁궁금	-11.3934
▁게시물	-11.3934
▁어부들	-11.3934
▁기획	-11.3935
▁보석금	-11.3935
▁밀집	-11.3936
▁암살사건	-11.3936
▁xp	-11.3936
▁검증	-11.3936
▁남겼다	-11.3936
▁바람직	-11.3937
▁물리치	-11.3937
▁카타르	-11.3937
▁폭등	-11.3937
▁태생	-11.3938
▁적대적	-11.3938
▁열정적	-11.3938
▁관측소	-11.3938
▁터너	-11.3938
▁콜린	-11.3938
▁소도시	-11.3938
▁암호화	-11.3939
▁사이클	-11.3939
▁개최되	-11.3939
▁감추	-11.394
▁ces	-11.394
▁카메	-11.3941
▁아웃	-11.3941
▁파월	-11.3941
▁포스터	-11.3941
▁파티마	-11.3942
▁북측	-11.3942
▁안젤	-11.3942
▁국가대표	-11.3942
own	-11.3943
▁던져	-11.3943
▁탈락	-11.3943
▁지갑	-11.3943
▁개헌	-11.3944
▁환경단체	-11.3944
▁체류	-11.3944
▁오전장에서	-11.3944
▁영역	-11.3945
▁십대	-11.3945
▁프로디	-11.3945
▁태워	-11.3945
▁애리조나주	-11.3945
bs	-11.3946
▁표본	-11.3946
▁이끈	-11.3946
▁병역	-11.3947
▁집권당	-11.3949
▁단절	-11.395
▁모색하	-11.3951
▁온실	-11.3952
▁돌발	-11.3954
▁세르비아계	-11.3954
▁외각	-11.3954
▁의장직	-11.3954
▁완성	-11.3955
▁호흡기	-11.3956
▁달렸다	-11.3958
▁대폭	-11.3958
▁종말론자들	-11.3958
▁지도력	-11.3959
▁카렌	-11.3959
▁플로	-11.3959
▁만남	-11.3961
▁들어온	-11.3961
▁반환	-11.3961
▁맺었다	-11.3961
널드	-11.3962
▁토레스	-11.3962
▁제다이	-11.3962
▁해커	-11.3963
▁부분적으로	-11.3965
▁기념일	-11.3966
▁에너지부	-11.3967
▁소방	-11.3967
▁돌아보	-11.3969
▁포경	-11.397
▁원격	-11.3971
▁연출	-11.3971
▁추위	-11.3972
▁별명	-11.3975
▁진술서	-11.3975
▁조업	-11.3976
▁주어지	-11.3978
▁화장	-11.3978
▁선동	-11.3979
▁소금	-11.398
▁하퍼	-11.3981
▁목성	-11.3983
▁밝혀내지	-11.3983
▁연관성	-11.3983
▁여기서	-11.3984
▁집계됐다	-11.3985
▁라민	-11.3985
▁우물	-11.3986
▁공통	-11.3986
▁자재	-11.3987
▁리터	-11.3987
▁교정	-11.3988
▁예측하기	-11.3989
▁감독관	-11.399
▁반격	-11.3991
▁고객들에게	-11.3992
▁정치국	-11.3993
▁분개	-11.3994
▁작품상	-11.3995
▁여권	-11.3996
▁자유당	-11.3996
▁과오	-11.3999
▁치타	-11.4004
▁인내	-11.4005
▁자란	-11.4012
▁해체	-11.4013
▁마리오	-11.4014
▁수감돼	-11.4024
용품	-11.404
▁펜실베이니아주	-11.4047
▁취했	-11.4051
갈아	-11.4053
▁대처하기	-11.4055
▁복장	-11.4062
▁던진	-11.4069
램	-11.4076
▁심리학	-11.409
▁생각된다	-11.4091
▁총회	-11.4091
▁기관사	-11.411
▁조심스럽	-11.4118
▁편집자	-11.4133
▁변수	-11.4136
▁착용하	-11.4138
▁보험사	-11.4177
old	-11.4188
▁알프레	-11.4189
▁움직였	-11.422
▁팔린	-11.4227
▁장악하	-11.423
tte	-11.4243
▁관대	-11.4246
▁등장했	-11.4275
▁민영	-11.4275
없	-11.4336
▁거기에	-11.4388
▁제공하기	-11.4392
uss	-11.4394
▁나와있	-11.4396
▁유대인들	-11.4416
음에	-11.4421
사이드	-11.4428
shing	-11.4449
▁만들었	-11.4479
▁설득하	-11.4544
▁왔습니	-11.4555
각기	-11.4569
▁공급되	-11.463
▁소지하	-11.4643
rk	-11.4674
작업을	-11.4696
▁동맹국들	-11.4696
▁이동하	-11.4699
▁새롭	-11.4715
흔	-11.4741
태평양	-11.4742
붙	-11.4745
카메라	-11.4747
테니스	-11.4747
핵	-11.4749
포인트	-11.4749
기자회견	-11.475
에너지	-11.4755
규모	-11.4757
방향	-11.4757
ome	-11.4774
모양	-11.4778
석유	-11.478
▁내려갔	-11.4839
▁마비되	-11.4847
▁서있	-11.4867
▁운영되	-11.4895
▁기술자들	-11.49
▁har	-11.491
cons	-11.4924
▁노인들	-11.4943
▁개발도상국	-11.4981
▁수사관들	-11.4997
스럽다	-11.5003
랑코	-11.5024
▁모욕적	-11.5032
▁걸렸	-11.5101
▁중단됐	-11.5108
▁세웠	-11.5113
▁생겨	-11.5132
▁극복하	-11.5134
▁우주비행	-11.5142
▁배우들	-11.5147
▁동물보호	-11.5159
뢰	-11.5164
▁엠마	-11.5165
▁준결승	-11.5168
겁	-11.5172
리포터	-11.5173
엇	-11.5174
ood	-11.5174
셋	-11.5175
▁다국적	-11.5175
쇠	-11.5175
벳	-11.5177
랙	-11.5177
펀	-11.5177
눌	-11.5177
갠	-11.5177
▁곤잘레스	-11.5177
▁국제우주정거장	-11.5177
▁농경지	-11.5177
▁당뇨병	-11.5177
▁도라에몽	-11.5177
▁뒷받침	-11.5177
▁디얄라	-11.5177
▁리투아니아	-11.5177
▁삽흐나니	-11.5177
▁식량부족	-11.5177
▁아틀란타	-11.5177
▁암스테르담	-11.5177
▁전년동기	-11.5177
▁조기총선	-11.5177
▁최첨단	-11.5177
▁출퇴근	-11.5177
▁클레이코트	-11.5177
▁페덜라인	-11.5177
▁활성화	-11.5177
▁휴전협정	-11.5177
궐	-11.5177
닛	-11.5177
뎀	-11.5177
둬	-11.5177
뜯	-11.5177
뜰	-11.5177
밭	-11.5177
엽	-11.5177
탬	-11.5177
퉁	-11.5177
틈	-11.5177
퍽	-11.5177
▁cjd	-11.5177
▁green	-11.5177
▁iraq	-11.5177
▁journal	-11.5177
▁london	-11.5177
▁rdr	-11.5177
▁unep	-11.5177
▁wild	-11.5177
▁가브리엘	-11.5177
▁강제진압	-11.5177
▁곤돌라	-11.5177
▁군사행동	-11.5177
▁끔찍	-11.5177
▁남동생	-11.5177
▁내비쳤	-11.5177
▁내셔널	-11.5177
▁떨어뜨리	-11.5177
▁리더십	-11.5177
▁모나리자	-11.5177
▁미네소타	-11.5177
▁보조식품	-11.5177
▁빌라로사	-11.5177
▁사파테로	-11.5177
▁생태계	-11.5177
▁숭례문	-11.5177
▁스크래블	-11.5177
▁실잰더	-11.5177
▁아보카도	-11.5177
▁악천후	-11.5177
▁앞질렀	-11.5177
▁애니메이션	-11.5177
▁애틀란타	-11.5177
▁에비니르	-11.5177
▁옥수수	-11.5177
▁올림피	-11.5177
▁재검표	-11.5177
▁조직폭력배	-11.5177
▁첩보위성	-11.5177
▁추수감사절	-11.5177
▁카자흐스탄	-11.5177
▁컨소시엄	-11.5177
▁클리블랜드	-11.5177
▁키티호크	-11.5177
▁타이타닉	-11.5177
▁텔레비전	-11.5177
▁통합러시아당	-11.5177
▁틀림없	-11.5177
▁파나마시티	-11.5177
▁파라마운트	-11.5177
▁프로듀서	-11.5177
▁항셍지수	-11.5177
▁헬리콥터	-11.5177
▁현수막	-11.5177
▁화물열차	-11.5177
럿	-11.5177
메르세데스	-11.5177
볍	-11.5177
슘	-11.5177
인터내셔널	-11.5177
잎	-11.5177
젼	-11.5177
튠	-11.5177
퐁	-11.5177
▁corp	-11.5177
▁르부크	-11.5177
▁마닐라	-11.5177
▁마돈나	-11.5177
▁마리네오	-11.5177
▁반독점	-11.5177
▁불가사리	-11.5177
▁빈센트	-11.5177
▁스튜어트	-11.5177
▁저작권	-11.5177
▁제퍼슨	-11.5177
▁진상조사	-11.5177
▁칼데론	-11.5177
▁타임스퀘어	-11.5177
▁터무니	-11.5177
▁합법화	-11.5177
▁현충일	-11.5177
▁환경오염	-11.5177
▁검시관	-11.5177
▁느껴	-11.5177
▁벤자민	-11.5177
▁비정상적	-11.5177
▁비틀즈	-11.5177
▁심각성	-11.5177
▁요즈음	-11.5177
▁키드록	-11.5177
▁나폴리	-11.5178
▁니콜리치	-11.5178
▁도요타	-11.5178
▁소더비	-11.5178
▁식민지	-11.5178
▁친서방	-11.5178
▁다이어트	-11.5178
▁세계식량	-11.5178
▁영사관	-11.5178
▁하누만	-11.5178
▁나스닥	-11.5178
▁칼리아리	-11.5178
▁현기증	-11.5178
▁볼쇼이	-11.5178
▁주경기장	-11.5178
▁피카소	-11.5178
▁눈보라	-11.5178
▁마코니	-11.5178
▁파이프라인	-11.5178
▁행크스	-11.5178
릅니다	-11.5178
▁슐츠	-11.5178
▁접어들	-11.5178
▁원동력	-11.5178
▁스캔들	-11.5178
▁포브스	-11.5178
▁정부청사	-11.5178
▁깁스	-11.5178
▁부드러	-11.5178
학저널	-11.5178
▁빌크스	-11.5178
▁간호사	-11.5178
▁자서전	-11.5178
▁계절적	-11.5178
▁갱단	-11.5178
▁예방주사	-11.5178
▁카펫	-11.5178
▁냉장고	-11.5178
슬라브	-11.5178
▁줄어든	-11.5178
▁운전기사	-11.5178
▁활력	-11.5178
▁헌터	-11.5178
▁즐겁	-11.5178
▁붙어있	-11.5178
▁다이빙	-11.5178
▁남아메리카	-11.5178
▁투자은행	-11.5178
▁화학물질	-11.5178
▁보았습니	-11.5178
▁윈저	-11.5178
▁휘슬러	-11.5178
▁부녀자	-11.5178
▁말리크	-11.5178
▁스크린	-11.5178
▁등뼈	-11.5178
▁만수르	-11.5178
재단	-11.5178
▁프로이드	-11.5178
▁peta	-11.5178
▁베이징올림픽	-11.5178
▁자백했다	-11.5178
▁발레리	-11.5178
▁징크	-11.5178
▁켈러	-11.5178
▁금융사고	-11.5178
▁엄중	-11.5178
▁소방당국	-11.5178
▁보복공격	-11.5179
▁선데이	-11.5179
▁키에프	-11.5179
뱅크	-11.5179
▁연못	-11.5179
▁종식시키기	-11.5179
다닌다	-11.5179
▁아빠	-11.5179
▁뜨거	-11.5179
▁떼어	-11.5179
▁아름다움	-11.5179
▁리베리	-11.5179
▁델타항공	-11.5179
▁노숙자	-11.5179
▁프로필	-11.5179
▁축조	-11.5179
▁알파한	-11.5179
▁불러일으키	-11.5179
▁날아가	-11.518
▁라파베	-11.518
▁충성	-11.518
▁헌장	-11.518
▁티켓	-11.518
▁데이먼	-11.518
▁탈퇴	-11.518
▁보호구역	-11.518
▁tsa	-11.518
▁검찰총장	-11.518
▁슈퍼볼	-11.518
▁클릭	-11.518
▁밤새	-11.5181
코맥	-11.5181
▁과잉	-11.5181
▁브릿	-11.5181
▁진압경찰	-11.5181
▁face	-11.5181
▁날카로	-11.5181
▁복부	-11.5182
▁바람직하다	-11.5182
▁내보냈	-11.5182
▁죠지	-11.5182
▁인수가격	-11.5182
두아르	-11.5182
▁가르쳐	-11.5182
▁낫다	-11.5182
reven	-11.5182
▁니켈	-11.5182
▁우호적	-11.5182
▁파틸	-11.5182
▁무엇인지	-11.5182
▁총알	-11.5183
▁입후보	-11.5183
▁인권문제	-11.5183
▁액수	-11.5183
▁폐허	-11.5183
▁납품	-11.5183
▁이어나가	-11.5183
▁면밀	-11.5183
▁비겁	-11.5183
▁삼엄	-11.5183
▁귀순	-11.5183
▁계단	-11.5183
▁보안요원	-11.5183
▁bot	-11.5184
▁왕족	-11.5184
▁삼림	-11.5184
▁기부금	-11.5184
▁선호하	-11.5184
iz	-11.5185
▁살처분	-11.5185
▁누구인지	-11.5185
▁다짐했	-11.5185
▁인텔	-11.5185
▁최고법원	-11.5186
▁쿠르드족	-11.5186
▁관례	-11.5186
▁디젤	-11.5186
첸코	-11.5186
▁조사관들	-11.5186
▁대선결과	-11.5187
▁몰렸다	-11.5187
▁닫았	-11.5187
▁일본은행	-11.5187
▁루빈	-11.5187
▁불황	-11.5188
▁숨겨	-11.5188
▁토론토	-11.5188
▁정황	-11.5188
▁합작	-11.5189
▁앨런	-11.5189
▁약화시키	-11.519
▁발효	-11.519
▁스리랑카군	-11.519
▁철강	-11.519
▁텔레	-11.519
▁클린	-11.519
▁엔론	-11.5191
▁뉴저지주	-11.5191
스테이트	-11.5191
▁토탈	-11.5192
▁놀란	-11.5192
▁성생활	-11.5192
▁관절	-11.5192
▁입찰	-11.5192
▁다닐	-11.5193
▁조사결과	-11.5193
▁주치의	-11.5193
▁사촌	-11.5193
▁지닌	-11.5194
▁신념	-11.5194
▁잠입	-11.5194
▁red	-11.5195
▁마우스	-11.5195
▁샤론	-11.5195
▁연습	-11.5196
▁삼판	-11.5196
▁gb	-11.5196
▁평온	-11.5196
▁공백	-11.5197
▁소변	-11.5197
▁추격	-11.5197
▁창출	-11.5197
▁라이브	-11.5197
▁행방	-11.5198
▁유사하다	-11.52
▁장외	-11.5201
▁새겨	-11.5202
▁왔었다	-11.5202
▁chin	-11.5203
▁교역	-11.5203
▁버린다	-11.5203
평균지수	-11.5203
▁예선전	-11.5203
▁상환	-11.5204
돌프	-11.5205
▁모텔	-11.5207
▁복도	-11.5207
▁메이어	-11.5207
▁말해주	-11.5208
▁부시대통령	-11.5208
각형	-11.5209
▁충분하다	-11.5211
▁나름	-11.5211
▁뉴햄프셔주	-11.5212
▁회복세	-11.5212
▁mg	-11.5212
ash	-11.5212
▁속출	-11.5215
▁소령	-11.5215
▁왕정	-11.5215
▁조립	-11.5216
▁포격	-11.5216
▁표심	-11.5216
▁타케	-11.5216
▁쇼크	-11.5217
▁치료법	-11.5217
▁테디	-11.5218
▁단호	-11.522
▁개혁안	-11.522
▁나간다	-11.5222
▁지표	-11.5222
▁예정됐	-11.5224
▁주장했었다	-11.523
▁직위	-11.5231
작업에	-11.5236
▁뛰었	-11.5243
▁숙제	-11.5245
dise	-11.5256
▁hav	-11.5273
lay	-11.5282
▁이끌어내	-11.5311
▁취급하	-11.535
ong	-11.5362
▁근본적	-11.5362
놓는다	-11.5364
인민당	-11.5385
▁해당한다	-11.5389
▁사랑한다	-11.54
▁관료들	-11.5404
▁지연되	-11.5483
▁어려웠	-11.5486
감시단	-11.5544
▁잡았	-11.5546
▁소행이라	-11.558
▁해결되	-11.5595
▁경비원들	-11.56
▁도처에	-11.5616
▁측근들	-11.5652
▁붕괴되	-11.5701
▁종업원	-11.5805
▁chu	-11.6078
▁세워졌	-11.6145
▁사랑하	-11.6152
휘	-11.6156
벗	-11.6169
즐	-11.6173
▁따냈	-11.6174
쥐	-11.6175
민족	-11.6177
착륙	-11.6178
밤	-11.6178
분쟁	-11.6179
뒤	-11.6179
eop	-11.6202
비행기	-11.6227
▁심리적	-11.6245
엑	-11.6249
iba	-11.6305
▁선출되	-11.6321
▁통과하	-11.6326
▁대학생들	-11.6339
▁sho	-11.6349
▁감염되	-11.6396
gue	-11.6447
▁파손됐	-11.6489
▁떠났	-11.6504
▁경쟁자들	-11.6512
▁들어갔	-11.6523
▁보여준	-11.6526
tric	-11.6531
룩	-11.6546
▁내려졌	-11.655
▁밝혀졌	-11.6551
▁의뢰	-11.6557
ture	-11.6559
▁종말론	-11.657
▁상징적	-11.6591
하메드	-11.6597
낫	-11.6601
튜	-11.6602
짖	-11.6603
▁불러일으	-11.6604
콧	-11.6605
클라렌	-11.6605
▁살모넬라	-11.6606
괄	-11.6606
멈	-11.6606
앵	-11.6606
▁뭄바이	-11.6606
▁산악지대	-11.6606
▁새크라멘토	-11.6606
윙	-11.6606
awa	-11.6606
communications	-11.6606
▁free	-11.6606
▁gartner	-11.6606
▁health	-11.6606
▁high	-11.6606
▁kurdis	-11.6606
▁society	-11.6606
▁zoe	-11.6606
▁경기부양책	-11.6606
▁곤살레스	-11.6606
▁과테말라	-11.6606
▁급상승	-11.6606
▁나뭇가지	-11.6606
▁냉각탑	-11.6606
▁네델란드	-11.6606
▁노동조합	-11.6606
▁되찾았	-11.6606
▁디트로이트	-11.6606
▁롤러코스터	-11.6606
▁맨하탄	-11.6606
▁몬태나	-11.6606
▁무그니예	-11.6606
▁밀랍인형	-11.6606
▁밀매업자	-11.6606
▁보안검색	-11.6606
▁부끄러	-11.6606
▁비단뱀	-11.6606
▁비무장지대	-11.6606
▁비핵화	-11.6606
▁뽑아냈	-11.6606
▁사육사들	-11.6606
▁상트페테르부르크	-11.6606
▁샐러드	-11.6606
▁생물연료	-11.6606
▁스나입스	-11.6606
▁스몰츠	-11.6606
▁실리콘	-11.6606
▁심각해지	-11.6606
▁아라우조	-11.6606
▁아르데코	-11.6606
▁아제르바이잔	-11.6606
▁얀코비치	-11.6606
▁언젠가	-11.6606
▁엘리베이터	-11.6606
▁원자력발전소	-11.6606
▁유칼립투스	-11.6606
▁인수합병	-11.6606
▁정찰위성	-11.6606
▁주립대학	-11.6606
▁중동평화회담	-11.6606
▁최루가스	-11.6606
▁카트만두	-11.6606
▁캐즈미어책	-11.6606
▁코뿔소	-11.6606
▁쿠알라룸푸르	-11.6606
▁클레멘스	-11.6606
▁테헤란	-11.6606
▁토튼햄	-11.6606
▁펀자브	-11.6606
▁페샤와르	-11.6606
▁폴리트코프스	-11.6606
▁플레이스테이션	-11.6606
▁해밀턴	-11.6606
▁허탈감	-11.6606
▁헬로키티	-11.6606
▁홈구장	-11.6606
▁휴먼라이츠워치	-11.6606
▁히말라야	-11.6606
겹	-11.6606
꽉	-11.6606
농축우라늄	-11.6606
늄	-11.6606
돋	-11.6606
룽	-11.6606
윰	-11.6606
캇	-11.6606
킷	-11.6606
텀	-11.6606
텍	-11.6606
툰	-11.6606
핍	-11.6606
▁group	-11.6606
▁knu	-11.6606
▁unhcr	-11.6606
▁공격목표	-11.6606
▁국토안보	-11.6606
▁그라운드	-11.6606
▁매출액	-11.6606
▁복음주의	-11.6606
▁브리핑	-11.6606
▁산유량	-11.6606
▁셰이크	-11.6606
▁알레한드	-11.6606
▁오케스트라	-11.6606
▁유네스코	-11.6606
▁자메이카	-11.6606
▁추돌사고	-11.6606
▁트레일러	-11.6606
▁패터슨	-11.6606
▁플래카드	-11.6606
뎁	-11.6606
엎	-11.6606
파이낸셜	-11.6606
able	-11.6606
▁aey	-11.6606
▁gps	-11.6606
▁ppk	-11.6606
▁금강산	-11.6606
▁기븐스	-11.6606
▁머리카락	-11.6606
▁발명품	-11.6606
▁베이루트	-11.6606
▁숭배	-11.6606
▁스폰서	-11.6606
▁음주운전	-11.6606
▁이스터섬	-11.6606
▁자외선	-11.6606
▁코알라	-11.6606
▁크누트	-11.6606
▁튜닝	-11.6606
▁형무소	-11.6606
▁떠오르	-11.6606
▁로드맵	-11.6606
▁반테러	-11.6606
▁등소평	-11.6606
▁재산피해	-11.6606
▁규칙	-11.6606
▁노르가이	-11.6606
▁대테러	-11.6606
▁엑손	-11.6606
▁꿀벌	-11.6606
▁멕시코시티	-11.6606
▁물대포	-11.6606
▁장기기증	-11.6606
▁dax	-11.6606
▁쇼핑객들	-11.6606
▁개회식	-11.6606
▁노던록	-11.6606
▁비키니	-11.6606
▁순이익	-11.6606
▁asean	-11.6606
▁선진국	-11.6606
▁쓰나미	-11.6606
▁다이버들	-11.6606
▁라보프	-11.6606
▁모레노	-11.6606
▁테이블	-11.6606
▁혼잡	-11.6606
▁take	-11.6606
▁옥외	-11.6606
▁총기소지	-11.6606
▁남동쪽	-11.6606
▁사로잡	-11.6606
▁튜브	-11.6606
▁대리석	-11.6606
▁백만장자	-11.6606
▁취득	-11.6606
▁태어나	-11.6606
▁파블로	-11.6606
▁습득	-11.6606
▁베이촨	-11.6606
▁씨앗	-11.6606
▁이벤트	-11.6606
▁포괄적	-11.6606
▁부르니와	-11.6606
▁카탕가	-11.6606
웨일즈	-11.6606
▁exp	-11.6606
▁오마하	-11.6606
▁cac	-11.6606
▁출몰	-11.6606
▁대장정	-11.6606
▁함부르크	-11.6606
▁해파리	-11.6606
▁투표용지	-11.6606
▁수수료	-11.6606
▁국방위원장	-11.6606
▁순다라	-11.6607
▁blue	-11.6607
▁딜러	-11.6607
▁마운트	-11.6607
트로폴리	-11.6607
▁착각	-11.6607
▁리스본	-11.6607
▁로얄	-11.6607
▁종합병원	-11.6607
▁북아일랜드	-11.6607
▁퇴직	-11.6607
▁선두주자	-11.6607
▁여행가방	-11.6607
▁주니어	-11.6607
▁어렸을	-11.6607
▁레이나도	-11.6607
▁욕실	-11.6607
▁추산되	-11.6607
▁가오리	-11.6607
▁rbs	-11.6607
▁선발대회	-11.6607
▁틸리	-11.6607
▁꼬리표	-11.6607
▁유대관계	-11.6607
▁국회의장	-11.6607
▁안와르	-11.6608
▁행정장관	-11.6608
▁출두	-11.6608
클라라	-11.6608
도르프	-11.6608
▁히드라	-11.6608
▁고아원	-11.6608
▁화장품	-11.6608
▁남아시아	-11.6609
▁달아나	-11.6609
▁부정행위	-11.6609
▁필립공	-11.6609
▁구축함	-11.6609
▁메이드	-11.6609
연금개혁	-11.6609
▁계급	-11.6609
▁흔들림	-11.6609
▁짖지	-11.6609
▁서두르	-11.6609
▁몰려들었	-11.6609
▁원유가격	-11.6609
▁보건장관	-11.6609
▁폭력시위	-11.6609
▁고릴라	-11.6609
▁up	-11.6609
▁이틀째	-11.661
▁중단되	-11.661
▁창녀	-11.661
▁용암	-11.661
▁다가오	-11.661
▁휴먼	-11.661
▁농업단체	-11.661
▁권좌	-11.661
▁층짜리	-11.661
▁위성방송	-11.661
▁만화책	-11.661
▁감기약	-11.661
▁근접	-11.661
▁퍼팅	-11.661
▁철폐	-11.661
▁탁자	-11.661
▁총기사건	-11.6611
▁알아냈다	-11.6611
▁웃음	-11.6611
▁반다나	-11.6611
▁적혀있	-11.6611
▁근무시간	-11.6611
▁애국심	-11.6611
▁sex	-11.6611
▁태양열	-11.6611
▁디즈니랜드	-11.6611
▁잡혔다	-11.6611
▁불쾌감	-11.6611
▁벌어질	-11.6612
▁영화제작	-11.6612
▁러브	-11.6612
▁증대	-11.6612
▁여배우	-11.6612
▁생방송	-11.6612
▁설비	-11.6613
▁타바스코주	-11.6613
▁사라져	-11.6613
▁크리스탈	-11.6613
▁총격사건	-11.6613
▁스마트	-11.6613
▁나아가	-11.6613
▁호황	-11.6614
▁led	-11.6614
▁완강	-11.6614
▁오클라호마주	-11.6614
▁환경운동	-11.6614
링턴	-11.6615
▁편견	-11.6615
▁십년	-11.6615
▁도발적	-11.6615
▁치러졌다	-11.6615
▁변호인단	-11.6615
▁환경문제	-11.6616
▁원활	-11.6616
▁응급실	-11.6616
▁커튼	-11.6616
▁국영통신	-11.6616
▁제휴	-11.6616
▁음료수	-11.6616
▁테러공격	-11.6617
▁wta	-11.6617
▁취하겠다	-11.6618
▁유로스타	-11.6618
▁발송	-11.6618
▁군사정부	-11.6618
▁망명정부	-11.6618
▁anc	-11.662
▁야채	-11.662
▁해킹	-11.662
▁영예	-11.662
▁데이브	-11.662
▁브렌	-11.6621
▁농지	-11.6621
▁평화회의	-11.6621
▁마텔	-11.6622
▁맞았으	-11.6623
▁벌목	-11.6623
▁답신	-11.6623
fic	-11.6623
▁잠겨	-11.6623
▁루머	-11.6624
▁종목	-11.6625
▁진열	-11.6625
▁보수당	-11.6625
▁엔카	-11.6625
▁조직원들	-11.6625
▁통상적	-11.6626
▁물리적	-11.6628
▁현명하	-11.6628
▁운용	-11.6628
aba	-11.6628
▁혼인	-11.6629
▁종사하	-11.6632
▁부의장	-11.6632
▁폭도들	-11.6632
▁발령했	-11.6637
▁장애물	-11.6641
▁남겨놓	-11.6658
▁이례적	-11.666
▁여러분들	-11.6668
▁만족스럽	-11.6698
▁피의자들	-11.6699
▁합의했으	-11.6702
여객	-11.6719
▁다가왔	-11.6733
▁연결하	-11.6735
물리학	-11.676
▁고백했	-11.6762
▁conf	-11.6787
▁몰아내	-11.6795
▁거주지역	-11.681
구균	-11.6831
▁효과적	-11.6846
▁물러났	-11.6878
아이돌	-11.6907
▁부여하	-11.6924
▁방영되	-11.6926
▁섭취하	-11.6936
극적으로	-11.6983
▁셀레	-11.7056
▁인종차별	-11.7091
▁thi	-11.7142
come	-11.7142
▁간주되	-11.7165
▁회복되	-11.722
▁수퍼대의원들	-11.7247
▁흔들었	-11.7251
▁무차별적	-11.7254
▁발견되었	-11.7327
ull	-11.7377
▁의학적	-11.7478
해상도	-11.7521
▁arc	-11.7608
▁인종차별적	-11.7729
▁지연됐	-11.7762
▁이루어졌	-11.7814
맹	-11.7822
꾸	-11.7832
앨	-11.7836
빅	-11.7838
꽃	-11.7838
수사관	-11.7838
킬로미터	-11.7839
보좌관	-11.784
옷	-11.784
개혁	-11.7842
라디오	-11.7842
아프리카	-11.7842
박물관	-11.7843
▁진정시키	-11.7991
▁지면에	-11.8068
▁저항하	-11.8097
dom	-11.8129
▁저질렀	-11.8171
ful	-11.8195
▁나타냈	-11.8199
▁돌아갔	-11.8204
뤘	-11.8212
▁드러냈	-11.8219
istr	-11.8221
▁알려졌	-11.8227
략	-11.8235
컷	-11.8236
끔	-11.826
▁컬럼비아	-11.8262
랍	-11.8263
▁오클라호마	-11.8263
봇	-11.8266
렘	-11.8267
섹	-11.8272
왓	-11.8273
캄	-11.8273
퀘	-11.8273
▁academ	-11.8273
▁비벌리힐	-11.8273
▁슈퍼마켓	-11.8273
갓	-11.8273
눅	-11.8273
상임이사국	-11.8273
줌	-11.8273
캘	-11.8273
▁aipac	-11.8273
▁australia	-11.8273
▁bagh	-11.8273
▁foundation	-11.8273
▁franc	-11.8273
▁medic	-11.8273
▁mrsa	-11.8273
▁out	-11.8273
▁picture	-11.8273
▁rim	-11.8273
▁royal	-11.8273
▁sadc	-11.8273
▁science	-11.8273
▁service	-11.8273
▁unicef	-11.8273
▁vcr	-11.8273
▁격납고	-11.8273
▁고공행진	-11.8273
▁고생물학자	-11.8273
▁고속열차	-11.8273
▁공상과학	-11.8273
▁공중보건	-11.8273
▁관영언론	-11.8273
▁교통체증	-11.8273
▁국부펀드	-11.8273
▁국제원자력기구	-11.8273
▁국제적십자사	-11.8273
▁그레이하운드	-11.8273
▁기가바이트	-11.8273
▁기름유출	-11.8273
▁기폭장치	-11.8273
▁깅그리치	-11.8273
▁너구리	-11.8273
▁노바티스	-11.8273
▁놀이공원	-11.8273
▁농무부	-11.8273
▁뉘른베르크	-11.8273
▁니스텔로이	-11.8273
▁닌텐도	-11.8273
▁다큐멘터리	-11.8273
▁대체육류	-11.8273
▁댈러글리오	-11.8273
▁더글러스	-11.8273
▁독극물	-11.8273
▁동성결혼	-11.8273
▁동예루살렘	-11.8273
▁라파예트	-11.8273
▁레드삭스	-11.8273
▁로스앤젤레스	-11.8273
▁르윈스키	-11.8273
▁리더쉽	-11.8273
▁말레이지아	-11.8273
▁맞교환	-11.8273
▁매리너스	-11.8273
▁멜버른	-11.8273
▁몽고메리	-11.8273
▁무기징역	-11.8273
▁무력충돌	-11.8273
▁미니홈피	-11.8273
▁밴코마이신	-11.8273
▁밴쿠버	-11.8273
▁베스메르트노바	-11.8273
▁보궐선거에	-11.8273
▁부에노스아이레스	-11.8273
▁부정부패	-11.8273
▁브랙스톤	-11.8273
▁비아그라	-11.8273
▁삭사이후만	-11.8273
▁상파울로	-11.8273
▁성매매	-11.8273
▁성형수술	-11.8273
▁소련연방	-11.8273
▁소아마비	-11.8273
▁스프링스틴	-11.8273
▁시에라리온	-11.8273
▁식이요법	-11.8273
▁식품의약국	-11.8273
▁아이스크림	-11.8273
▁아흐마디네자드	-11.8273
▁알마스리	-11.8273
▁알츠하이머	-11.8273
▁알크마르	-11.8273
▁앨라배마	-11.8273
▁양쯔강	-11.8273
▁얼마만큼	-11.8273
▁에스토니아	-11.8273
▁엑셀로드	-11.8273
▁엔데버호	-11.8273
▁여장남자	-11.8273
▁연두교서	-11.8273
▁연립정부	-11.8273
▁옥시전	-11.8273
▁온타리오	-11.8273
▁외신기자들	-11.8273
▁유방암	-11.8273
▁이사벨라	-11.8273
▁이스탄불	-11.8273
▁인권탄압	-11.8273
▁자랑스러워	-11.8273
▁자이언트	-11.8273
▁장바이러스	-11.8273
▁잿더미	-11.8273
▁전국대표대회	-11.8273
▁정착촌	-11.8273
▁제너럴	-11.8273
▁제이콥스	-11.8273
▁중도좌파	-11.8273
▁체르노빌	-11.8273
▁체육관	-11.8273
▁치나왓	-11.8273
▁카르발라	-11.8273
▁카리브해	-11.8273
▁켄자스	-11.8273
▁콜레스테롤	-11.8273
▁쿠즈네트소브	-11.8273
▁클리브랜드	-11.8273
▁티크리트	-11.8273
▁페트로카리브	-11.8273
▁펜실베니아	-11.8273
▁평화협정	-11.8273
▁프래쳇	-11.8273
▁플랫폼	-11.8273
▁피그미하마	-11.8273
▁한투코바	-11.8273
▁할아버지	-11.8273
▁합참의장	-11.8273
▁해안경비대	-11.8273
▁핵실험	-11.8273
▁헐리우드	-11.8273
▁헨드릭스	-11.8273
▁헬만드	-11.8273
▁호나우디뉴	-11.8273
▁혹등고래	-11.8273
▁휘두르	-11.8273
꿨	-11.8273
넥	-11.8273
딤	-11.8273
렝	-11.8273
맙	-11.8273
멧	-11.8273
뭘	-11.8273
뮬	-11.8273
벅	-11.8273
샅	-11.8273
샨	-11.8273
셍	-11.8273
숍	-11.8273
싹	-11.8273
짱	-11.8273
팡	-11.8273
ologic	-11.8273
▁boa	-11.8273
▁dhs	-11.8273
▁kiss	-11.8273
▁mba	-11.8273
▁sky	-11.8273
▁suv	-11.8273
▁골동품	-11.8273
▁귀성객	-11.8273
▁뒤따라	-11.8273
▁로빈슨	-11.8273
▁마약밀매	-11.8273
▁밀워키	-11.8273
▁북대서양	-11.8273
▁사드르시티	-11.8273
▁온슬로우	-11.8273
▁음란물	-11.8273
▁이슬라믹	-11.8273
▁잠재력	-11.8273
▁전범재판소	-11.8273
▁차이나데일리	-11.8273
▁캐스팅	-11.8273
▁클래스	-11.8273
▁핵연료	-11.8273
▁현지언론	-11.8273
▁홀리필드	-11.8273
▁경질유	-11.8273
▁깃털	-11.8273
▁맨체스터시티	-11.8273
▁방위군	-11.8273
▁백화점	-11.8273
▁벤제마	-11.8273
▁생일파티	-11.8273
▁세부사항	-11.8273
▁시트콤	-11.8273
▁신뢰수준에	-11.8273
▁여중생	-11.8273
▁존엄성	-11.8273
▁총파업	-11.8273
▁카마초	-11.8273
▁콜레라	-11.8273
▁더블린	-11.8273
▁동정심	-11.8273
▁서안지구	-11.8273
▁세척제	-11.8273
▁엘도라도	-11.8273
▁요세프	-11.8273
▁청소차	-11.8273
▁대헌장	-11.8273
▁메추리	-11.8273
▁미켈슨	-11.8273
▁불태우	-11.8273
▁생화학	-11.8273
▁헤드라인	-11.8273
▁탐지기	-11.8273
▁대선레이스	-11.8273
▁버클리	-11.8273
▁애도기간	-11.8273
▁북동쪽	-11.8273
▁체스판	-11.8273
▁통신위성	-11.8273
▁퇴근하	-11.8273
▁다둘라	-11.8273
▁왓슨	-11.8273
▁픽톤	-11.8273
▁마부노	-11.8273
▁어워드	-11.8273
▁meet	-11.8273
▁마피아	-11.8273
▁뮤직	-11.8273
▁조연상	-11.8273
▁과수원	-11.8273
▁엘비스	-11.8273
▁차세대	-11.8273
▁추산된다	-11.8273
▁헌팅	-11.8273
▁안테나	-11.8273
▁하모니	-11.8273
▁전동차	-11.8273
▁침착하	-11.8273
▁캐롤라인	-11.8273
▁하기비스	-11.8273
▁girl	-11.8273
▁스케줄	-11.8273
▁비너스	-11.8273
▁산유국	-11.8273
▁south	-11.8273
▁구치소	-11.8273
▁베일리	-11.8273
▁제롤라	-11.8273
▁지혈대	-11.8273
▁추종자들	-11.8273
▁핵위기	-11.8273
▁내세우	-11.8273
에이전시	-11.8273
▁리베라	-11.8273
▁기다렸다	-11.8273
▁하이킹	-11.8273
▁금융위기	-11.8273
▁라이언에어	-11.8273
▁폐렴	-11.8273
▁봉송주자	-11.8273
▁무자비	-11.8273
▁러셀	-11.8273
▁지중해	-11.8273
▁우체국	-11.8273
▁춘절	-11.8273
▁네이더	-11.8273
▁펀드	-11.8273
시빌리	-11.8273
▁사형선고	-11.8273
▁의정서	-11.8273
▁폭력배들	-11.8273
▁반세기	-11.8273
▁희미	-11.8273
▁숨어있	-11.8273
▁존중한다	-11.8273
▁장래에	-11.8273
▁사진작가	-11.8273
▁출현	-11.8273
▁히트곡	-11.8274
▁파레이라	-11.8274
▁셀틱	-11.8274
▁설욕	-11.8274
▁aids	-11.8274
▁완패	-11.8274
▁자욱	-11.8274
▁체인점	-11.8274
▁미립자	-11.8274
▁출근	-11.8274
▁충실	-11.8274
▁테니스대회	-11.8274
▁맥클라렌	-11.8274
▁그만두	-11.8274
▁재가동	-11.8274
▁규명	-11.8274
▁대명사	-11.8274
▁정전사태	-11.8274
기동대	-11.8274
▁깨닫	-11.8274
▁좌우	-11.8274
▁내세웠	-11.8274
▁물고문	-11.8274
▁쥐스틴	-11.8274
▁타이슨	-11.8274
▁생략	-11.8274
▁아와미	-11.8274
슈타인	-11.8274
▁good	-11.8274
▁농구	-11.8274
▁부모님	-11.8274
▁버핏	-11.8275
▁출격	-11.8275
▁마지드	-11.8275
▁속옷	-11.8275
▁취미	-11.8275
▁수석대표	-11.8275
rida	-11.8275
▁갖췄	-11.8275
마커스	-11.8275
▁탈옥	-11.8275
▁선보인다	-11.8275
▁고위인사	-11.8275
▁죄악	-11.8275
▁food	-11.8275
▁평의회	-11.8275
▁휘말	-11.8275
▁낮췄	-11.8275
▁환영행사	-11.8275
▁기념행사	-11.8275
▁진흙	-11.8275
▁도미니카	-11.8275
헤르만	-11.8275
▁콤스	-11.8275
▁연료공급	-11.8275
▁nhk	-11.8276
▁학급	-11.8276
▁폭발사고	-11.8276
▁부유층	-11.8276
▁습성	-11.8276
▁용도로	-11.8276
▁하노이	-11.8276
▁에밀리	-11.8276
▁sag	-11.8277
▁움직여	-11.8277
▁천억	-11.8277
▁lpg	-11.8277
▁거론되	-11.8277
▁벗겨	-11.8277
▁출산율	-11.8277
▁뉴먼	-11.8277
▁수자원	-11.8277
▁꺼리	-11.8277
▁방패	-11.8277
▁소방차	-11.8277
▁십자가	-11.8277
▁과도정부	-11.8277
▁투옥	-11.8278
▁전자거래	-11.8279
▁청소하	-11.8279
▁대표이사	-11.8281
▁프러	-11.8283
▁금전적	-11.8285
▁후계자	-11.8287
▁소매업자들	-11.8288
작가협회	-11.8292
ube	-11.8293
ward	-11.8296
▁존중하	-11.8297
홍보대사	-11.8303
▁키스하	-11.8304
lim	-11.8307
line	-11.8314
▁거론하	-11.8318
▁ver	-11.8324
▁sea	-11.8333
중앙통신	-11.8338
테이션	-11.8363
▁tri	-11.8368
▁흥미롭	-11.8381
ips	-11.8383
▁익스	-11.8393
▁조장하	-11.8397
▁야기시키	-11.8458
▁비상대책	-11.847
부르크	-11.8484
▁고생하	-11.8508
▁이송되	-11.8522
▁수식하	-11.8522
▁모여있	-11.8528
▁가장자리	-11.8541
▁실려있	-11.8556
▁처해있	-11.8556
▁고통스럽	-11.8617
▁esta	-11.8626
▁상징하	-11.8637
▁화답	-11.8648
▁토로하	-11.8658
▁발표되	-11.88
공동체	-11.895
▁처해졌	-11.8984
▁용이하	-11.8988
▁해산시키	-11.9002
▁rom	-11.9048
▁옮겨졌	-11.907
▁중지하	-11.9073
▁공동성명	-11.9075
▁조절하	-11.9094
▁인물이라	-11.9219
▁막혔	-11.9225
▁자의적	-11.9244
▁무차별	-11.9407
감시원	-11.9484
▁lea	-11.962
빨	-11.9781
lli	-11.981
덜	-11.9833
컨	-11.9836
템	-11.9837
연설에서	-11.9841
인터뷰	-11.9843
시리즈	-11.9843
맞	-11.9846
농촌지역	-11.9987
래스카주	-12.0004
hip	-12.0142
▁받아들였	-12.0181
▁기소되	-12.0191
▁생중계	-12.021
▁태어났	-12.0224
ampa	-12.0255
▁타바스코	-12.0263
룡	-12.0265
붕	-12.0267
롯	-12.0268
멍	-12.0269
▁도미니	-12.0269
뷔	-12.027
즘	-12.0271
▁오피니언	-12.0273
뮤	-12.0273
툼	-12.0273
긍	-12.0273
▁federa	-12.0273
▁국가안전보장	-12.0273
▁뇌졸중	-12.0273
▁비공식적	-12.0273
▁육체적	-12.0273
콥	-12.0273
ology	-12.0273
▁animal	-12.0273
▁electronic	-12.0273
▁ginger	-12.0273
▁kfor	-12.0273
▁office	-12.0273
▁tgv	-12.0273
▁tibet	-12.0273
▁transport	-12.0273
▁가자시티	-12.0273
▁가즈프롬	-12.0273
▁갈랴니	-12.0273
▁갤러리	-12.0273
▁괴롭히	-12.0273
▁국립질병관리예방센터	-12.0273
▁국무회의	-12.0273
▁군참모총장직	-12.0273
▁기밀서류	-12.0273
▁기억상실증	-12.0273
▁기울여야	-12.0273
▁끌려갔다	-12.0273
▁난투극	-12.0273
▁노랑가오리	-12.0273
▁늘려야	-12.0273
▁니제르사우르스	-12.0273
▁대영박물관	-12.0273
▁데멘티에바	-12.0273
▁데이터베이스	-12.0273
▁도밍게즈	-12.0273
▁라시니에르	-12.0273
▁레버쿠젠	-12.0273
▁렉시콘	-12.0273
▁로열더치쉘	-12.0273
▁리치먼드	-12.0273
▁마몬홀딩스	-12.0273
▁마지못해	-12.0273
▁메신저호	-12.0273
▁멜리사	-12.0273
▁밍크고래	-12.0273
▁방청객	-12.0273
▁베들레헴	-12.0273
▁복직시키겠다	-12.0273
▁불확실성	-12.0273
▁브래들리	-12.0273
▁비자발급	-12.0273
▁비쥬얼드	-12.0273
▁뽑아내	-12.0273
▁사령탑	-12.0273
▁샌디에고	-12.0273
▁서던캘리포니아	-12.0273
▁설리번	-12.0273
▁섭식장애	-12.0273
▁셰르파족	-12.0273
▁솅겐조약	-12.0273
▁소시에테	-12.0273
▁슈라이버	-12.0273
▁슈톡하우젠	-12.0273
▁스타트랙	-12.0273
▁스트라이커	-12.0273
▁스필버그	-12.0273
▁시불코바	-12.0273
▁식중독	-12.0273
▁신시내티	-12.0273
▁십여명	-12.0273
▁씰레스티	-12.0273
▁아덴항	-12.0273
▁안성맞춤	-12.0273
▁앰트랙	-12.0273
▁야마시타	-12.0273
▁어드벤처	-12.0273
▁에두아르두	-12.0273
▁에미레이트	-12.0273
▁오스트레일리아	-12.0273
▁옥스포드	-12.0273
▁와지리스탄	-12.0273
▁왜곡하	-12.0273
▁유혈진압	-12.0273
▁육박하	-12.0273
▁이데올로기	-12.0273
▁인공색소	-12.0273
▁자이언츠	-12.0273
▁장쩌민	-12.0273
▁재결합	-12.0273
▁준우승	-12.0273
▁중소기업들	-12.0273
▁진공청소기	-12.0273
▁진눈깨비	-12.0273
▁쫓아내	-12.0273
▁치아파스	-12.0273
▁칸나바로	-12.0273
▁캔버라	-12.0273
▁컨퍼런스	-12.0273
▁코카콜라	-12.0273
▁콥트인들	-12.0273
▁크라이슬러	-12.0273
▁크릴새우	-12.0273
▁클래식	-12.0273
▁키쿠유족	-12.0273
▁탄크레도	-12.0273
▁테크니크	-12.0273
▁토벌작전	-12.0273
▁토탄지대	-12.0273
▁투시카메라	-12.0273
▁트루먼	-12.0273
▁티그리스	-12.0273
▁페르시아만	-12.0273
▁페테르부르크	-12.0273
▁펠로우즈	-12.0273
▁폴라로이드	-12.0273
▁퓨처은행	-12.0273
▁프리츠커	-12.0273
▁필하모닉	-12.0273
▁하느님	-12.0273
▁헨더슨	-12.0273
▁혈연관계	-12.0273
▁휠체어	-12.0273
▁히딩크	-12.0273
뤼	-12.0273
모건체이스	-12.0273
부사령관	-12.0273
스캘롤라이나	-12.0273
식량농업기구	-12.0273
우조연상	-12.0273
쿼	-12.0273
프런티어	-12.0273
혁명수비대	-12.0273
▁buy	-12.0273
▁kamen	-12.0273
▁nld	-12.0273
▁writer	-12.0273
▁게이틀린	-12.0273
▁관중석	-12.0273
룻	-12.0273
못	-12.2332
윗	-12.2333
깨	-12.2338
갖	-12.2339
꿈	-12.2342
맡	-12.2342
곧	-12.2345
높	-12.2346
또	-12.2347
릇	-12.2719
벼	-12.276
솟	-12.277
놈	-12.2772
숭	-12.2773
껴	-12.2773
멕	-12.2773
끈	-12.5603
칩	-12.5666
겸	-12.5668
잇	-12.5668
쏘	-12.5671
밑	-12.5676
맛	-12.5676
즌	-12.609
꿔	-12.6097
핏	-12.6102
렴	-12.6103
앗	-12.6105
츨	-12.6105
촨	-12.6106
훼	-12.6106
댈	-12.6106
냄	-12.6106
덱	-12.6106
빠	-13.0671
쌍	-13.0671
떠	-13.0672
붐	-13.0672
쓴	-13.0674
훔	-13.0674
숲	-13.0677
읽	-13.0679
멀	-13.068
묻	-13.068
웹	-13.0681
팍	-13.1088
욱	-13.1092
뱅	-13.11
쩔	-13.1103
깁	-13.1105
끗	-13.1106
릅	-13.1106
낄	-13.1106
햇	-13.1106
쉘	-13.1106
폼	-13.1106
덧	-13.1106
뼈	-14.0697
헐	-14.0701
냉	-14.0702
앞	-14.0702
넓	-14.0703
흉	-14.0703
뇌	-14.0703
봄	-14.0704
쓸	-14.0704
깊	-14.0706
숨	-14.0708
맺	-14.0708
낮	-14.071
몸	-14.071
텡	-14.0866
찼	-14.0867
솅	-14.0868
샀	-14.0869
렷	-14.087
깜	-14.0871
갸	-14.0872
횟	-14.0873
펭	-14.0874
찢	-14.0875
잦	-14.0876
앰	-14.0877
씻	-14.0878
쏜	-14.0879
뻗	-14.088
맷	-14.0881
늬	-14.0882
귄	-14.0883
굉	-14.0884
갚	-14.0885
췌	-14.0886
잿	-14.0887
잰	-14.0888
얇	-14.0889
씌	-14.089
쐈	-14.0891
샐	-14.0892
뭔	-14.0893
둡	-14.0894
긱	-14.0895
곁	-14.0896
팸	-14.0897
닮	-14.0898
꽂	-14.0899
깎	-14.09
굶	-14.0901
괜	-14.0902
휠	-14.0903
홉	-14.0904
윔	-14.0905
썹	-14.0906
싣	-14.0907
볕	-14.0908
벵	-14.0909
맑	-14.091
흩	-14.0911
핫	-14.0912
팰	-14.0913
탓	-14.0914
컸	-14.0915
옵	-14.0916
엉	-14.0917
뻐	-14.0918
붓	-14.0919
몫	-14.092
깐	-14.0921
깅	-14.0922
픔	-14.0923
샴	-14.0924
빵	-14.0925
멤	-14.0926
뚫	-14.0927
닿	-14.0928
굿	-14.0929
핸	-14.093
셨	-14.0931
섞	-14.0932
뭉	-14.0933
뚜	-14.0934
닙	-14.0935
낡	-14.0936
꼽	-14.0937
튀	-14.0938
퀸	-14.0939
옐	-14.094
셸	-14.0941
뮌	-14.0942
팜	-14.0943
촛	-14.0944
젖	-14.0945
옳	-14.0946
굳	-14.0947
켐	-14.0948
짙	-14.0949
삽	-14.095
놨	-14.0951
꼈	-14.0952
탠	-14.0953
탔	-14.0954
챙	-14.0955
빔	-14.0956
밟	-14.0957
듭	-14.0958
횡	-14.0959
펄	-14.096
탱	-14.0961
썩	-14.0962
띄	-14.0963
뉘	-14.0964
캥	-14.0965
묶	-14.0966
녔	-14.0967
팝	-14.0968
딴	-14.0969
뇨	-14.097
갇	-14.0971
뿔	-14.0972
됩	-14.0973
댐	-14.0974
눴	-14.0975
낌	-14.0976
팽	-14.0977
킥	-14.0978
밸	-14.0979
랬	-14.098
넹	-14.0981
펌	-14.0982
쌀	-14.0983
썼	-14.0984
숫	-14.0985
쫓	-14.0986
잊	-14.0987
싫	-14.0988
숀	-14.0989
뀌	-14.099
뭄	-14.0991
꼭	-14.0992
깝	-14.0993
!	-14.0994
흰	-14.0995
좁	-14.0996
쏟	-14.0997
뿌	-14.0998
짧	-14.0999
옛	-14.1
쌓	-14.1001
붉	-14.1002
뱀	-14.1003
딪	-14.1004
슴	-14.1005
돕	-14.1006
덩	-14.1007
듣	-14.1008
젝	-14.1009
섯	-14.101
묵	-14.1011
똑	-14.1012
빗	-14.1013
릎	-14.1014
뒷	-14.1015
걱	-14.1016
왼	-14.1017
깔	-14.1018
멋	-14.1019
낳	-14.102
궤	-14.1021
빼	-14.1022
녁	-14.1023
휩	-14.1024
얘	-14.1025
빚	-14.1026
꺾	-14.1027
걷	-14.1028
뽑	-14.1029
훌	-14.103
좀	-14.1031
닷	-14.1032
옆	-14.1033
늦	-14.1034
왜	-14.1035
삶	-14.1036
앓	-14.1037
잭	-14.1038
갤	-14.1039
덮	-14.104
앉	-14.1041
땅	-14.1042
톰	-14.1043
슷	-14.1044
끊	-14.1045
곽	-14.1046
옮	-14.1047
밴	-14.1048
홈	-14.1049
줬	-14.105
녹	-14.1051
챔	-14.1052
찍	-14.1053
젊	-14.1054
넣	-14.1055
융	-14.1056
룹	-14.1057
흥	-14.1057
끄	-14.1058
큼	-14.1059
샌	-14.106
떻	-14.1061
촬	-14.1062
렀	-14.1063
헨	-14.1064
겪	-14.1065
뜻	-14.1066
믿	-14.1067
흑	-14.1068
펼	-14.1069
즉	-14.107
잃	-14.1071
뤄	-14.1072
렇	-14.1073
윌	-14.1074
싶	-14.1075
랐	-14.1076
헬	-14.1077
섰	-14.1078
?	-14.1079
첫	-14.108
떤	-14.1081
끌	-14.1082
켰	-14.1083
끝	-14.1084
괴	-14.1085
밖	-14.1086
큰	-14.1087
늘	-14.1088
쳤	-14.1089
넘	-14.109
얻	-14.1091
찾	-14.1092
육	-14.1093
좋	-14.1094
떨	-14.1095
몇	-14.1096
혐	-14.1097
협	-14.1098
많	-14.1099
얄	-14.1099
같	-14.11
눠	-14.11
확	-14.1101
최	-14.1102
쿄	-14.1102
않	-14.1103
펫	-14.1103
밝	-14.1104
,	-14.1105
맵	-14.1106
뭇	-14.1106
낀	-14.1106
.	-14.1106
댕	-14.1106
랴	-14.1106
씰	-14.1106
쳇	-14.1106
