<pad>	0
<s>	0
</s>	0
<unk>	0
▁	-3.10122
▁.	-3.51838
▁이	-3.72092
▁을	-3.86644
▁의	-4.10847
▁에	-4.13755
▁은	-4.24529
를	-4.32997
▁는	-4.38802
▁했다	-4.44698
▁가	-4.56112
▁들	-4.6426
▁에서	-4.69667
▁한	-4.92591
▁,	-4.96425
▁것	-5.06886
▁으로	-5.14499
▁그	-5.22327
▁로	-5.24297
고	-5.24615
일	-5.24861
▁인	-5.34667
지	-5.37658
▁고	-5.3965
는	-5.39919
자	-5.43381
▁과	-5.45051
▁전	-5.53264
▁와	-5.55176
▁말	-5.58498
▁수	-5.62564
의	-5.66915
인	-5.70425
▁있다	-5.71633
한	-5.71922
▁명	-5.71984
년	-5.76551
▁적	-5.78235
▁할	-5.79254
▁하는	-5.84887
▁하고	-5.86353
▁밝혔다	-5.88655
▁현	-5.93083
▁대	-5.94697
▁미국	-6.06481
사	-6.11996
원	-6.12005
도	-6.12637
▁이라고	-6.16995
▁된	-6.20124
▁있는	-6.22074
▁1	-6.23033
기	-6.23475
며	-6.24818
▁지난	-6.24904
▁도	-6.25606
스	-6.27335
▁2	-6.27611
▁시	-6.28208
▁해	-6.284
▁시간	-6.2909
장	-6.29872
▁에게	-6.35681
만	-6.36297
▁이다	-6.36736
시	-6.38104
▁중	-6.40162
▁됐다	-6.41019
이	-6.41287
번	-6.4228
다	-6.42478
수	-6.45095
▁오	-6.45448
▁사	-6.47628
▁위	-6.48352
▁모	-6.48562
가	-6.48624
로	-6.48967
월	-6.50876
▁주	-6.51611
▁대통령	-6.52091
▁위해	-6.52825
▁경	-6.53103
▁3	-6.5418
으며	-6.54872
던	-6.55288
▁자	-6.55357
해	-6.56186
▁며	-6.56514
마	-6.5735
부	-6.57457
▁지	-6.58394
전	-6.59568
은	-6.59874
드	-6.63068
▁또	-6.6412
▁미	-6.64209
▁나	-6.69658
▁경찰	-6.70632
문	-6.70794
선	-6.7162
▁정부	-6.72443
▁했다고	-6.73275
▁한다	-6.73323
신	-6.73635
게	-6.74397
체	-6.74832
▁때	-6.75275
▁상	-6.75493
당	-6.75751
바	-6.77871
▁성	-6.77876
▁대한	-6.78045
▁하기	-6.7894
▁개	-6.79876
▁사람	-6.80014
면	-6.80299
회	-6.82047
▁4	-6.82105
트	-6.82185
▁대해	-6.82861
▁이라크	-6.82913
▁비	-6.83558
▁기	-6.83933
편	-6.85904
▁될	-6.86761
재	-6.87371
▁더	-6.87501
▁까지	-6.88794
▁내	-6.90175
▁하지	-6.90361
▁부	-6.9054
▁라	-6.91832
▁5	-6.92044
▁그러나	-6.92154
▁당	-6.92423
나	-6.93201
▁자신	-6.94393
▁지역	-6.94794
소	-6.94831
▁6	-6.94929
▁반	-6.97202
▁발생	-6.97204
▁약	-6.97416
국	-6.97485
▁마	-6.97684
▁하	-6.97875
▁세	-6.98385
▁영국	-6.98773
▁제	-6.98808
▁다	-6.99237
▁사망	-7.00034
정	-7.00511
▁공	-7.00741
▁군	-7.01743
리	-7.02028
▁중국	-7.03228
을	-7.03241
주	-7.03616
관	-7.03948
력	-7.04055
▁동	-7.04641
히	-7.04809
간	-7.06627
▁만	-7.07135
라	-7.07241
▁소	-7.0777
근	-7.07997
▁했	-7.09004
상	-7.09149
▁등	-7.09481
서	-7.0963
▁연	-7.09661
▁있다고	-7.09767
▁차	-7.09836
▁매	-7.09859
대	-7.10169
▁다른	-7.11371
성	-7.11449
▁후	-7.11575
▁알	-7.1237
▁최	-7.12661
▁대변	-7.14206
▁문제	-7.14534
▁장	-7.14775
▁주장	-7.15559
식	-7.15746
▁라고	-7.1578
▁간	-7.15899
에	-7.16955
터	-7.17038
태	-7.1834
어	-7.18384
▁조	-7.19001
▁에는	-7.1947
제	-7.19514
▁테러	-7.19907
▁파	-7.20425
▁10	-7.20734
우	-7.20934
탄	-7.21033
▁처	-7.21113
▁보	-7.21262
▁같은	-7.21419
▁총리	-7.22391
명	-7.2263
▁단	-7.22645
▁관계	-7.23758
▁포	-7.23826
▁우리	-7.24443
단	-7.24621
▁여	-7.25026
▁회	-7.25159
지만	-7.26241
조	-7.26351
▁바	-7.27335
▁강	-7.27364
▁구	-7.28381
▁아	-7.28429
작	-7.29573
▁세계	-7.30065
▁원	-7.30613
▁일	-7.30992
구	-7.31455
반	-7.31688
억	-7.31799
▁폭	-7.32637
▁못	-7.33433
▁영화	-7.34492
▁예정	-7.34568
▁통해	-7.36248
운	-7.37286
든	-7.37323
▁서	-7.37438
▁총	-7.37515
녀	-7.38054
▁관련	-7.38215
▁정	-7.38567
사건	-7.39305
▁8	-7.40535
▁7	-7.41421
▁발표	-7.42475
▁많은	-7.42483
위	-7.42598
▁동안	-7.42751
달러	-7.43058
▁곳	-7.44125
▁후보	-7.4417
▁이란	-7.4461
▁않았다	-7.44684
▁여성	-7.45222
▁하며	-7.45465
▁북한	-7.45702
군	-7.46165
담	-7.4637
▁국가	-7.46852
용	-7.46907
분	-7.47265
차	-7.47285
▁가장	-7.47641
▁날	-7.48234
▁된다	-7.49239
▁선	-7.49406
함	-7.49456
▁출	-7.50099
화	-7.50643
▁안	-7.50885
▁무	-7.51466
설	-7.51689
▁법	-7.53045
▁공격	-7.53256
두	-7.53473
▁부시	-7.535
▁이후	-7.5409
▁경기	-7.54194
음	-7.54336
질	-7.5467
▁노	-7.54736
▁되는	-7.54769
▁당국	-7.55221
스탄	-7.55778
▁거	-7.558
설명	-7.55818
▁관	-7.56782
▁덧붙였다	-7.58172
▁9	-7.58573
▁보다	-7.58639
▁핵	-7.59233
▁일본	-7.59718
달	-7.59816
▁보도	-7.59873
▁추	-7.60021
안	-7.60716
후	-7.60917
▁민주	-7.61004
▁올	-7.61172
라는	-7.61342
니	-7.61591
▁예	-7.62444
객	-7.62862
▁이상	-7.62932
▁집	-7.63862
적	-7.64146
▁사용	-7.64203
비	-7.64545
▁발견	-7.64807
▁달	-7.64836
진	-7.64998
▁생각	-7.65265
▁있	-7.65513
▁두	-7.65932
▁조사	-7.6672
즈	-7.66879
거	-7.6688
▁피해	-7.67028
▁판	-7.67466
토	-7.67894
▁물	-7.68017
▁사실	-7.6835
▁아이	-7.6848
프	-7.68528
▁국제	-7.68554
▁유	-7.68563
▁일부	-7.69519
야	-7.69535
▁남	-7.70087
▁아프	-7.70206
▁방	-7.70408
▁실	-7.71116
▁20	-7.7134
▁있었다	-7.72075
▁측	-7.72976
금	-7.73491
▁부터	-7.73557
▁결과	-7.74397
▁프랑스	-7.74591
치	-7.74631
▁함께	-7.75026
▁계속	-7.75394
▁뒤	-7.75704
▁파키	-7.75984
▁혐	-7.7625
▁미군	-7.76275
▁11	-7.76846
▁승리	-7.76948
▁장관	-7.77178
속	-7.77189
▁12	-7.77196
했던	-7.78002
▁30	-7.78702
료	-7.788
▁국	-7.78919
아	-7.78925
▁작	-7.79025
행	-7.79071
품	-7.79098
약	-7.79338
▁계획	-7.79483
▁cnn	-7.79756
유	-7.80164
▁앞	-7.81456
모	-7.82459
슨	-7.82604
▁양	-7.82872
황	-7.82892
▁북	-7.83144
▁의원	-7.83271
▁감	-7.83447
▁되고	-7.8381
▁됐	-7.83948
▁입	-7.84164
결	-7.84325
▁최고	-7.84529
권	-7.8468
▁러시아	-7.84903
▁방문	-7.84943
무	-7.8498
▁야	-7.8559
동	-7.85733
크	-7.86056
▁결정	-7.8631
▁회사	-7.86457
의원	-7.86511
입	-7.87207
▁존	-7.87402
▁재	-7.87573
감독	-7.8781
▁지지	-7.88236
▁해야	-7.88344
▁연구	-7.88421
하게	-7.88457
▁이스라엘	-7.88514
출	-7.88749
격	-7.89098
▁클린턴	-7.89495
▁몇	-7.89889
▁선거	-7.90399
▁부상	-7.9043
▁점	-7.90722
▁상원	-7.90771
▁기록	-7.90904
보	-7.91039
▁관리	-7.91042
▁요구	-7.91583
례	-7.91592
▁병	-7.91866
▁시위	-7.9194
항	-7.9254
▁호	-7.9261
미	-7.92937
▁결	-7.93037
▁위원	-7.93164
런	-7.93274
▁교	-7.93537
엘	-7.93596
▁없다	-7.93722
점	-7.94332
실	-7.94344
▁발	-7.9467
급	-7.95073
▁정치	-7.95187
▁유럽	-7.95262
▁승	-7.95401
▁초	-7.95456
m	-7.95638
▁채	-7.9629
▁살	-7.96611
란	-7.96811
▁우주	-7.9762
계	-7.9802
▁사고	-7.98449
견	-7.98663
▁있으며	-7.99112
▁비난	-7.99258
▁한국	-7.99726
▁분	-8.00221
▁그리고	-8.0028
▁이유	-8.00365
물	-8.0061
▁유엔	-8.00798
영	-8.01098
▁카	-8.01453
▁이었다	-8.01463
락	-8.01799
▁불	-8.02178
론	-8.02382
▁경제	-8.02395
▁표	-8.02647
▁않을	-8.03228
▁위치	-8.03302
▁수도	-8.03459
▁15	-8.04068
▁아직	-8.04123
▁확	-8.0422
할	-8.04367
▁리	-8.04455
▁코	-8.04652
▁기자	-8.05023
▁돼	-8.05218
도록	-8.06319
으나	-8.06365
▁스	-8.06543
▁한다고	-8.06608
류	-8.0676
▁케	-8.06962
습	-8.0699
▁받았다	-8.07125
▁큰	-8.07223
▁배	-8.07614
▁문	-8.07649
▁새로	-8.07685
▁주민	-8.07705
▁힐	-8.07798
매	-8.08038
▁타	-8.0805
티	-8.08169
책	-8.08243
부분	-8.08264
▁k	-8.08275
▁지원	-8.08394
▁지도	-8.08402
▁가족	-8.08489
타	-8.08762
▁진	-8.09139
르	-8.09807
케인	-8.09916
▁증	-8.09977
▁업	-8.10128
▁인터	-8.10281
방	-8.10882
▁따라	-8.10952
▁무장	-8.11547
▁되	-8.11639
▁열	-8.12261
▁되지	-8.12435
중	-8.13189
▁확인	-8.1322
▁호주	-8.13587
▁규	-8.13597
디	-8.13607
▁병원	-8.13823
▁국민	-8.13881
s	-8.14047
임	-8.14246
▁차량	-8.14288
▁산	-8.1437
▁뉴욕	-8.14567
▁대표	-8.1467
▁이용	-8.14786
▁정보	-8.15095
판	-8.15544
c	-8.15676
▁신	-8.15827
럼	-8.15977
▁인도	-8.16028
▁런	-8.16096
▁역	-8.16185
▁체포	-8.16202
것	-8.16315
▁16	-8.16322
세	-8.16467
초	-8.16625
영상	-8.16656
포	-8.16722
파	-8.16737
▁지적	-8.16985
증	-8.17042
코	-8.17259
▁19	-8.17382
▁본	-8.17739
과	-8.17969
▁하게	-8.18048
▁방송	-8.18132
▁온	-8.18376
▁피	-8.18524
▁18	-8.19257
▁취	-8.19283
쪽	-8.20076
박	-8.20958
병	-8.21007
▁이나	-8.21137
▁공개	-8.21221
▁버	-8.21337
▁열린	-8.21478
린	-8.21555
▁독일	-8.21822
하	-8.21839
▁팀	-8.22131
▁새	-8.22387
▁손	-8.22588
▁받고	-8.22606
및	-8.2262
▁활동	-8.22627
뷰	-8.22713
러	-8.23107
▁탈레	-8.23167
▁잘	-8.23353
날	-8.23633
▁조치	-8.23802
▁프로그램	-8.23805
착	-8.23904
▁따르	-8.24251
▁진행	-8.24997
▁시장	-8.25033
산	-8.25271
▁크	-8.25556
량	-8.25929
형	-8.26066
길	-8.26148
▁생활	-8.26371
▁가능성	-8.26538
▁tv	-8.26751
▁25	-8.26819
브	-8.27012
▁보고	-8.2702
감	-8.27243
▁협	-8.27463
오	-8.2766
▁목	-8.27875
올림픽	-8.27911
다고	-8.27922
▁논	-8.28024
각	-8.28085
▁전문	-8.28086
▁데	-8.28236
▁다시	-8.28318
▁첫	-8.28587
▁형	-8.28595
▁22	-8.28609
석	-8.28613
▁용	-8.28673
발	-8.28696
▁의회	-8.28905
▁외	-8.29002
▁언론	-8.29171
▁투표	-8.29499
▁번	-8.29815
건	-8.29867
▁니	-8.29934
▁50	-8.2997
냐	-8.30021
택	-8.30116
시간	-8.30272
▁이미	-8.30392
▁13	-8.30559
돌	-8.30753
▁속	-8.30901
▁w	-8.30932
▁영	-8.3095
▁여러	-8.30994
운데	-8.31113
▁도시	-8.31176
▁사진	-8.31232
▁달러	-8.3138
▁계	-8.3139
▁실시	-8.31396
▁작업	-8.3156
▁임	-8.31579
▁내용	-8.31735
▁평화	-8.3174
▁기술	-8.319
▁않은	-8.32208
▁각	-8.32401
▁앞서	-8.32426
▁종	-8.3245
색	-8.32719
▁매우	-8.3296
▁14	-8.33065
▁방법	-8.33254
▁!	-8.33364
▁화	-8.33377
▁남자	-8.33804
▁소속	-8.33805
▁세력	-8.33865
▁있다는	-8.34043
▁선수	-8.34459
▁합의	-8.34595
▁왕	-8.34678
▁요	-8.34812
▁대학	-8.34898
▁터키	-8.35015
▁센	-8.35459
▁있을	-8.35491
▁다음	-8.35527
▁보고서	-8.35572
협	-8.35812
해결	-8.36185
▁어	-8.36438
▁언	-8.37
했다	-8.37282
▁사이	-8.3735
▁허	-8.37515
▁중단	-8.3781
▁joins	-8.3828
▁변호	-8.386
▁하면서	-8.3881
▁남부	-8.39258
요	-8.3952
▁이슬람	-8.39932
▁과의	-8.39933
▁생산	-8.40832
▁팔레스타인	-8.40874
▁폭발	-8.41193
▁판매	-8.41237
면서	-8.41451
▁주요	-8.41698
▁철	-8.4205
▁추가	-8.42056
▁전쟁	-8.4208
▁투	-8.42404
▁순	-8.42825
▁증가	-8.43248
▁용의	-8.43269
▁통	-8.43327
절	-8.43554
▁17	-8.43598
▁24	-8.43601
연	-8.43684
▁남성	-8.43784
▁인터넷	-8.4416
▁치	-8.44339
▁참석	-8.44513
▁은행	-8.44533
▁보기	-8.44823
▁어떤	-8.45004
▁보호	-8.45023
▁21	-8.45263
▁정도	-8.45302
▁지금	-8.45371
▁27	-8.45394
향	-8.45512
▁없는	-8.45604
▁살해	-8.45695
▁회의	-8.45723
▁번째	-8.45726
통	-8.45955
▁영향	-8.46374
▁관광	-8.46386
▁여행	-8.46527
▁했지만	-8.46893
그	-8.4733
▁않는다	-8.47412
역	-8.47585
송	-8.47641
업	-8.47672
심	-8.47863
▁협상	-8.4787
▁인해	-8.48031
▁되어	-8.48204
루	-8.48276
▁직원	-8.48945
▁건물	-8.48952
교	-8.49411
▁예상	-8.49626
▁줄	-8.49798
▁반대	-8.49904
악	-8.5003
▁트	-8.5012
▁저	-8.50182
▁학생	-8.50255
▁거래	-8.50293
▁항	-8.50903
▁개발	-8.51551
제공	-8.51588
▁보안	-8.51652
▁우려	-8.51682
▁직	-8.51738
▁가격	-8.51813
▁금융	-8.5182
▁제작	-8.51981
스트	-8.52044
▁마리	-8.52142
▁베네	-8.52157
호	-8.52632
립	-8.52858
카	-8.53045
▁충	-8.53098
▁컴퓨	-8.53099
로부터	-8.53578
▁볼	-8.53609
▁홍콩	-8.53798
▁벌	-8.53799
처	-8.53957
경	-8.53961
미얀	-8.54033
▁100	-8.54269
법	-8.5469
령	-8.54816
▁권	-8.55216
▁23	-8.55229
▁자동	-8.55368
개	-8.55423
▁건강	-8.55597
▁26	-8.55752
와	-8.55858
▁소식	-8.5605
▁받은	-8.5606
▁정상	-8.56271
불	-8.56346
대회	-8.56725
▁공화	-8.5686
▁석방	-8.57151
▁웹	-8.57215
▁난	-8.57348
▁조직	-8.57618
▁향	-8.57823
▁않고	-8.57902
▁?	-8.57971
▁지구	-8.58422
▁하나	-8.58572
▁하락	-8.58611
▁급	-8.58784
▁사회	-8.59022
▁스페인	-8.59027
▁상승	-8.59085
▁키	-8.59164
율	-8.59239
▁게	-8.59254
▁접	-8.59561
▁홈	-8.59939
▁이라	-8.60212
▁했었다	-8.60317
▁많	-8.60467
▁동물	-8.60605
▁잔	-8.60794
▁29	-8.6139
▁40	-8.61464
▁베	-8.61512
▁가지	-8.6156
▁의해	-8.61594
거리	-8.61674
▁m	-8.61744
민	-8.61839
▁요청	-8.61862
▁the	-8.62081
▁치료	-8.62352
▁이름	-8.62393
▁주의	-8.62401
▁특	-8.62491
▁레	-8.62781
▁골	-8.62873
▁항공	-8.63261
▁떨어진	-8.63269
▁우	-8.63378
▁토	-8.63439
▁비행	-8.63492
▁행사	-8.63504
▁범죄	-8.63711
러리	-8.63886
목	-8.63901
▁박사	-8.63941
살	-8.63972
▁의사	-8.64001
▁오는	-8.64003
▁비행기	-8.6403
▁준비	-8.6408
라프	-8.64419
▁알카	-8.6442
▁갖고	-8.64674
하지만	-8.64778
▁a	-8.65073
려	-8.65253
▁좋은	-8.65338
▁게임	-8.65352
▁루	-8.65364
▁기후	-8.65606
▁국방	-8.66093
▁체	-8.66102
▁입고	-8.66164
▁입장	-8.66166
난	-8.66291
서는	-8.66427
▁였다	-8.66584
▁이탈리아	-8.66822
▁캠	-8.6689
▁국무	-8.67024
더	-8.67162
▁하는데	-8.67304
▁개월	-8.67486
주의	-8.67705
▁밖에	-8.67807
움	-8.67826
▁자금	-8.67851
▁래	-8.67959
▁무샤	-8.68018
▁28	-8.68271
▁인정	-8.68428
▁질	-8.68442
▁연방	-8.68611
▁조지	-8.68618
사이트	-8.68691
▁스타	-8.68729
▁역사	-8.68844
▁누	-8.68885
▁침	-8.68919
▁해서	-8.68979
▁2006	-8.69342
▁안전	-8.6938
배	-8.69464
▁f	-8.70176
▁재판	-8.70247
▁야생	-8.70646
시아	-8.70754
▁아니라	-8.70871
튼	-8.70923
▁뿐	-8.71025
▁없다고	-8.7128
▁친	-8.71375
▁바그	-8.71597
▁프로	-8.71631
▁심	-8.71695
▁학교	-8.71697
▁위기	-8.71772
▁도움	-8.72008
▁변화	-8.72061
▁납치	-8.72114
동물	-8.72209
저	-8.72216
▁없었다	-8.72396
직	-8.72569
▁한다는	-8.73098
▁가진	-8.73202
▁자살	-8.7323
키	-8.73423
▁통신	-8.73613
츠	-8.7377
▁최소	-8.73792
▁이어	-8.7382
▁디	-8.73836
▁하겠다	-8.73879
▁있었	-8.73921
▁금	-8.73967
▁범	-8.74042
▁절	-8.74173
▁패	-8.74273
었다	-8.74288
지막	-8.74455
▁여자	-8.74647
최	-8.75189
▁맥	-8.75196
▁친구	-8.75611
▁목표	-8.7642
▁않았	-8.76445
▁농	-8.76796
▁31	-8.76818
▁호텔	-8.77023
▁발사	-8.77133
데	-8.77232
쟁	-8.77296
▁출연	-8.77387
▁알려졌다	-8.77802
응	-8.77979
▁민간	-8.78008
레	-8.78019
▁노출	-8.78103
▁금지	-8.78295
▁없이	-8.78317
▁운영	-8.78324
▁소장	-8.78394
내	-8.78411
▁낙	-8.78418
▁환경	-8.78436
▁보이	-8.78566
공	-8.78597
▁복	-8.78729
▁수감	-8.79055
▁어린이	-8.79101
▁0	-8.79134
▁있지만	-8.79177
▁폭력	-8.79542
▁행동	-8.79578
▁애	-8.79579
변	-8.79694
하고	-8.79856
▁대로	-8.79916
강	-8.79953
▁아시아	-8.80011
▁길	-8.80159
논	-8.80273
버	-8.80323
외	-8.80412
▁즉	-8.80472
▁밀	-8.80498
현	-8.80521
▁서부	-8.8065
씨	-8.80759
▁악	-8.80879
▁죽	-8.80982
괴	-8.81093
▁나이	-8.811
▁푸	-8.81351
▁클	-8.81378
범	-8.81445
세계	-8.81781
▁책임	-8.81839
열	-8.82018
▁상대	-8.82287
야기	-8.8243
▁팬	-8.82714
▁부인	-8.82888
▁별	-8.82911
▁식	-8.82922
▁있어	-8.83072
▁아니다	-8.83165
▁검사	-8.83192
.	-8.83251
▁창	-8.83318
▁우승	-8.83546
▁경고	-8.83696
▁경쟁	-8.83742
▁공급	-8.83745
▁아들	-8.83953
▁관심	-8.8403
▁없	-8.84216
▁기업	-8.84233
▁기간	-8.84388
▁딸	-8.84414
벌	-8.84691
▁했으	-8.84728
▁받을	-8.84843
▁시켰다	-8.84959
▁아무	-8.8502
▁연합	-8.85249
▁국경	-8.85319
▁희생	-8.85563
▁티	-8.85682
몸	-8.85905
▁백악	-8.85923
▁외교	-8.86002
언	-8.86016
▁시민	-8.86019
▁2008	-8.86059
▁무기	-8.86135
▁참여	-8.86258
▁탈	-8.86358
▁필요	-8.86567
▁서비스	-8.86751
골	-8.86771
에서	-8.8686
▁당선	-8.8688
▁빌	-8.8708
▁군사	-8.87107
▁운동	-8.87364
▁여명	-8.87446
▁과학자	-8.8746
▁신문	-8.87622
▁베이징	-8.87724
▁먼	-8.87838
▁중요한	-8.87848
사회	-8.87866
▁아기	-8.88068
▁지진	-8.88168
▁발언	-8.88389
▁담당	-8.88499
▁산업	-8.88588
▁교수	-8.88672
▁메	-8.88725
▁음반	-8.88784
▁몸	-8.88816
▁잭슨	-8.89059
▁테	-8.89253
▁으로부터	-8.89256
▁왔다	-8.89448
▁합	-8.8945
베	-8.89766
▁유권	-8.8984
▁목격	-8.89842
▁연기	-8.89849
써	-8.89928
▁아버	-8.89991
▁개인	-8.90093
▁of	-8.90169
집	-8.90315
변화	-8.90316
▁눈	-8.90439
규	-8.90759
▁않	-8.90768
▁지방	-8.90879
▁합니다	-8.90966
틴	-8.91031
련	-8.9117
▁독립	-8.91248
▁였	-8.91622
▁투자	-8.91626
▁레이	-8.91685
렬	-8.91879
▁레바	-8.91913
▁설	-8.92005
▁변	-8.92299
록	-8.92329
▁수백	-8.92354
▁콜롬비아	-8.92432
▁해리	-8.92456
▁하루	-8.92534
퍼	-8.92667
▁전화	-8.93463
bc	-8.93583
▁보인다	-8.93635
르코	-8.93895
▁않다	-8.93947
종	-8.93997
환	-8.94017
하면	-8.94031
▁총선	-8.9413
리아	-8.94171
▁봉	-8.94359
▁폴	-8.94462
▁않는	-8.94538
▁했을	-8.94553
▁유지	-8.94597
▁사무	-8.94616
▁2005	-8.94675
동부	-8.9485
▁행위	-8.94854
▁주둔	-8.94947
▁돈	-8.95001
▁드	-8.95076
le	-8.95126
▁해안	-8.95159
▁휴	-8.95258
▁되었다	-8.95308
퇴	-8.95338
릴	-8.95578
▁촉구	-8.95686
▁위험	-8.95732
▁여론조	-8.9589
▁자유	-8.9599
▁200	-8.96071
▁안보	-8.96394
▁근	-8.96412
▁성공	-8.96556
▁격	-8.96635
▁타고	-8.96834
양	-8.96931
▁참가	-8.96944
▁짐	-8.96976
▁벌이	-8.97415
▁귀	-8.97453
▁부족	-8.97593
▁들어	-8.97669
▁2004	-8.9772
▁기상캐스터	-8.97738
▁전망	-8.97874
▁나라	-8.97967
▁청	-8.98011
들	-8.98078
▁외무	-8.98118
능	-8.98394
랜드	-8.98503
▁돌	-8.98514
▁기원	-8.98683
▁네	-8.9875
▁브라운	-8.98876
▁받	-8.99014
▁석유	-8.99182
▁높은	-8.99612
▁끝	-8.99751
손	-8.99864
널	-8.99885
▁보였다	-8.99895
▁데뷔	-8.99923
▁보일	-8.99945
는데	-9.00095
▁작전	-9.00263
▁제안	-9.00349
▁선고	-9.00364
▁건	-9.00402
측	-9.00613
무기	-9.00983
었던	-9.0121
▁혼	-9.01274
준	-9.01288
▁시스템	-9.01602
▁뉴스	-9.01645
▁도로	-9.01849
축	-9.01863
정부	-9.01879
▁직접	-9.0193
분석	-9.02189
▁자리	-9.02196
▁여객	-9.02205
▁1200	-9.02499
▁결혼	-9.02647
여	-9.02797
▁하도록	-9.02983
▁티베트	-9.03224
▁되면	-9.03428
▁닭	-9.03502
▁화재	-9.03548
▁c	-9.03698
▁eu	-9.03772
▁광	-9.03773
▁평가	-9.03825
▁60	-9.04542
▁담	-9.0456
룹	-9.04568
▁열리는	-9.04577
▁2000	-9.04622
▁맨	-9.04643
▁엔	-9.04799
▁숨졌다	-9.04817
▁일반	-9.05115
피	-9.05304
▁백	-9.05504
▁하자	-9.0552
▁실종	-9.05685
al	-9.05898
등	-9.06
림	-9.06044
존	-9.0645
킹	-9.0649
복	-9.0652
▁브라질	-9.06562
▁장갑	-9.066
▁같다	-9.06741
▁하여	-9.06848
▁축구	-9.0686
▁p	-9.07081
폰	-9.07096
▁구성	-9.07137
▁음	-9.07179
▁학	-9.07183
▁밤	-9.07354
▁사우디	-9.07416
▁구조	-9.07464
동안	-9.07854
▁대사	-9.07856
▁하다	-9.07863
▁면	-9.07932
▁하면	-9.0812
▁즈	-9.08195
온	-9.08212
▁완	-9.08275
▁대가	-9.08305
▁아프리카	-9.08325
▁준	-9.08393
▁천	-9.08605
지는	-9.08762
▁라이	-9.08983
▁최대	-9.09139
▁암	-9.09241
친	-9.09247
▁수상	-9.09349
▁인권	-9.09465
▁스리	-9.09544
▁고아원	-9.0957
▁대화	-9.09683
▁거부	-9.09761
▁배우	-9.09899
▁비키	-9.09935
▁검찰	-9.10013
▁전투	-9.10171
▁관할	-9.10619
▁태	-9.10644
▁전체	-9.10671
▁구호	-9.10934
▁잠	-9.11182
▁대상	-9.11625
▁텍사스	-9.11757
▁기회	-9.12045
▁불구	-9.12049
래	-9.12053
▁la	-9.12152
▁비상	-9.12204
▁b	-9.12215
▁com	-9.12291
▁생	-9.12381
▁인용	-9.12451
▁책	-9.12567
▁촬영	-9.12786
▁에너지	-9.12823
▁얼마	-9.13089
▁심장	-9.13386
▁특별	-9.13445
▁운전	-9.13518
▁주식	-9.13626
생	-9.13636
▁환	-9.13764
▁석	-9.13869
▁내무	-9.13877
▁개도	-9.13879
▁뜻	-9.13899
▁비디오	-9.14134
▁주변	-9.14166
▁데이비	-9.14289
▁팔	-9.14653
▁커	-9.14729
▁중심	-9.14783
▁캘리포니아	-9.14859
▁사업	-9.15038
▁필요한	-9.15228
▁어떻	-9.15302
아파	-9.15324
▁맞	-9.15481
▁하원	-9.15666
▁거주	-9.15731
▁칸	-9.15907
▁나타났다	-9.16123
▁샤	-9.16205
▁모델	-9.16313
률	-9.16475
▁부모	-9.16537
▁선언	-9.1684
탕	-9.16916
▁있고	-9.17002
지구	-9.17408
a	-9.17466
표	-9.17498
▁더욱	-9.17638
▁극	-9.17805
득	-9.17856
▁s	-9.17918
▁완전	-9.17934
▁받았	-9.17997
▁공동	-9.18032
험	-9.18117
▁음악	-9.18159
▁통과	-9.18242
▁운	-9.18518
▁의료	-9.18559
▁미사일	-9.18591
▁케이	-9.189
▁부부	-9.19036
▁행	-9.19172
▁수행	-9.19203
본	-9.19347
▁불법	-9.19627
▁500	-9.19741
▁목적	-9.1975
o	-9.19783
라이스	-9.19868
▁광고	-9.19873
▁강력	-9.19943
▁힘	-9.20047
▁증거	-9.20193
▁artic	-9.20277
천	-9.20292
▁e	-9.20294
▁워싱턴	-9.20503
로운	-9.20592
▁온라인	-9.2061
▁층	-9.20631
▁메시	-9.20968
이런	-9.21078
▁결승	-9.21263
▁협회	-9.21345
▁갈	-9.21369
좌	-9.21409
▁토론	-9.21566
▁소유	-9.21581
▁1000	-9.21581
즌	-9.21597
▁하려	-9.21952
답	-9.22039
▁작은	-9.22089
▁집행	-9.22199
▁독	-9.22368
버트	-9.22524
▁수술	-9.23093
▁빈	-9.23174
▁교도	-9.23517
▁밖	-9.23627
▁받아	-9.23747
▁연료	-9.23819
▁오늘	-9.24067
▁있게	-9.24078
▁보건	-9.24159
▁처리	-9.24438
▁중앙	-9.24521
▁훈련	-9.24566
▁감염	-9.24588
▁버스	-9.24755
▁어려	-9.24783
▁그린	-9.24854
▁알리	-9.25212
e	-9.25321
풍	-9.2556
▁답	-9.25692
▁교육	-9.25862
y	-9.25868
▁째	-9.25917
기소	-9.26048
머리	-9.2611
▁식량	-9.26227
▁아니	-9.2625
▁메이	-9.26538
▁아카데미	-9.26662
통령	-9.267
왕	-9.26858
▁정신	-9.27081
▁카운	-9.27294
블	-9.27313
스턴	-9.27323
▁히	-9.27342
환자	-9.27388
▁너무	-9.27483
▁흑	-9.27493
▁ap	-9.27631
▁건설	-9.27655
▁멕시코	-9.27718
▁메르	-9.27825
▁난민	-9.27888
▁해외	-9.27889
▁기도	-9.27995
▁착	-9.28326
▁대피	-9.28342
▁입었다	-9.28354
명과	-9.28486
▁일정	-9.28574
▁2003	-9.28772
팀	-9.28865
▁의견	-9.28981
▁월드	-9.29107
▁수천	-9.29253
▁설치	-9.29257
노	-9.2958
멘	-9.29667
▁바로	-9.29827
▁교통	-9.29859
▁이동	-9.29894
▁암살	-9.30239
▁시킬	-9.30312
▁사는	-9.3041
▁페	-9.30637
족	-9.30667
▁걸	-9.30703
▁아닌	-9.30743
▁대만	-9.30911
▁여름	-9.30961
▁파리	-9.31128
▁진압	-9.31214
▁술	-9.31336
▁오른	-9.31347
▁인지	-9.3138
▁삼	-9.3155
▁기관	-9.31617
압	-9.31646
▁프라이	-9.31691
▁브	-9.31767
승	-9.31772
망	-9.31825
레스	-9.31846
▁데이	-9.31941
하는	-9.31942
▁위성	-9.32013
▁다양	-9.32046
▁뇌	-9.32206
북	-9.32307
▁탑승	-9.32386
두고	-9.32443
▁쿠	-9.32457
▁받는	-9.32505
파트	-9.32588
▁쇼	-9.32636
▁어머니	-9.32648
▁밝혀졌다	-9.32662
엇	-9.32878
긴	-9.32928
대로	-9.33054
▁앤	-9.33213
▁프리	-9.33408
▁헬기	-9.33553
▁상당	-9.33627
▁현대	-9.33631
▁발전	-9.33649
▁가치	-9.33741
▁장소	-9.33777
▁감시	-9.33779
▁시리아	-9.33867
▁벌였다	-9.33874
▁노동	-9.3389
▁기사	-9.34036
커	-9.34056
▁해왔다	-9.34075
▁얻	-9.34092
▁같이	-9.34236
가니스	-9.34346
대한	-9.34383
통신	-9.34462
▁확실	-9.34537
▁주말	-9.34539
장관	-9.34812
▁달라	-9.34855
▁부분	-9.34923
▁되기	-9.35037
▁문화	-9.35249
▁시드	-9.35271
▁섬	-9.35277
울	-9.35468
▁내렸다	-9.3555
▁수치	-9.35588
롯	-9.35658
▁내려	-9.3569
탈	-9.35783
▁아마	-9.35856
▁배치	-9.35911
▁압	-9.36149
▁만큼	-9.36196
▁유가	-9.36212
▁헤	-9.36252
▁갖	-9.36257
죄	-9.3626
▁국립	-9.36266
▁수십	-9.36459
된	-9.36462
▁연구소	-9.36849
▁수사	-9.3685
▁칼	-9.36865
베스	-9.36916
브웨	-9.37054
도네	-9.37218
▁주택	-9.37412
▁씨	-9.37605
덴	-9.37671
▁들이	-9.37712
이클	-9.3777
라크	-9.37942
▁제품	-9.3816
▁5000	-9.38231
▁확산	-9.38343
▁바란다	-9.38408
▁콘	-9.38438
▁찬	-9.38509
취	-9.38677
총	-9.38681
▁과학	-9.38753
▁제기	-9.3883
▁성장	-9.38854
▁머	-9.38915
▁공연	-9.38916
▁그래	-9.3898
▁제시	-9.39023
▁무사	-9.39037
▁필	-9.39164
▁다리	-9.39195
▁폐쇄	-9.39308
학생	-9.39402
▁함	-9.3944
▁000	-9.39525
▁2007	-9.39926
▁위원장	-9.40165
▁사랑	-9.40207
▁의장	-9.40292
▁항공사	-9.40376
사관	-9.4053
랑	-9.40751
▁곧	-9.41184
▁그런	-9.41298
상자	-9.41431
▁어느	-9.41562
▁민병	-9.41578
▁종교	-9.41682
▁다이애나	-9.41689
▁차이	-9.41842
▁홍	-9.42087
▁플로리다	-9.422
▁붕괴	-9.42276
▁심각한	-9.4232
▁울	-9.42338
컵	-9.42435
바이	-9.42487
n	-9.42603
▁수입	-9.42667
른	-9.42739
학	-9.42746
nasa	-9.42756
▁평균	-9.42767
▁있기	-9.42809
▁인간	-9.42823
▁크리스	-9.42859
▁이제	-9.42918
▁명령	-9.43022
▁기념	-9.4331
▁머리	-9.4335
▁희망	-9.43377
▁진술	-9.4341
▁태국	-9.43642
극	-9.43836
▁받지	-9.43935
랜	-9.43953
▁시기	-9.43966
▁캐나다	-9.44074
▁사과	-9.44143
▁35	-9.44152
▁박	-9.44335
럭	-9.44339
▁잡	-9.44394
▁않아	-9.44441
▁전통	-9.44542
▁걸쳐	-9.44623
▁밝힌	-9.44649
▁행정	-9.44942
리키	-9.4518
찬	-9.4521
도자	-9.45283
▁제임스	-9.45309
칠	-9.45449
▁소방	-9.458
▁시키는	-9.45861
▁생존	-9.45872
리드	-9.45896
▁인물	-9.45918
▁글	-9.46074
스터	-9.46114
풀	-9.46179
▁부정	-9.4625
마스	-9.46343
테	-9.46378
▁수색	-9.46402
▁포기	-9.46438
빈	-9.46536
▁휴대	-9.46635
▁2002	-9.46641
▁막	-9.46711
일이	-9.46748
▁공습	-9.46838
렌	-9.46856
▁만이	-9.47046
▁하려는	-9.47138
▁입니다	-9.47505
메	-9.47543
▁김	-9.47559
있는	-9.47562
리그	-9.47573
▁없을	-9.47582
▁쉬	-9.47649
▁추락	-9.47963
▁이라크전	-9.48134
▁낸	-9.48222
▁음식	-9.48282
▁오픈	-9.4829
볼	-9.48317
▁도쿄	-9.4839
머	-9.48442
▁강제	-9.48473
▁선정	-9.486
말	-9.4868
▁소비자	-9.48687
친구	-9.48932
▁최종	-9.49192
▁주간	-9.49347
▁필요하다	-9.49376
▁뉴	-9.49397
▁인수	-9.49435
▁살인	-9.49583
▁시키고	-9.49624
▁가까	-9.49874
보유	-9.49893
▁재개	-9.49906
▁안정	-9.49915
▁80	-9.50037
d	-9.50075
▁충분	-9.50231
리즈	-9.50297
▁유일	-9.50309
▁미래	-9.50602
층	-9.50668
비아	-9.50802
▁사항	-9.5085
혀	-9.50855
▁인사	-9.51044
▁송	-9.51265
▁고려	-9.51414
많은	-9.51426
시장	-9.51536
▁계약	-9.51616
▁마약	-9.5163
▁시카고	-9.51746
스톤	-9.51898
▁프레	-9.51914
먼	-9.52134
▁사형	-9.52334
▁벨	-9.52367
▁품	-9.52395
▁곤	-9.52518
▁카르	-9.52553
▁압둘	-9.52579
▁인기	-9.52948
▁정당	-9.53282
페인	-9.53302
▁나오	-9.53563
▁전국	-9.53565
▁탄	-9.53807
▁전략	-9.53843
▁장치	-9.53844
▁다니	-9.53869
▁집중	-9.53924
럽	-9.54093
▁90	-9.54324
라고	-9.5437
▁익명	-9.54374
아내	-9.54389
▁전반	-9.54526
▁작가	-9.54549
▁g	-9.54552
▁장기	-9.54578
▁마감	-9.5475
▁보내	-9.54798
너	-9.54824
▁이었	-9.54969
▁인상	-9.55045
▁리프	-9.55143
▁아파	-9.55239
▁된다고	-9.55449
▁d	-9.55475
▁로켓	-9.5557
촉	-9.55627
▁본부	-9.55631
있다	-9.5572
▁플레이	-9.55773
우드	-9.5578
갈	-9.55809
▁신화	-9.5607
▁밝히지	-9.56247
예	-9.56327
▁쿠바	-9.56347
▁낮	-9.56428
▁베컴	-9.56429
▁접근	-9.56628
슈	-9.56639
▁베이	-9.56669
▁움직	-9.56669
▁폐	-9.56798
▁임신	-9.56868
맹	-9.56905
▁보냈다	-9.56939
▁검토	-9.57165
▁가자	-9.57173
▁퍼	-9.57317
▁n	-9.57353
▁밝혔	-9.57401
능력	-9.57422
▁이끄는	-9.57454
▁사이클	-9.57527
다른	-9.57533
렇게	-9.57704
▁만들어	-9.57778
맥	-9.57835
션	-9.57916
돈	-9.57918
▁id	-9.5793
▁기준	-9.58056
▁윌리엄스	-9.58108
▁70	-9.58297
bi	-9.58324
▁아니라고	-9.58462
▁제한	-9.58547
다는	-9.58644
▁지휘	-9.58675
▁스미	-9.58691
▁시상	-9.58703
셀	-9.58897
▁수익	-9.58904
가지	-9.59031
켓	-9.5919
델	-9.59348
▁이러	-9.59645
▁홀	-9.59748
▁해군	-9.59749
▁샌	-9.59892
▁마음	-9.60051
▁착륙	-9.60152
▁박물	-9.60166
▁대법	-9.60173
연합	-9.60204
▁제조	-9.60244
▁허가	-9.60319
▁단계	-9.60385
▁바이러스	-9.60387
▁효과	-9.6049
▁분리	-9.60521
p	-9.60532
폭행	-9.60604
▁소재	-9.60642
려야	-9.60683
▁이자	-9.60715
알	-9.61025
▁약물	-9.61212
독	-9.61593
▁징역	-9.61625
▁포인	-9.61635
tp	-9.61735
▁권리	-9.61794
▁내부	-9.62008
▁밝히	-9.62067
백	-9.62158
▁패션	-9.62171
▁이집트	-9.62247
▁긴장	-9.6229
▁회복	-9.62299
▁톤	-9.62316
▁숨지고	-9.62353
▁시청	-9.62417
▁교황	-9.62442
패	-9.6254
윈	-9.62703
혹	-9.62812
▁퇴	-9.62886
▁옷	-9.62922
▁태양	-9.62944
▁알려진	-9.63006
▁to	-9.63015
▁하마	-9.63122
▁검	-9.63306
▁버지니아	-9.63315
▁활	-9.63373
▁엘	-9.63438
▁실험	-9.63448
침	-9.63452
▁바다	-9.63453
▁노동자	-9.63493
1	-9.63687
▁나왔다	-9.63729
가스	-9.63788
▁여전	-9.63841
▁진출	-9.63855
▁로마	-9.63949
티나	-9.63955
머지	-9.64049
▁워	-9.64374
필	-9.64443
▁사임	-9.64514
▁요원	-9.64532
머니	-9.64562
▁유명한	-9.64699
▁2001	-9.64811
▁리버	-9.64816
름	-9.64951
광	-9.65049
▁올랐다	-9.65084
▁존스	-9.6517
▁스콜	-9.65208
▁동맹	-9.65242
참	-9.65444
▁시각	-9.65518
▁싶다	-9.65529
▁잉글랜드	-9.65575
▁300	-9.65637
으로	-9.65683
▁유로	-9.65722
▁권력	-9.65828
▁스피어	-9.6584
▁그리스	-9.65964
숨	-9.65973
▁후세인	-9.66011
▁개혁	-9.66066
▁화성	-9.66304
▁구매	-9.66308
▁원자	-9.66324
▁공군	-9.66335
▁재무	-9.66337
▁있는지	-9.66403
▁평	-9.66488
▁쓰	-9.66558
▁코소보	-9.66763
▁심리	-9.67103
▁마드	-9.67496
늄	-9.67611
턴	-9.67783
▁동의	-9.67925
▁레드	-9.68002
줄	-9.6806
벨	-9.68169
▁법정	-9.68228
▁홍보	-9.68293
▁영화제	-9.68407
▁사무실	-9.68414
▁터	-9.68585
딘	-9.68622
피아	-9.68691
엄	-9.68815
▁주가	-9.69046
▁당했다	-9.69112
▁쿠르드	-9.69116
▁둘	-9.69146
▁리스	-9.69157
링	-9.69209
▁저항	-9.69227
▁시티	-9.69232
말리아	-9.69324
▁유세	-9.69341
▁슈	-9.69342
리스	-9.69394
▁다우	-9.69449
▁오래	-9.69494
▁자연	-9.69506
▁다르	-9.69656
▁이수지	-9.69657
▁고속	-9.69755
▁스위스	-9.6992
져	-9.69942
▁라디오	-9.69959
▁둔	-9.70034
▁사드	-9.70037
▁으로서	-9.70065
▁비밀	-9.70083
▁소리	-9.70102
▁브리	-9.70124
▁카메라	-9.70224
소리	-9.70237
▁마치	-9.70271
아주	-9.70385
▁삶	-9.70453
신고	-9.70481
▁시행	-9.70497
▁달리	-9.70502
▁묘	-9.70558
▁깊	-9.70879
▁밴	-9.7088
▁막기	-9.7089
셔	-9.70927
▁만나	-9.71124
세트	-9.7121
▁아바	-9.71219
플	-9.71327
▁오랫	-9.71443
▁대중	-9.7145
▁펠	-9.7145
▁아침	-9.71479
▁이래	-9.71493
놓고	-9.71542
젝	-9.71612
▁주인	-9.71614
▁따른	-9.71628
▁u	-9.71856
▁높이	-9.72472
▁자세	-9.72498
옥	-9.72533
령관	-9.72539
투	-9.72626
▁조종	-9.72677
▁피트	-9.72776
▁지배	-9.72853
▁45	-9.73184
▁세르비아	-9.73189
관계	-9.73378
▁cat	-9.73396
▁고양	-9.73623
술	-9.7363
▁가능한	-9.73806
▁제도	-9.73887
▁하길	-9.73918
▁개봉	-9.73963
▁치안	-9.74131
▁로스	-9.74158
▁집계	-9.74189
▁톰	-9.74211
▁임명	-9.74304
▁ht	-9.74464
▁시험	-9.74477
▁따	-9.74631
추	-9.74653
▁아랍	-9.74688
충격	-9.74709
▁구속	-9.74728
▁있습니다	-9.74949
▁스포츠	-9.74966
▁나온	-9.74973
▁정말	-9.75082
▁좌	-9.75096
▁불만	-9.75161
▁사이트	-9.75212
▁쥐	-9.75396
▁예방	-9.75473
▁사인	-9.75477
▁고통	-9.75541
▁36	-9.75575
▁근거	-9.75608
▁십	-9.75639
▁asp	-9.75641
벽	-9.75708
▁페르	-9.7579
▁테러리	-9.75798
▁액	-9.75817
▁나무	-9.75979
▁징	-9.76067
▁경호	-9.76124
로서	-9.76125
▁마무	-9.76288
▁윌리엄	-9.76297
▁단지	-9.76301
푸르	-9.76497
▁ms	-9.76532
▁오하이오	-9.76533
▁린	-9.76558
때	-9.76592
▁코트	-9.7661
▁추진	-9.76823
▁녹	-9.76861
▁이혼	-9.76942
▁왜	-9.77173
▁헌법	-9.77275
포터	-9.77294
▁앙	-9.7731
▁삭	-9.77311
▁재정	-9.77328
▁엘리	-9.7737
▁and	-9.77396
▁차베	-9.77412
▁악화	-9.7751
▁폐기	-9.77538
▁가졌다	-9.77657
▁수출	-9.77717
▁기지	-9.77733
▁신용	-9.77772
▁응	-9.77912
▁아스	-9.77957
▁주도	-9.77966
▁두고	-9.77994
베이	-9.78069
▁찰스	-9.78151
늘	-9.78161
▁지명	-9.78394
▁애플	-9.78524
▁배럴	-9.78745
▁소년	-9.78758
운동	-9.78838
▁wb	-9.78845
▁랭	-9.78864
▁t	-9.79015
힌	-9.79084
▁스티	-9.79495
▁지대	-9.79526
기도	-9.79541
▁나타나	-9.79549
▁이지만	-9.79653
▁엄	-9.79782
▁얼굴	-9.79867
▁실수	-9.79871
▁노벨	-9.79926
▁스키	-9.80029
▁밝혀지지	-9.80059
▁앨범	-9.80131
▁고문	-9.80168
▁공공	-9.80383
▁타이	-9.80424
▁구체	-9.80437
합	-9.8044
▁젊은	-9.8047
▁벤	-9.80622
▁불안	-9.80712
▁축하	-9.80797
▁400	-9.8085
▁보험	-9.80914
▁32	-9.80948
▁가량	-9.80988
틱	-9.8101
▁생명	-9.81052
▁무역	-9.81059
▁보수	-9.81114
선거	-9.81127
▁나타냈다	-9.81222
▁복용	-9.81348
▁칠	-9.8145
▁좀	-9.81477
▁전시	-9.81524
네	-9.81529
▁슈퍼	-9.81659
누	-9.81694
▁시대	-9.81706
검	-9.81787
▁강한	-9.81989
▁비슷	-9.81991
▁외국인	-9.8206
▁경영	-9.82172
까지	-9.82251
▁전력	-9.8228
▁패배	-9.82292
▁선두	-9.82336
▁타임	-9.82374
▁폭풍	-9.82448
▁화산	-9.82473
▁벽	-9.82535
▁조정	-9.82603
▁사상	-9.82611
▁구글	-9.82619
▁필리핀	-9.82626
▁지하	-9.82772
렘	-9.8278
▁인들	-9.82796
▁넘는	-9.82918
▁너	-9.8313
▁무가	-9.83245
톤	-9.83264
▁강화	-9.83343
▁긴급	-9.8338
웨어	-9.83448
▁숨진	-9.83491
▁탐사	-9.83567
▁압력	-9.83607
▁육	-9.83757
▁보이는	-9.83762
▁높다	-9.83763
청	-9.84174
▁가스	-9.84175
k	-9.84187
도로	-9.84204
▁지나	-9.84419
▁그러	-9.84427
▁북극	-9.84432
b	-9.84549
▁자치	-9.84551
▁냈다	-9.84585
▁소니	-9.84606
▁예술	-9.84622
▁속도	-9.84947
▁후반	-9.85002
▁군부	-9.85072
▁기억	-9.85132
▁찾아	-9.85138
▁짜	-9.85138
▁블레	-9.85161
▁빨	-9.85169
▁편	-9.85182
▁기대	-9.85186
니파	-9.85252
▁흡	-9.85268
▁아르헨	-9.85378
밀	-9.85416
▁나와	-9.85431
▁노래	-9.85531
▁게이츠	-9.85751
프리	-9.85815
▁여기	-9.85862
▁떨어져	-9.85889
▁법무	-9.85936
ing	-9.86128
▁않겠다	-9.86275
▁첼시	-9.86279
▁요르단	-9.86311
▁다쳤다	-9.864
▁제이	-9.86454
▁출발	-9.86524
▁상업	-9.86804
▁부패	-9.86923
팅	-9.86999
▁시켜	-9.87019
쇼	-9.87033
▁상점	-9.87067
▁임시	-9.87116
▁피터	-9.87127
▁소지	-9.87285
▁지시	-9.87296
니아	-9.87329
▁넘	-9.87329
▁외국	-9.87335
▁3000	-9.87497
했다고	-9.87497
▁만든	-9.87619
▁편지	-9.87763
▁블랙	-9.87764
릭	-9.87783
▁진정	-9.8783
▁저장	-9.8794
▁잡지	-9.88004
▁망명	-9.88176
완	-9.88233
▁펜실베이니아	-9.8831
▁축	-9.88333
▁카라	-9.88358
▁현상	-9.88435
f	-9.88453
▁조합	-9.88477
▁경비	-9.88516
▁언제	-9.88584
▁근무	-9.88591
▁토니	-9.88641
▁웨스트	-9.88676
▁우선	-9.88801
▁연결	-9.88848
▁걱정	-9.88871
▁있지	-9.89072
▁여론	-9.89095
▁참	-9.89125
▁질병	-9.89208
▁유대	-9.89217
딩	-9.89224
▁벌금	-9.89268
▁유전	-9.89377
▁사관	-9.8939
▁조금	-9.89593
▁들린	-9.89628
▁갔다	-9.89738
▁허리	-9.89758
da	-9.89914
몬	-9.89949
▁투어	-9.8997
▁등장	-9.90042
ea	-9.90091
▁받기	-9.90147
▁네덜란드	-9.90186
스타	-9.90216
▁남북	-9.90241
▁캐	-9.9045
렛	-9.90578
▁예비	-9.9059
▁이끌	-9.90646
▁시킨	-9.90874
▁kg	-9.90899
▁옆	-9.90963
▁요리	-9.91012
▁위험한	-9.91022
▁네팔	-9.91039
레이스	-9.91066
▁for	-9.91074
▁저녁	-9.9113
납	-9.91138
▁지르	-9.91287
▁고용	-9.9135
▁자주	-9.91749
▁율	-9.91859
디어	-9.91862
못	-9.91993
▁수퍼	-9.92017
▁빠른	-9.92027
▁복귀	-9.92042
글	-9.92079
▁상징	-9.92106
▁축제	-9.92133
▁전기	-9.92212
▁겪고	-9.92229
▁대형	-9.92445
▁니콜라	-9.92478
찰	-9.92493
창	-9.92524
▁마르	-9.92629
▁공산	-9.92637
▁전자	-9.92765
▁이송	-9.92792
커스	-9.93095
▁국왕	-9.93136
▁1999	-9.93252
▁들었다	-9.93328
▁드는	-9.93568
▁수상했다	-9.93606
피스	-9.93716
▁소설	-9.93716
▁루이	-9.93845
▁브루	-9.93858
▁마크	-9.9401
쉬	-9.94125
▁프	-9.94251
▁국내	-9.94281
▁씩	-9.94536
▁far	-9.94841
짜	-9.94842
▁라이트	-9.9487
▁얘	-9.9489
▁챔피언	-9.94956
▁마일	-9.94966
▁혁명	-9.95143
활용	-9.95217
겐	-9.95217
▁찾	-9.95223
공장	-9.95275
탁	-9.95586
▁엘리자	-9.95598
▁연속	-9.95833
▁킹	-9.95881
▁보여주	-9.95902
구조대	-9.95999
▁대기	-9.96059
▁순찰	-9.96109
▁명이	-9.96133
▁임기	-9.96288
곡	-9.96508
▁의심	-9.96687
▁얻었다	-9.9673
폴	-9.96918
▁드라마	-9.97115
▁르	-9.9722
지사	-9.97257
▁마이	-9.97285
▁불리	-9.97339
▁츠	-9.97404
▁파타	-9.97474
희	-9.97599
▁되었	-9.97625
▁시키기	-9.97694
▁us	-9.97764
▁메드	-9.97814
▁가정	-9.97882
▁찾기	-9.97886
님	-9.97941
▁힉	-9.98113
▁신뢰	-9.98186
▁마다	-9.98225
▁유혈	-9.98228
▁상품	-9.98267
▁뉴질랜드	-9.98309
순	-9.98323
▁고래	-9.98402
운드	-9.98428
▁나섰다	-9.98454
▁알려지	-9.98501
이즈	-9.98542
지역	-9.98548
ode	-9.98577
▁자격	-9.98711
▁46	-9.98724
귀	-9.98966
▁시키	-9.98995
▁48	-9.99059
▁곡	-9.99144
▁성공했다	-9.9917
▁행성	-9.99318
▁스웨덴	-9.99324
▁됐을	-9.99332
하워	-9.99444
▁통치	-9.99475
▁하우스	-9.9953
▁4000	-9.99605
▁모하	-9.99606
▁식품	-9.99649
▁획	-9.9977
▁ia	-9.99808
▁좋지	-9.99925
▁싸움	-9.99932
▁오르	-10.0001
▁왔	-10.0015
▁온난	-10.0017
▁어린	-10.0019
첨	-10.002
▁윈	-10.0033
▁중요하다	-10.0039
▁해병	-10.0044
▁굴	-10.0062
▁수영	-10.0073
첼	-10.0094
▁확정	-10.0095
몰	-10.0098
▁쉽게	-10.011
▁할리	-10.0113
▁올렸다	-10.0113
▁넣	-10.0119
▁의문	-10.0122
람	-10.0137
샤	-10.0141
이틀	-10.0144
스로	-10.0156
▁행진	-10.0159
▁취임	-10.0159
부터	-10.0164
▁아래	-10.0169
컷	-10.017
▁센트	-10.0177
▁정확한	-10.018
▁포드	-10.0183
빌	-10.0189
▁끌어	-10.0201
▁윌	-10.0209
▁쯤	-10.0215
▁만들었다	-10.0216
▁중요	-10.0223
베리	-10.0228
l	-10.0237
▁37	-10.0249
▁금리	-10.0249
▁헨리	-10.0253
▁탁	-10.0256
▁놀라	-10.026
▁포르투갈	-10.0263
인공	-10.0265
▁검색	-10.0265
핑	-10.0265
▁없었	-10.0267
▁효	-10.0282
킨	-10.0286
▁만화	-10.0291
▁이웃	-10.0292
▁마틴	-10.0292
자리	-10.0296
쁜	-10.03
▁광산	-10.0301
생활	-10.0304
▁주자	-10.0305
▁맞아	-10.0315
▁모른다	-10.0324
▁헌	-10.0326
▁땅	-10.0352
▁보낸	-10.0356
▁쇼핑	-10.0362
▁로봇	-10.0367
▁일어난	-10.037
▁에드워	-10.0403
▁말레이	-10.0419
칭	-10.0427
▁거대	-10.0431
▁장례	-10.0439
▁해주	-10.0442
▁조각	-10.0444
▁h	-10.0445
▁없다는	-10.0446
자회	-10.0472
▁와인	-10.0479
▁블로그	-10.0483
프란시스	-10.0499
▁페더	-10.0501
픽	-10.0502
▁대단	-10.0509
였다	-10.0516
▁든	-10.0517
▁니콜	-10.0547
쳐	-10.0547
▁만들	-10.0548
▁인종	-10.0551
▁돌리	-10.0563
pc	-10.0576
▁art	-10.0578
▁적어	-10.0578
▁장애	-10.0587
▁리처드	-10.0596
▁유니	-10.0601
▁우주비행	-10.0602
곤	-10.0602
▁7000	-10.0606
도르	-10.0614
▁선전	-10.0617
액	-10.065
까	-10.0652
▁싶어	-10.0677
▁마라	-10.0693
▁어떠	-10.0699
남	-10.0701
▁외곽	-10.0702
▁왕세자	-10.071
▁제조업	-10.0715
▁풀	-10.0719
▁이기	-10.072
▁들어가	-10.0724
▁증권	-10.0732
▁근로	-10.0733
▁대처	-10.0734
▁해산	-10.0735
▁바람	-10.0742
▁기반	-10.0795
▁방어	-10.0795
▁성인	-10.0804
▁서식	-10.0805
▁39	-10.0815
스러운	-10.0821
▁new	-10.0824
▁1998	-10.0832
▁1980	-10.0833
▁유나이티드	-10.0835
▁결혼식	-10.0848
▁예산	-10.0851
▁촉	-10.0891
▁도중	-10.0891
▁떨어졌다	-10.0892
▁키스	-10.0909
▁소프트	-10.0911
dna	-10.0922
▁했는지	-10.0924
▁라파	-10.0924
▁전하	-10.0943
궁	-10.0948
▁법률	-10.0949
▁남아프리카	-10.0954
아라비아	-10.0955
▁드러났다	-10.0959
▁리그	-10.096
존스	-10.0978
▁구역	-10.0979
▁않기	-10.0992
▁적극	-10.0998
▁바리	-10.1006
▁장식	-10.1009
린다	-10.1024
▁바이	-10.103
리기	-10.1039
별	-10.1041
컬	-10.1045
▁찍	-10.105
잘	-10.1057
사고	-10.1058
▁트리	-10.1058
cia	-10.1064
굴	-10.1067
▁싱가포르	-10.1068
▁우크라이나	-10.1071
▁콜	-10.1072
▁기독교	-10.1075
▁의학	-10.1075
▁밑	-10.1089
▁께	-10.1091
▁화장	-10.1095
▁리치	-10.112
▁선물	-10.1121
▁600	-10.1122
충	-10.1122
위기	-10.1127
▁일어나	-10.1128
▁심한	-10.1136
▁수요	-10.115
▁150	-10.1158
▁테이	-10.1163
▁괴	-10.117
▁md	-10.1173
▁치고	-10.1175
▁얼음	-10.1179
▁방글라데	-10.1188
▁일리노이	-10.1188
▁배심	-10.1201
2	-10.1202
▁42	-10.1223
하며	-10.1249
▁증명	-10.1254
icle	-10.1254
▁이해	-10.1271
▁원유	-10.1271
▁보조	-10.1273
▁파티	-10.1287
▁편집	-10.1304
▁스티븐	-10.1306
▁힘든	-10.1313
▁심슨	-10.1316
애	-10.1323
▁38	-10.1334
▁비치	-10.1336
▁벌인	-10.1342
▁연락	-10.1364
졌다	-10.1366
▁혜	-10.137
조사	-10.1373
▁긍	-10.1373
▁33	-10.1374
▁정확	-10.1376
▁음주	-10.1377
워	-10.1377
체제	-10.138
▁닷	-10.138
▁내린	-10.1386
▁긴	-10.1409
▁쌍	-10.141
▁통합	-10.1428
▁who	-10.1436
질환	-10.1438
▁음모	-10.1442
▁청소년	-10.1443
▁교환	-10.1445
▁유명	-10.1459
폐	-10.148
대전	-10.1515
척	-10.1526
학교	-10.1529
▁흔	-10.1535
▁신체	-10.1543
라인	-10.1544
▁75	-10.1545
▁찾는	-10.1555
▁파운드	-10.1563
▁세포	-10.1583
혈	-10.1583
▁위자	-10.1589
맨	-10.159
▁앨	-10.1605
▁유리	-10.1608
▁폭격	-10.161
▁주목	-10.1617
호세	-10.1625
▁슬	-10.1637
▁사기	-10.165
▁주는	-10.1651
트릭	-10.166
케	-10.1668
티스	-10.1671
▁관람	-10.168
▁다이아몬드	-10.1688
▁산악	-10.1689
▁i	-10.169
롱	-10.1692
▁등록	-10.1702
지도	-10.1704
▁갑자	-10.1705
▁챔피언스	-10.1707
뉴	-10.1708
▁서브	-10.1709
▁척	-10.1747
▁민	-10.1769
▁아르	-10.177
▁가택	-10.1777
보관	-10.178
▁56	-10.1782
▁신경	-10.1786
▁민족	-10.1791
▁빠르	-10.1796
▁커피	-10.1804
념	-10.1804
▁올라	-10.1809
▁출시	-10.1809
▁테니스	-10.181
▁코미디	-10.181
▁1990	-10.1816
▁겨	-10.1834
▁관측	-10.1837
▁기본	-10.1846
▁휴전	-10.1851
▁감사	-10.1851
▁멋	-10.1855
닥	-10.1858
미르	-10.1867
즘	-10.1869
▁인가	-10.187
콧	-10.1878
▁파예	-10.1882
▁j	-10.1888
이트	-10.1891
▁tot	-10.1893
▁소비	-10.19
▁가질	-10.1907
▁인하	-10.1908
▁색	-10.1911
▁진실	-10.1912
스테	-10.1918
▁솔	-10.1927
▁cm	-10.1934
인트	-10.1936
▁1997	-10.1944
▁개막	-10.1945
▁육군	-10.1951
▁누군	-10.1958
▁51	-10.1959
이드	-10.1961
▁섹	-10.1968
슬	-10.197
씬	-10.1995
▁시점	-10.1998
▁보여	-10.201
▁생물	-10.2011
▁신속	-10.2012
▁뛰어	-10.2019
▁물이	-10.2042
▁한다면	-10.2053
▁무릎	-10.2061
▁빙하	-10.2065
춘	-10.2066
▁컵	-10.2068
흐	-10.2077
▁맺	-10.2081
▁유치	-10.209
냥	-10.21
▁마시	-10.2111
하지	-10.2134
▁재산	-10.2138
컴	-10.2151
▁셀	-10.2155
▁줄리	-10.2162
▁52	-10.2171
▁되자	-10.2171
▁측정	-10.2172
▁됐으	-10.2172
0	-10.2173
▁봄	-10.2178
암	-10.2193
▁멸종	-10.2194
▁리콜	-10.2196
▁떠나	-10.22
▁덴마크	-10.2203
▁검거	-10.2205
▁남아공	-10.2205
▁자산	-10.2206
디오	-10.2208
▁입양	-10.2214
▁영상	-10.2216
▁디즈니	-10.2217
▁어디	-10.2221
▁재난	-10.2226
잔	-10.2227
▁철도	-10.2241
▁없어	-10.2255
▁나스	-10.2257
교사	-10.2259
▁내각	-10.2271
▁스테	-10.2276
▁바라고	-10.2299
▁나갈	-10.232
▁1994	-10.2344
▁중독	-10.2346
▁쿠퍼	-10.2346
▁치러진	-10.2352
▁배경	-10.2355
쇄	-10.2358
▁데이터	-10.2359
▁카페	-10.2378
▁갖추	-10.2379
▁월	-10.238
▁월간	-10.2382
▁주일	-10.2383
▁34	-10.2389
▁거뒀다	-10.239
▁배출	-10.2392
▁항소	-10.2396
듭	-10.2406
수용	-10.2409
▁가입	-10.2411
▁훼	-10.2416
▁으로써	-10.2426
▁공중	-10.2429
▁오사	-10.2447
봉	-10.2448
▁co	-10.2452
차드	-10.2456
▁덮	-10.2466
▁득표	-10.2467
▁휘발	-10.2468
몇	-10.247
▁페루	-10.2473
▁잡고	-10.2479
3	-10.249
▁보여줬다	-10.2492
▁마이크로	-10.25
▁튼	-10.251
촌	-10.2513
싼	-10.2517
욕	-10.2519
▁줬다	-10.2521
▁납	-10.2528
▁그림	-10.2528
가니	-10.2535
폭	-10.2543
훨	-10.2545
▁탐	-10.2556
라도	-10.2557
럴	-10.2566
▁페리	-10.2581
▁빌리	-10.2582
▁중부	-10.2588
▁풍	-10.2594
er	-10.2594
▁작동	-10.2597
▁64	-10.2602
▁새끼	-10.2608
▁힘들	-10.2614
▁스리랑카	-10.2619
▁콩고	-10.2622
▁동성애	-10.2624
▁크리스마스	-10.2625
▁콘서	-10.263
▁리드	-10.2631
하다	-10.2631
딕	-10.2638
▁잃었다	-10.2645
▁리히	-10.2648
▁우울	-10.2649
레나	-10.2654
▁대량	-10.2665
▁수집	-10.2667
▁조지아	-10.2668
▁원제	-10.267
▁많다	-10.2674
▁됐었다	-10.2678
▁베를	-10.2678
▁브랜	-10.268
▁실패	-10.269
슬리	-10.2693
▁만드는	-10.2699
태평양	-10.2699
▁극장	-10.2702
클	-10.2704
레이	-10.2706
▁만난	-10.2707
▁오토	-10.2708
웰	-10.271
▁짧	-10.2716
▁공유	-10.274
▁결선	-10.2745
평	-10.2746
▁44	-10.2752
▁듯	-10.2754
▁드리	-10.2757
▁연장	-10.2771
칙	-10.279
▁방영	-10.2793
▁관찰	-10.2798
▁빅	-10.2803
▁이뤄지	-10.2805
▁방지	-10.2815
고래	-10.2815
▁높	-10.282
▁할지	-10.2835
,	-10.2843
우라	-10.2848
▁아부	-10.2857
▁억	-10.2859
▁걸어	-10.2861
▁궤	-10.2873
롤	-10.2874
▁아일랜드	-10.2874
▁애완	-10.2892
보호	-10.2892
▁다큐	-10.2892
▁케네	-10.2897
▁신청	-10.2897
▁앓고	-10.2899
▁운송	-10.29
▁오스트리아	-10.2906
끼	-10.2907
▁입어	-10.2909
▁경보	-10.2911
오브	-10.2917
▁아베	-10.2929
▁카드	-10.2935
▁절대	-10.2939
르셀로	-10.294
▁인생	-10.2942
▁돼있다	-10.2964
▁물리	-10.297
▁얻기	-10.2971
▁보통	-10.2973
▁나올	-10.2979
▁무력	-10.2987
틀러	-10.2989
t	-10.2993
▁대체	-10.2994
▁자기	-10.2999
▁통화	-10.3006
시내	-10.3019
▁국회	-10.302
▁빠져	-10.3031
▁뮤지	-10.3038
▁파트너	-10.3043
▁있다면	-10.3045
▁부서	-10.3051
▁주고	-10.3056
공화국	-10.306
은행	-10.3062
▁맥주	-10.308
▁공화국	-10.309
▁선발	-10.3091
▁빚	-10.3092
▁포경	-10.3094
cle	-10.3104
접	-10.312
지어	-10.3121
▁원하는	-10.3132
▁롭	-10.314
▁돌아가	-10.3141
▁미니	-10.3142
둥	-10.3147
이는	-10.3149
▁대다	-10.3165
▁태어난	-10.3189
▁밝혀	-10.3191
▁봤다	-10.3191
▁아이오와	-10.3194
▁저지	-10.3197
▁노스캐롤라이나	-10.3201
tv	-10.3207
겠다	-10.321
▁크리스토	-10.321
▁보였	-10.3211
반도	-10.3224
▁벌어진	-10.3228
틀	-10.3229
▁강경	-10.3239
▁화학	-10.3241
▁블	-10.325
▁하라	-10.3255
▁숨	-10.3269
▁가수	-10.3273
▁끝난	-10.3286
센	-10.3287
십	-10.3304
▁카트	-10.3312
▁수업	-10.3312
▁고등	-10.3314
▁봉사	-10.3318
회사	-10.332
▁적십자	-10.3324
불어	-10.3329
▁걸릴	-10.3334
▁산림	-10.3341
▁43	-10.3341
▁알래스카	-10.3343
슬러	-10.3347
▁2009	-10.3349
▁ac	-10.335
▁모스크	-10.3355
▁통계	-10.3357
았다	-10.3358
▁올린	-10.3369
▁멜	-10.3374
▁뼈	-10.3374
▁델	-10.3382
▁생일	-10.3387
▁arti	-10.3388
▁베트남	-10.3391
▁누리	-10.3392
▁진화	-10.3392
▁800	-10.3394
▁130	-10.3394
▁검문	-10.3401
▁바르	-10.3405
네이	-10.3412
젠	-10.342
▁노리	-10.3433
▁존슨	-10.3434
▁궁	-10.3441
▁맞서	-10.3441
▁예루살	-10.3442
▁떠났다	-10.3447
▁카스트	-10.3448
▁감정	-10.3451
▁펜	-10.3458
채	-10.3476
▁연주	-10.3491
▁폴란드	-10.3491
▁에어버스	-10.3495
▁개정	-10.3496
▁55	-10.3496
▁천연	-10.3506
▁6000	-10.3508
▁인민	-10.3508
▁복제	-10.3522
략	-10.3526
스럽게	-10.3529
▁당한	-10.3533
▁사법	-10.3533
▁심사	-10.3537
▁신호	-10.354
▁고대	-10.3549
▁프라	-10.3549
▁혹	-10.3556
▁느끼	-10.3558
▁크루즈	-10.3563
아이	-10.3566
▁갤	-10.3571
▁노인	-10.3582
칸	-10.3583
▁코스	-10.3591
▁네트워	-10.3633
▁믿고	-10.3633
왕복	-10.3633
▁마이크	-10.3639
▁발굴	-10.3641
r	-10.3642
▁알코올	-10.3643
▁레스토랑	-10.3648
▁66	-10.3657
▁2500	-10.3659
▁쳐	-10.366
헤	-10.3666
▁일리	-10.3677
▁출판	-10.3692
▁53	-10.3696
▁숙	-10.3728
▁해적	-10.3731
▁위안	-10.3734
▁플	-10.3735
▁다가	-10.3736
▁훌륭	-10.3748
▁이글	-10.3752
에게	-10.3755
▁모건	-10.3762
▁인공	-10.377
배우	-10.3773
▁아동	-10.3778
▁in	-10.3781
▁혈	-10.3782
pp	-10.3795
▁붉은	-10.3797
▁신도	-10.3797
▁입국	-10.3798
▁남아	-10.38
▁네바다	-10.38
▁49	-10.3806
▁이익	-10.3813
▁분위	-10.3815
▁차전	-10.3817
▁랄	-10.3818
▁디자이너	-10.382
▁마쳤다	-10.3825
▁중재	-10.3842
▁원한다	-10.386
멍	-10.3864
▁당수	-10.3865
▁러	-10.3888
▁침해	-10.3889
번째	-10.389
▁넘어	-10.3892
째	-10.3903
▁페이지	-10.3904
▁났다	-10.3911
▁매니	-10.3919
▁초대	-10.3922
▁보상	-10.3922
▁촌	-10.3928
tion	-10.3929
▁뒷	-10.3934
▁에르	-10.3944
▁보잉	-10.3953
▁북핵	-10.3955
▁벨기에	-10.3959
▁맡은	-10.3959
▁페일	-10.3961
▁유사	-10.3961
▁펭	-10.3964
▁타이틀	-10.3964
▁잃은	-10.3966
▁특정	-10.3968
붕	-10.3981
해졌다	-10.3985
▁어스	-10.3993
▁기다리고	-10.3995
▁실패했다	-10.4012
▁콜린	-10.4013
ed	-10.4013
▁가득	-10.4023
빙	-10.4033
▁밝	-10.4035
드시	-10.4038
▁디자	-10.4041
▁됐다는	-10.4047
▁요소	-10.4048
▁스타일	-10.4053
▁노스	-10.4053
▁리오	-10.4055
▁무리	-10.4061
▁의식	-10.4065
기지	-10.4076
▁부여	-10.4076
▁요인	-10.4085
빗	-10.4085
▁서방	-10.4089
므	-10.4095
둔	-10.411
▁빈곤	-10.4113
▁낼	-10.4117
▁적절한	-10.4118
ion	-10.412
▁애틀랜	-10.412
▁조차	-10.4129
▁라스베	-10.4135
엔	-10.4141
콘	-10.4143
새	-10.4146
▁헬	-10.4156
▁죄	-10.4159
▁무시	-10.416
▁54	-10.4163
▁에드	-10.4168
▁신부	-10.4168
▁돼야	-10.4181
콰	-10.4196
▁나가	-10.4201
얼	-10.4207
▁재건	-10.421
▁토마	-10.4228
▁꺾	-10.4231
거스	-10.4237
▁항공우주	-10.4239
▁필립	-10.4244
▁상공	-10.4247
▁학대	-10.4248
▁섭취	-10.4275
▁부담	-10.4278
▁콜레	-10.428
▁황	-10.4283
▁인디애나	-10.4288
▁8000	-10.4297
▁골드	-10.4308
▁머물	-10.4309
마르	-10.4309
▁객	-10.4309
▁보복	-10.4312
범위	-10.4325
▁호수	-10.4335
▁기타	-10.4336
염	-10.4352
▁단순	-10.4352
▁수정	-10.4355
올	-10.4358
▁나이트	-10.4359
▁워터	-10.4365
▁이슬라	-10.4371
연금	-10.4375
▁이하	-10.4397
▁돕	-10.4415
▁풀려	-10.4423
총리	-10.4435
▁빛	-10.4435
▁피랍	-10.4437
타나	-10.4438
▁쓰촨	-10.4442
▁유튜	-10.4445
익	-10.4445
▁극복	-10.4446
▁io	-10.4452
▁균	-10.4454
▁리차드	-10.4455
▁헤즈	-10.4456
▁다국적	-10.4457
덤	-10.4458
▁기대하고	-10.4465
▁펼쳤다	-10.4466
렐	-10.4474
▁가슴	-10.4476
▁명예	-10.4478
▁지정	-10.4486
▁영토	-10.4488
▁해줄	-10.4488
▁최저	-10.4489
▁서울	-10.4505
켈	-10.4506
▁일으킨	-10.4509
▁무선	-10.4512
5	-10.4536
▁인류	-10.454
▁fa	-10.454
▁않으면	-10.4541
▁클레	-10.4542
룡	-10.4544
▁조명	-10.4553
▁크라이	-10.4559
옹	-10.4564
▁꿈	-10.4567
▁몰	-10.4571
▁포터	-10.4574
▁하이	-10.4577
▁추구	-10.4578
▁옐	-10.4581
▁주차	-10.4585
타민	-10.4589
▁잭	-10.4591
i	-10.4595
▁양육	-10.4613
▁참모	-10.4622
▁감지	-10.4624
쿠데	-10.4626
▁에베레스트	-10.4627
짐	-10.4636
▁오딩	-10.4638
▁원자력	-10.464
나미	-10.4641
▁대출	-10.4654
▁분노	-10.4658
▁그루지	-10.4659
▁쓴	-10.4663
▁노트	-10.4665
9	-10.4669
▁인명	-10.4672
스틴	-10.4679
▁그랜드	-10.4694
귄	-10.4702
▁록	-10.4702
▁조성	-10.4703
탄소	-10.4711
▁션	-10.4716
▁사가	-10.4736
▁다운	-10.475
▁왼	-10.4765
▁파크	-10.4771
▁흉	-10.4778
▁보내는	-10.4781
▁숀	-10.4783
▁피닉스	-10.4792
▁페이스	-10.4792
▁아름다	-10.4794
징	-10.4796
▁불러	-10.4803
▁활주	-10.4807
▁부르	-10.4823
▁dv	-10.4827
▁모인	-10.4828
▁받아야	-10.4831
▁들고	-10.4835
펠	-10.4839
▁검은	-10.4843
같이	-10.4848
▁젊은이	-10.4852
▁r	-10.4859
주연	-10.486
바드	-10.4866
스트라	-10.4868
▁세나	-10.4869
▁스토	-10.4882
▁이뤄	-10.4885
▁250	-10.4886
▁중간	-10.4886
▁찾고	-10.4892
▁서안	-10.4896
허	-10.4905
▁기계	-10.4906
▁얀	-10.4907
빠진	-10.4913
▁고립	-10.492
▁이르는	-10.4931
행위	-10.4932
웅	-10.4936
마빈	-10.4944
▁닉	-10.4947
유로	-10.4948
▁지상	-10.4958
▁택	-10.4961
▁블라디	-10.4967
▁샤리	-10.4969
▁아니었다	-10.4973
▁화이트	-10.4974
▁상하이	-10.4975
▁승부	-10.4984
▁이산화	-10.4987
▁흔들	-10.4992
▁몰아	-10.4997
플루	-10.5004
▁콸	-10.5012
▁출산	-10.5017
▁59	-10.5024
학자	-10.5024
몽	-10.5025
▁하려고	-10.5028
▁성직	-10.5033
닝	-10.5034
▁생긴	-10.5043
▁자본	-10.505
▁가졌	-10.5051
▁소련	-10.5052
히려	-10.5055
▁되어야	-10.506
▁65	-10.5062
▁부가	-10.5072
▁기상	-10.5076
▁기차	-10.5079
▁들어갔다	-10.5092
디네	-10.5118
▁반기	-10.5118
▁값	-10.5124
▁리조	-10.5126
▁대리	-10.513
▁응급	-10.5146
▁해양	-10.5146
▁콜로라도	-10.515
▁수상한	-10.5159
▁1500	-10.5162
▁아이폰	-10.5163
▁끌	-10.5164
섬	-10.5169
▁안전한	-10.5172
려고	-10.5175
▁사찰	-10.5176
▁칭	-10.5178
▁높아지	-10.5183
▁미술	-10.5195
▁말라	-10.5196
▁ib	-10.5199
▁벌였	-10.52
▁얻을	-10.5205
▁사막	-10.5207
▁받는다	-10.5211
▁보여준다	-10.5221
▁갱	-10.5226
▁편이	-10.5227
▁실린	-10.5235
▁폭행	-10.5241
▁41	-10.5249
▁화물	-10.5252
▁있어서	-10.5254
▁nation	-10.5255
쿠	-10.5256
▁형사	-10.526
성과	-10.5262
죽	-10.5267
▁쿠웨이	-10.5273
▁벗	-10.5275
▁내릴	-10.5275
햄	-10.5279
▁얼	-10.528
이라	-10.5283
넷	-10.5284
기분	-10.5285
▁손해	-10.5289
하기	-10.5295
▁보지	-10.5301
▁그리	-10.5302
▁흰	-10.5302
이스	-10.531
▁체중	-10.532
곰	-10.5323
▁좌석	-10.5325
▁샌디에	-10.5329
▁마이애미	-10.5332
▁종합	-10.5336
▁우주정거장	-10.5338
▁사냥	-10.5345
▁온실	-10.536
다리	-10.5369
▁취할	-10.5375
▁시키려	-10.5376
▁유감	-10.5379
▁지키	-10.5379
▁언어	-10.5387
▁유발	-10.5396
▁고고학	-10.5402
▁독재	-10.5404
▁얻어	-10.5408
▁편의	-10.5411
▁웨이	-10.5424
▁만들어진	-10.5431
▁정지	-10.5432
▁돌아	-10.5437
▁사령	-10.5439
▁전당	-10.5439
결승	-10.5439
▁문구	-10.5442
덕	-10.5447
▁58	-10.5463
비치	-10.5467
▁버렸다	-10.5473
헨	-10.5481
▁클라	-10.5487
4	-10.5489
우스	-10.5491
코틀	-10.5494
efa	-10.5496
▁이민	-10.5498
▁동성	-10.5503
▁숫	-10.5505
부르크	-10.5512
▁파나마	-10.5514
▁york	-10.5517
▁로드리게	-10.5517
▁프리미어	-10.5518
▁남극	-10.5519
▁급속	-10.5522
▁잠재	-10.5526
▁꼭	-10.5526
x	-10.5529
동시	-10.553
▁골프	-10.5536
▁해달라	-10.5537
▁권한	-10.5552
캔	-10.5563
▁심의	-10.557
▁쳤다	-10.5571
▁120	-10.5581
섭	-10.5581
소프트	-10.5592
유지	-10.5593
▁낳	-10.5609
콤	-10.5611
▁드레스	-10.5615
▁대륙	-10.5616
▁특수	-10.5623
▁가능하다	-10.5624
킥	-10.5634
균	-10.5641
▁염	-10.5644
kk	-10.5653
유럽	-10.5659
▁영양	-10.5665
▁피고	-10.5671
▁공포	-10.5673
▁이뤄졌다	-10.5681
▁흐	-10.5688
▁캐릭	-10.5693
▁겨울	-10.5694
▁근육	-10.5694
▁61	-10.5694
어질	-10.5702
▁줄어들	-10.5706
▁오스카	-10.571
▁돼지	-10.571
▁출구	-10.5711
▁빨간	-10.5713
▁america	-10.5713
▁사우스캐롤라이나	-10.5714
▁뱀	-10.5718
차별	-10.572
▁이슬람교	-10.5732
▁클리	-10.5734
▁퍼센	-10.5742
▁잇	-10.5748
▁l	-10.5749
환경	-10.5754
▁보낼	-10.5755
ia	-10.5758
▁입었	-10.5783
▁치명	-10.5788
▁수송	-10.5806
▁앉아	-10.5813
▁대학교	-10.5819
▁자르	-10.5822
u	-10.5822
의미	-10.5823
▁먹	-10.5828
카드	-10.5829
▁로비	-10.583
카르타	-10.5831
▁네스	-10.5832
티오	-10.5835
▁오염	-10.5836
페이지	-10.5839
▁민감	-10.5844
▁대성	-10.5844
▁용기	-10.5872
▁무하	-10.5888
▁알려져	-10.5896
▁뉴햄프셔	-10.5898
▁노르웨이	-10.5898
▁1970	-10.5901
▁화해	-10.5906
▁신종	-10.591
▁오프라	-10.5918
▁투르	-10.592
▁불편	-10.5926
다면	-10.5929
▁세로	-10.5946
▁자극	-10.5949
▁달린	-10.5957
▁나오지	-10.5957
▁벌어지	-10.5962
▁황금	-10.5963
▁넬	-10.5968
▁놀이	-10.5971
▁개체	-10.5973
▁했기	-10.5974
▁아메리칸	-10.5976
▁웨	-10.5981
▁먹이	-10.5982
▁묵	-10.5986
▁기대한다	-10.5993
▁방화	-10.5994
▁주기	-10.5996
▁백만	-10.6007
land	-10.6011
쳤다	-10.6011
▁종이	-10.6016
▁생물학	-10.6017
▁nat	-10.6019
▁망	-10.602
▁빙	-10.6025
릿	-10.6025
▁알렉	-10.6028
tal	-10.6032
▁퀸	-10.6033
▁스튜	-10.6038
▁세웠다	-10.6038
▁이끌어	-10.6049
▁수비	-10.605
막	-10.605
▁리서	-10.6054
▁윔	-10.6064
▁수하	-10.6071
▁뿌리	-10.6083
▁침몰	-10.6084
▁거짓말	-10.609
▁포트	-10.6093
▁매춘	-10.6093
휘	-10.6096
▁소행성	-10.6096
스코	-10.6097
▁부동	-10.6101
▁무죄	-10.6102
나무	-10.6104
▁완벽	-10.6105
▁만났다	-10.6113
▁조선	-10.6116
주민	-10.6121
▁후원	-10.6124
▁박스	-10.613
▁소문	-10.6133
▁날개	-10.614
▁파라	-10.6141
▁보면	-10.6148
습니다	-10.6167
▁추모	-10.6175
▁즐	-10.6183
▁신분	-10.6187
▁라이언	-10.619
▁숨졌	-10.619
서양	-10.6192
▁정교	-10.6208
힘	-10.6215
▁동기	-10.622
▁가상	-10.6233
난감	-10.6234
숭	-10.6234
페	-10.6237
로티	-10.6241
▁에어	-10.6243
국적	-10.6261
▁옛	-10.6264
▁엄청	-10.6271
걸	-10.6271
▁아이디	-10.6274
로써	-10.6277
▁하와이	-10.6282
▁쓰레기	-10.6289
▁뉴저지	-10.6289
▁분명히	-10.6295
▁cd	-10.6297
▁리우	-10.6299
▁맡고	-10.6307
▁영업	-10.6312
▁구축	-10.6316
▁습	-10.6316
▁외계	-10.6321
▁380	-10.6326
▁고등학	-10.6336
▁폭스	-10.6338
▁글로	-10.6338
▁심리학	-10.6339
▁에이커	-10.634
▁기아	-10.6343
현실	-10.6346
▁탑	-10.6347
▁케르	-10.6352
▁맡았다	-10.6353
▁견	-10.6354
8	-10.6354
▁상상	-10.6355
▁57	-10.636
▁탄생	-10.636
▁라우	-10.636
▁텐	-10.6368
▁건축	-10.6368
하르	-10.6371
에는	-10.6381
먼트	-10.6386
버지	-10.6394
▁놓	-10.6402
▁일치	-10.6407
▁셰	-10.6408
▁이론	-10.641
▁태우	-10.6411
▁그레	-10.6426
▁아메	-10.6443
▁공무	-10.6446
▁사전	-10.6458
평양	-10.6463
▁공정	-10.6463
간다	-10.6464
▁모기	-10.6464
이어	-10.6479
▁실망	-10.6481
호르	-10.6483
▁앞섰	-10.6489
▁에릭	-10.6489
▁빈민	-10.6493
▁늦게	-10.6493
▁부활	-10.6493
▁호나우	-10.6494
▁딕	-10.6494
▁모르	-10.6496
▁1993	-10.6499
▁구단	-10.6503
▁라면	-10.6507
to	-10.6508
▁스트레	-10.653
겼다	-10.6538
▁샤라	-10.654
▁밀리	-10.6541
▁전염	-10.6542
▁캘리포니아주	-10.6544
▁출입	-10.6546
▁일주	-10.6551
핀	-10.6563
▁페트	-10.6567
▁고조	-10.657
▁자원	-10.657
값	-10.6582
▁엄격	-10.6597
▁시켰	-10.6603
세지	-10.6605
▁오스	-10.6618
▁리비	-10.6621
섯	-10.6626
▁번호	-10.6626
▁올랐	-10.6639
nba	-10.6646
이브	-10.6647
▁캐리	-10.6647
▁위생	-10.6655
▁62	-10.6667
▁로저	-10.6672
▁피난	-10.6678
▁가는	-10.668
▁돌려	-10.668
듯	-10.6682
▁우드	-10.6689
▁느낄	-10.6692
▁뉴욕타임	-10.6695
모리	-10.6702
▁간단	-10.6704
▁미시시피	-10.6706
▁화합	-10.6707
▁1996	-10.6708
▁직업	-10.6715
▁2010	-10.6718
▁67	-10.6723
▁데스	-10.6727
▁체코	-10.6733
▁유력	-10.6739
▁알렸다	-10.6739
▁만들기	-10.6741
▁토크	-10.6754
▁에게서	-10.6756
▁침대	-10.6764
▁합병	-10.6765
▁음성	-10.6767
라마	-10.6794
▁지켜	-10.6796
웨이	-10.6797
▁조류	-10.6803
렌스	-10.6811
▁국회의	-10.6817
▁47	-10.683
▁링	-10.6848
넹	-10.6848
룰	-10.6848
▁타임스	-10.6853
▁딜	-10.6875
▁공기	-10.6878
▁벌여	-10.6882
경기	-10.6882
▁둘러	-10.6886
▁미스	-10.6892
데프	-10.6895
▁포스트	-10.6895
▁해왔	-10.6897
rb	-10.6899
▁있는데	-10.6899
▁잡아	-10.6902
▁샘플	-10.6905
▁멤버	-10.6906
▁돌아오	-10.6908
▁앤더	-10.6914
▁게릴라	-10.6915
▁메드베	-10.6917
▁사육	-10.6919
▁공모	-10.692
▁과도	-10.6925
▁하트	-10.693
ol	-10.694
▁클래	-10.6948
▁구제	-10.6951
▁그렇지	-10.6953
▁관여	-10.6955
▁마스터	-10.6956
▁라운	-10.6959
▁블루	-10.6962
fp	-10.6966
w	-10.6972
▁맞춰	-10.6973
▁롱	-10.6974
헌	-10.6975
▁호프	-10.698
고기	-10.6989
랄	-10.6989
▁정착	-10.6991
▁해야만	-10.6998
레반	-10.6998
▁거쳐	-10.7003
▁우스	-10.7009
▁뉴욕시	-10.7015
이션	-10.7024
▁거두	-10.7029
▁카를로	-10.703
▁화려	-10.7036
▁일상	-10.7045
▁정전	-10.7052
티모	-10.7053
투표	-10.7056
▁준다	-10.7058
▁이중	-10.706
스페이스	-10.7065
▁오케	-10.7066
▁끝나	-10.7078
▁196	-10.708
파라치	-10.7084
▁인력	-10.7105
▁쓰고	-10.7122
▁탐험	-10.7124
▁일찍	-10.7125
머스	-10.7127
▁디지털	-10.7131
▁천주교	-10.7132
▁깨	-10.7133
▁환호	-10.7135
▁캄보디아	-10.7135
▁알바니아	-10.7137
▁펜실베니아	-10.7139
▁1960	-10.714
▁기쁘다	-10.7141
▁돌파	-10.7147
기로	-10.7151
▁디스크	-10.7158
▁연예	-10.7159
▁south	-10.7161
힐	-10.7162
▁산책	-10.7164
▁불길	-10.7165
▁사각	-10.7167
▁호가	-10.7183
▁바스	-10.7184
▁압수	-10.7197
▁상담	-10.7197
▁해고	-10.72
▁모여	-10.7201
▁방출	-10.7209
▁들어가는	-10.7224
▁76	-10.7227
▁오마	-10.7243
▁만들고	-10.7243
렵	-10.7245
▁상호	-10.7246
▁않았던	-10.7247
▁바라	-10.7248
▁소형	-10.7249
▁풀어	-10.7258
렉	-10.7262
▁무게	-10.7274
▁베어	-10.7284
▁댄	-10.7293
▁절도	-10.7301
▁방송사	-10.7301
▁일으켰다	-10.7301
▁코카	-10.7302
▁핀	-10.732
▁랜드	-10.7325
▁믿는다	-10.7329
▁나갔다	-10.7335
▁직장	-10.7335
▁롤링	-10.7344
▁사르	-10.735
▁앤드류	-10.7355
르베	-10.7355
▁첨	-10.7355
▁코너	-10.7356
▁복잡	-10.7358
▁1989	-10.736
▁받아들일	-10.7361
슐	-10.7364
▁as	-10.7368
▁농업	-10.737
▁치러지	-10.7377
▁스테이	-10.7377
▁center	-10.7392
▁부채	-10.7393
▁번역	-10.7394
6	-10.7402
▁내리	-10.7405
▁놀	-10.7407
▁메디	-10.7412
▁클레이	-10.7413
▁정찰	-10.7416
▁빌라	-10.7417
콕	-10.7417
▁늘어	-10.7427
▁컨	-10.7432
▁소득	-10.7432
▁파산	-10.7442
▁론	-10.7449
▁둘러싸	-10.7457
펜	-10.7459
▁보여주고	-10.7467
▁가구	-10.748
▁의무	-10.7486
▁걸린	-10.7498
▁라스	-10.751
▁넓	-10.7512
▁나타내	-10.7512
정거장	-10.7523
메이	-10.7526
▁72	-10.7538
▁맹	-10.7541
연료	-10.7543
멸	-10.7543
▁아메리	-10.755
아야	-10.755
이크	-10.7556
▁턱	-10.7561
▁짓	-10.7566
▁게이	-10.758
▁아는	-10.7584
▁애리조나	-10.7585
▁킬로미터	-10.7592
▁아웅산수	-10.7592
퀴	-10.7595
▁숲	-10.7598
▁졸리	-10.7602
탑	-10.7602
▁늘어나	-10.7609
▁솔로	-10.761
낼	-10.7618
여진	-10.7637
▁마친	-10.764
셋	-10.7642
▁호흡	-10.7662
st	-10.7664
▁데이비스	-10.7667
▁랩	-10.7668
▁리트	-10.7669
▁카리	-10.7682
▁자랑	-10.7696
이고	-10.7706
▁세르	-10.7715
▁가벼	-10.7723
▁불과	-10.7724
es	-10.7727
▁올려	-10.7736
▁남동	-10.7738
▁브라	-10.7753
▁휘	-10.7761
▁누르	-10.7763
▁청사	-10.7766
철	-10.7775
▁잃	-10.7794
▁벗어나	-10.7802
▁러닝	-10.7805
▁특징	-10.7807
▁스캔	-10.781
▁광범위	-10.7814
▁일어날	-10.7815
▁알렉산	-10.7815
▁치열한	-10.7819
▁1995	-10.782
▁아랍에미리트	-10.7823
▁천문학	-10.7825
▁브로	-10.7828
롬	-10.7829
▁테리	-10.784
▁세인트	-10.7841
리지	-10.7843
▁총상	-10.7859
▁전시회	-10.7866
▁카트리	-10.7876
▁파바	-10.7876
▁마사	-10.7876
▁과반	-10.7883
실험	-10.7884
▁나치	-10.79
▁700	-10.7916
▁들어오	-10.7934
카오	-10.7937
추세	-10.7938
▁덕	-10.794
효	-10.794
▁슛	-10.7943
리케인	-10.7943
리나	-10.795
▁컴	-10.7951
▁se	-10.7955
바오	-10.7956
▁반도	-10.7957
▁디스	-10.7957
▁주제	-10.796
▁세워	-10.7961
▁치러	-10.7962
▁연대	-10.7963
▁덩	-10.7966
▁리아	-10.7972
▁상관	-10.7985
▁at	-10.7988
운전	-10.799
▁유적	-10.7995
▁잊	-10.8002
▁고급	-10.8014
퍼스	-10.8018
ey	-10.8018
▁스케	-10.8018
▁im	-10.802
▁전복	-10.8041
▁맛	-10.8042
▁흥행	-10.8044
▁녹색	-10.8048
▁일기	-10.805
▁상륙	-10.8054
항공	-10.8056
싱	-10.8057
▁루이지애나	-10.8058
▁플라스	-10.8059
밝혔다	-10.8063
▁이뤄진	-10.8064
저스	-10.8064
j	-10.8065
▁게시	-10.8068
▁않는다면	-10.8069
▁헤드	-10.8073
▁내렸	-10.8086
▁봤	-10.8088
▁내놓	-10.8092
▁플로리다주	-10.8094
▁소수	-10.8096
▁pp	-10.8096
▁라이프	-10.8102
▁화상	-10.8109
▁지었다	-10.8113
▁리더	-10.8113
▁탄소	-10.8117
de	-10.8118
끔	-10.8123
▁쉽지	-10.8127
▁바닥	-10.8132
▁제보	-10.8133
▁알레	-10.8136
▁몰고	-10.8138
▁있어야	-10.8144
▁전용	-10.8151
▁스카이	-10.8151
▁노선	-10.8152
▁북동	-10.8155
▁x	-10.816
륙	-10.8171
▁행복	-10.8179
▁스턴	-10.8184
▁탱	-10.8184
꾼	-10.8186
▁95	-10.8186
▁늘	-10.8187
빠	-10.819
▁무너	-10.8193
▁희	-10.8206
▁카스	-10.8207
▁연출	-10.8209
▁끼	-10.8214
▁나서	-10.8219
▁82	-10.823
ation	-10.8234
▁지질	-10.8237
▁묻	-10.8249
란드	-10.8251
위성	-10.8255
▁크리	-10.8256
▁버리	-10.8258
▁뛰	-10.826
▁63	-10.8261
▁성폭	-10.8262
ton	-10.8262
▁다르다	-10.8267
▁베르	-10.8269
스크	-10.8276
7	-10.8279
▁어렵다	-10.8297
▁하이브리드	-10.8302
▁재활용	-10.8311
▁됐는지	-10.8317
▁열심	-10.8318
콸	-10.832
▁레인	-10.8321
▁내려진	-10.8333
▁니스	-10.8351
▁성공한	-10.8355
▁차단	-10.8357
▁알라	-10.8358
▁운명	-10.837
아얄	-10.8373
경찰	-10.8375
▁로드	-10.8378
▁맞는	-10.8386
금리	-10.8389
지원	-10.839
▁부족하다	-10.8391
▁구경	-10.8391
▁리브	-10.8391
▁곰	-10.8393
▁체인	-10.8393
▁상반	-10.8407
이다	-10.8408
▁깃	-10.8413
▁적합	-10.8418
▁기상청	-10.842
킬	-10.8423
▁서류	-10.8423
▁fr	-10.8426
▁유명인	-10.8428
▁히트	-10.8432
▁주립	-10.8438
바스	-10.844
▁be	-10.8446
▁게리	-10.8456
▁있을지	-10.8478
▁하였다	-10.8479
▁기다리	-10.8485
▁올리	-10.8494
▁나누	-10.8495
▁양성	-10.8515
드로	-10.8517
주교	-10.8517
▁불쾌	-10.8518
▁미치는	-10.852
▁처방	-10.8532
▁일어났다	-10.8534
▁숙박	-10.8539
▁면접	-10.854
▁펄	-10.8541
▁다룬	-10.8543
▁식료품	-10.8543
▁상파울	-10.8544
▁타밀	-10.8546
▁오렌지	-10.8546
▁아마존	-10.8549
▁밥	-10.8549
▁빅토리아	-10.8553
▁습관	-10.8561
솔	-10.857
쇠	-10.8573
▁두려	-10.8577
▁입법	-10.8588
이블	-10.8594
▁칼리	-10.8595
▁윤리	-10.8598
▁득점	-10.8612
▁보냈	-10.8613
▁의뢰	-10.8614
▁장난	-10.8616
트리	-10.8617
▁페르난	-10.8617
▁롬	-10.862
▁cb	-10.8644
▁안토니	-10.8647
▁외치	-10.866
▁베스트	-10.8661
▁정원	-10.8666
▁주유	-10.8668
▁주주	-10.8673
이라고	-10.8675
▁간호	-10.8675
▁듀	-10.8678
▁시킨다	-10.8699
▁철저	-10.8712
▁않게	-10.8713
▁찾지	-10.8721
이터	-10.8721
▁피라	-10.8724
국인	-10.8725
▁청년	-10.8732
뱅크	-10.8737
▁국기	-10.8741
▁블리	-10.8744
▁흥미	-10.8746
▁콰	-10.8748
▁해상	-10.875
▁좋다	-10.8755
여행	-10.8759
타리	-10.8759
▁델타	-10.8765
▁피부	-10.8771
▁바라는	-10.8771
▁교착	-10.8781
천만	-10.8787
▁헐	-10.8787
비넨	-10.879
▁it	-10.8791
▁졸업	-10.8794
▁저지른	-10.8801
작전	-10.8804
▁테네시	-10.8804
▁휴대전화	-10.8805
▁개헌	-10.8806
▁만으로	-10.8807
▁갑작스	-10.8809
▁년	-10.8819
▁경제학	-10.8821
▁멀리	-10.883
▁모르겠다	-10.8831
▁출생	-10.8831
▁넣었다	-10.8832
▁항생	-10.8837
▁즐기	-10.8843
▁수리	-10.8844
흐디	-10.8845
▁스탈	-10.8848
▁ba	-10.8849
▁요금	-10.8851
▁군복	-10.8852
라이언	-10.8866
▁싶지	-10.8868
타르	-10.8869
기업	-10.8871
빛	-10.8871
레이드	-10.8872
▁자제	-10.8878
혼	-10.889
▁유타	-10.8897
벅스	-10.8899
▁열어	-10.8921
지고	-10.8928
듀	-10.8928
▁140	-10.8933
▁사라	-10.8948
▁하는지	-10.8951
미드	-10.8951
▁유도	-10.8952
bs	-10.8953
▁타르	-10.8955
▁일요	-10.8961
▁투명	-10.8968
▁일어났	-10.8973
ity	-10.8974
▁살이	-10.8975
나와	-10.8977
▁일으킬	-10.8988
▁들어간	-10.8993
툼	-10.8999
바로	-10.9004
▁학자	-10.9007
▁나왔	-10.9009
▁널	-10.9032
▁레이크	-10.9032
▁뮌	-10.9038
▁하드	-10.9041
▁알파	-10.9043
▁크로	-10.9047
▁얻고	-10.9049
교섭	-10.9055
넬	-10.9057
묘	-10.9058
텐	-10.9065
▁기숙	-10.9066
▁꽃	-10.9066
▁브래드	-10.907
기관	-10.9078
▁비틀	-10.9083
▁드러냈다	-10.9084
▁테스	-10.909
무게	-10.9092
▁함유	-10.9093
▁자유롭	-10.9093
미지	-10.9098
▁치는	-10.9098
렸다	-10.9099
▁해준다	-10.911
▁프랭	-10.9116
어리	-10.9117
▁발발	-10.9123
스키	-10.9131
팬	-10.9132
▁지켜보	-10.9138
▁열기	-10.9139
▁ce	-10.9141
짝	-10.9145
▁했습니다	-10.9147
▁걷	-10.9159
▁후지	-10.9162
▁스탠	-10.9171
▁음료	-10.9172
▁시사	-10.9177
▁국토	-10.9183
▁도심	-10.9186
▁걸렸다	-10.9186
프라임	-10.9187
▁무고	-10.9192
▁비서	-10.9192
▁느낌	-10.9195
▁메리	-10.9197
▁룩	-10.92
50	-10.9202
▁199	-10.921
▁제국	-10.9212
▁신중	-10.9212
▁포장	-10.9218
▁68	-10.9221
▁세탁	-10.9225
▁움	-10.9226
▁신장	-10.9232
▁부유	-10.9238
삼	-10.9252
▁세우	-10.926
니스	-10.9262
▁un	-10.9264
▁욕	-10.927
▁들여	-10.9272
픈	-10.9274
▁멘	-10.9282
opec	-10.9289
▁디아	-10.9296
난해	-10.9306
겨	-10.9307
30	-10.9318
▁어깨	-10.9325
닉	-10.9326
▁켄	-10.933
됐다	-10.9332
▁도요타	-10.9333
▁모니터	-10.9334
▁뉴올리언	-10.9337
글라스	-10.9339
▁피추	-10.9339
us	-10.934
▁1986	-10.934
▁1992	-10.934
▁유람	-10.9341
▁메이저	-10.9341
▁베니	-10.9342
영화	-10.9343
th	-10.9347
▁2012	-10.9347
▁아담	-10.9349
▁듣고	-10.9354
▁덴	-10.9361
▁지하철	-10.9361
▁웃	-10.9361
▁포르노	-10.9363
▁발리	-10.9365
▁모았다	-10.9372
로브	-10.9378
베르토	-10.938
▁제프	-10.938
▁졸	-10.9382
▁쇠고	-10.9382
▁플래	-10.9382
ly	-10.9383
▁최루	-10.9388
▁여겨지	-10.9394
▁계산	-10.9394
▁나눴다	-10.9402
▁우즈	-10.9405
▁사라졌다	-10.9409
▁유인	-10.941
즈니	-10.9413
테네	-10.9415
▁이로	-10.9423
▁명확	-10.9427
▁열고	-10.943
덩이	-10.943
▁쓸	-10.9431
▁제트	-10.9432
▁파도	-10.9439
▁웨인	-10.9439
▁나르	-10.9443
▁데리	-10.9445
▁농부	-10.9449
프트	-10.945
토로	-10.9453
▁미라	-10.9454
▁오프	-10.9454
▁85	-10.9457
▁얄	-10.9461
티아	-10.9474
케이	-10.9476
▁분명	-10.948
해질	-10.9485
▁식이	-10.9494
▁동점	-10.9503
▁my	-10.9507
이메	-10.9518
▁정의	-10.9522
다니는	-10.954
트니	-10.954
▁쪽	-10.9548
▁산타	-10.9564
▁스피	-10.9568
▁제약	-10.9578
▁건너	-10.9585
▁도구	-10.9588
▁첸	-10.9591
▁ai	-10.9594
▁재활	-10.9599
▁가이드	-10.9602
▁이른	-10.9605
▁수면	-10.9608
▁끊임없	-10.961
▁하버드	-10.9613
오는	-10.9613
▁윤	-10.9616
▁경제성장	-10.9616
▁물가	-10.9619
▁털	-10.9622
▁남아있다	-10.9625
콥	-10.9631
으면	-10.9631
▁가난한	-10.9633
▁방위	-10.9633
▁알제리	-10.9634
▁71	-10.9635
▁남겼다	-10.9635
▁만남	-10.9641
▁기부	-10.9654
▁실업	-10.9671
넨	-10.9671
▁소환	-10.9674
▁bb	-10.9679
놀	-10.968
▁백신	-10.9683
▁보인	-10.9685
▁주었다	-10.9692
▁선제	-10.9696
▁끝났다	-10.9708
있었다	-10.9716
▁당해	-10.9725
▁겪	-10.9729
꺼	-10.9735
▁73	-10.9737
▁튜	-10.9738
▁원하지	-10.974
▁160	-10.975
▁관중	-10.9751
▁산소	-10.9774
갑	-10.9777
▁접수	-10.9782
an	-10.9788
전환	-10.9788
요원	-10.9789
▁수족	-10.9794
▁걸리	-10.9801
진압	-10.9803
▁나타내는	-10.9803
▁클로	-10.9804
▁전인	-10.9819
▁소화	-10.9821
▁86	-10.9824
▁슬로	-10.9828
na	-10.9831
뿔	-10.9832
▁까	-10.9838
▁버크	-10.9843
▁신자	-10.9844
▁칼라	-10.9845
▁령	-10.9846
▁루프	-10.9853
가디	-10.9855
약품	-10.9859
▁일으키	-10.986
▁전부	-10.986
▁부실	-10.9863
▁갔	-10.9863
▁겸	-10.9869
▁청소	-10.9869
▁멀	-10.9873
▁줄이	-10.9882
▁우편	-10.9885
▁힘들다	-10.9886
▁nh	-10.9887
▁붙여	-10.9899
▁베네딕	-10.99
▁자원봉사	-10.99
▁심각하	-10.9901
▁불가리아	-10.9901
▁인플레이션	-10.9906
▁1950	-10.9908
▁클루	-10.9908
ga	-10.9911
on	-10.9912
▁싶은	-10.9914
▁불가능	-10.992
로드	-10.9922
▁69	-10.9923
▁떼	-10.9923
랭	-10.993
▁남아있는	-10.9932
▁컬	-10.9934
이전	-10.9935
▁조기	-10.994
룬	-10.9948
▁경찰청	-10.9952
▁갈라	-10.9953
▁젠	-10.9955
▁레슬	-10.9961
▁보낸다	-10.9963
▁미드	-10.9963
▁막대	-10.9971
▁먹고	-10.9974
▁느낀다	-10.9975
▁애국	-10.9976
▁분실	-10.9977
있으며	-10.9984
▁피니	-10.9984
▁그렇다	-10.9999
이더	-11.001
ps	-11.0013
▁누드	-11.0015
시티	-11.0017
▁스타인	-11.0021
한다	-11.0021
▁명백	-11.0023
▁서양	-11.0023
▁모르는	-11.0023
▁과격	-11.003
롭	-11.0033
이익	-11.0039
▁이사	-11.0042
▁화제	-11.0052
▁리틀	-11.0053
▁끈	-11.0055
체스	-11.0069
▁마흐	-11.0078
▁금속	-11.0084
더라	-11.0087
▁모자	-11.0088
▁좋	-11.01
▁79	-11.0105
네시	-11.011
크린	-11.0115
▁맞은	-11.0118
▁디카	-11.0124
보건	-11.0126
▁식수	-11.0126
다가	-11.0135
▁받아들이	-11.0139
▁남았다	-11.0142
당한	-11.0142
▁역전	-11.0149
ce	-11.0154
▁가르	-11.0161
▁막아	-11.0163
되	-11.0164
▁벌어	-11.0172
▁다루	-11.0178
▁펼친	-11.0181
▁댈러	-11.0186
▁김양	-11.0189
en	-11.0191
▁냄	-11.0193
▁사설	-11.0194
▁엔지니어	-11.0194
▁비즈니스	-11.0194
▁개발도상국	-11.0197
▁연쇄	-11.02
▁돌고	-11.0203
▁반체제	-11.0213
벤트	-11.0214
▁화석	-11.0225
▁좋아하는	-11.0225
▁히드	-11.0226
▁설계	-11.0229
▁가능	-11.0235
▁돌아갈	-11.0248
▁단백질	-11.0249
▁짝	-11.0251
▁너무나	-11.0254
▁초청	-11.0256
▁검시	-11.0263
▁버진	-11.0264
▁조용	-11.0266
▁랑	-11.0269
▁진료	-11.0269
▁모험	-11.0277
▁레이더	-11.0277
르면	-11.0277
▁선호	-11.028
▁93	-11.0285
김	-11.0285
▁갖는	-11.0296
앙	-11.0308
센트	-11.0311
▁벌어졌다	-11.0315
해야	-11.0323
▁노던	-11.0325
리고	-11.0326
▁no	-11.0331
느	-11.0331
▁유행	-11.0344
▁라트	-11.0345
▁가로	-11.0348
▁스카	-11.0368
밍	-11.0373
▁해저	-11.0383
▁포유	-11.0385
텔	-11.0387
▁본다	-11.0388
▁알자	-11.0392
▁종양	-11.0398
▁옹	-11.0408
▁de	-11.0409
▁ko	-11.0412
▁빼	-11.0416
지노	-11.042
▁매리	-11.0422
▁룰	-11.0429
▁달려	-11.0437
▁불가능하다	-11.0445
▁차가	-11.0448
▁파커	-11.0461
사진	-11.0462
르게	-11.0473
▁정리	-11.048
▁침략	-11.0487
ng	-11.0491
▁커뮤니	-11.0492
▁미주리	-11.0495
▁쏘	-11.0495
▁다행히	-11.0496
▁베탕쿠르	-11.0497
▁밝혀냈다	-11.0497
▁에스토니아	-11.05
오픈	-11.0503
꿀	-11.0503
▁보스	-11.0507
▁정밀	-11.0513
▁부자	-11.0516
▁펌	-11.0525
▁앞선	-11.0531
▁피츠	-11.0535
▁유언	-11.0542
▁생태	-11.0542
나폴리	-11.0543
▁크레	-11.0544
▁블록	-11.0548
▁미칠	-11.0552
▁낙태	-11.0553
▁배급	-11.0557
▁떨어지	-11.0557
▁사자	-11.056
▁우세	-11.0566
▁기름	-11.0569
▁유통	-11.057
데이	-11.0572
or	-11.0591
▁나노	-11.0595
▁부양	-11.0605
▁서서	-11.0613
▁진지	-11.0617
▁툴	-11.062
카스	-11.0628
▁번지	-11.063
▁보증	-11.0647
깔	-11.0648
▁스파이	-11.0649
▁호르	-11.065
▁복부	-11.0653
클리	-11.0653
혜	-11.067
아시아	-11.067
▁줄기	-11.0687
▁웰	-11.0688
▁복원	-11.071
▁옮겨	-11.0718
▁연금	-11.0726
키드	-11.0732
▁플로	-11.0739
픔	-11.0742
▁후진	-11.0748
▁저질렀다	-11.0749
괄	-11.0752
▁수니	-11.0754
▁섹시	-11.0758
▁물러	-11.0769
▁중장	-11.077
▁횡	-11.0772
▁처분	-11.0777
▁팝	-11.0779
▁묻는	-11.0786
11	-11.0787
▁거짓	-11.0796
▁혈액	-11.0797
휴	-11.0801
▁미시건	-11.0805
▁포획	-11.0805
▁플루토	-11.0805
▁곳곳	-11.0808
▁허블	-11.081
▁작곡	-11.0811
ti	-11.0826
▁굉장	-11.0826
▁잔디	-11.0831
▁9000	-11.0836
▁불과했다	-11.0838
▁축소	-11.0838
▁아크	-11.0841
시키는데	-11.0852
▁맞추	-11.0857
▁맡았	-11.0862
연방	-11.0868
rea	-11.0871
▁감옥	-11.0874
eta	-11.0874
폭력	-11.0881
▁차림	-11.0883
▁방사	-11.0886
▁걸었다	-11.089
▁풍부	-11.089
▁숨지	-11.089
소속	-11.0892
▁오르는	-11.0893
타오	-11.0894
▁나선	-11.0896
▁즐거	-11.0918
▁회색	-11.0923
위원	-11.0931
▁친선	-11.0933
▁이어졌다	-11.0939
▁드러내	-11.0939
▁라인	-11.094
▁월터	-11.0941
▁모래	-11.0944
▁적절	-11.0949
▁복지	-11.0956
▁일어나는	-11.0956
▁같	-11.097
▁볼리	-11.0971
▁익	-11.0976
▁하겠	-11.0979
▁유출	-11.098
▁먹는	-11.098
샬	-11.0982
왁	-11.0985
▁강화하	-11.099
널리	-11.0993
▁주권	-11.0998
▁빠졌다	-11.0998
▁on	-11.1003
▁패리	-11.1011
▁즐기는	-11.1012
ment	-11.1012
▁격렬	-11.1023
▁양키	-11.1034
문제	-11.104
되거	-11.1048
▁따뜻	-11.1052
▁회계	-11.1053
▁폰	-11.1055
▁프린	-11.1056
▁lo	-11.1058
ae	-11.1061
데자네이	-11.1064
댐	-11.1065
▁굳	-11.1067
미국	-11.1069
세포	-11.1071
마트	-11.1072
▁나체	-11.1077
오염	-11.1082
▁식물	-11.1096
▁호화	-11.1102
▁pa	-11.1103
▁198	-11.1109
▁ny	-11.1112
▁얼룩	-11.1115
fa	-11.1115
oul	-11.1115
ty	-11.1118
▁블룸	-11.1118
검사	-11.1119
▁당뇨	-11.112
▁나가는	-11.1123
▁맨해튼	-11.1126
▁가져올	-11.1126
▁글렌	-11.1127
▁버몬트	-11.1127
묵	-11.1131
▁심각	-11.1135
▁카메	-11.1136
▁쌀	-11.1137
▁약혼	-11.114
▁토지	-11.1143
▁올라가	-11.1148
▁깨끗	-11.1154
▁동일한	-11.1159
▁말리	-11.116
이었다	-11.1162
▁김정	-11.1166
▁지식	-11.1166
▁라크	-11.1166
▁켈	-11.117
시대	-11.1174
▁급격	-11.1175
▁사우스	-11.1177
▁전범	-11.119
eo	-11.1196
▁타계	-11.12
웬	-11.1203
▁카이	-11.1208
▁파이프	-11.121
로코	-11.1218
수면	-11.122
버스	-11.1229
없이	-11.1233
▁불어	-11.1248
▁빠질	-11.125
▁자선	-11.125
▁교토	-11.1252
셸	-11.1264
▁타다	-11.1275
▁이루	-11.1282
병원	-11.1284
▁지내	-11.1285
아일랜드	-11.1292
▁스프	-11.1297
▁찾았다	-11.1306
통화	-11.1306
▁두려워	-11.1313
▁노예	-11.1314
sa	-11.1326
▁이드	-11.1329
점유	-11.1331
▁나타난	-11.1331
▁진흙	-11.1341
▁스코	-11.1341
▁청문	-11.1343
제품	-11.1343
▁부리	-11.1348
▁차이나	-11.1348
경영	-11.1349
피하	-11.1354
▁동계	-11.1357
▁던졌다	-11.1371
▁종말	-11.1373
▁이루어져	-11.1374
정상	-11.1384
▁퍼트	-11.1391
▁세인	-11.1399
uci	-11.1399
리는	-11.1405
▁타운	-11.1406
re	-11.1407
밤	-11.1428
▁옵	-11.1435
빨	-11.1441
탐	-11.1447
▁바꿔	-11.1451
▁티벳	-11.1452
▁hiv	-11.1455
장소	-11.1456
▁영원	-11.1458
▁캔자스	-11.1459
▁돌아올	-11.146
▁떨어질	-11.1461
▁위스콘신	-11.1464
▁살모넬라	-11.1464
▁시나리오	-11.1464
▁던져	-11.1464
▁멸종위기	-11.1466
▁크로아티아	-11.1467
▁인디아나	-11.1469
▁암호	-11.1469
▁외쳤다	-11.1469
▁1800	-11.1475
▁바꾸	-11.1479
▁식민	-11.1481
의회	-11.1484
바라	-11.1486
▁큐	-11.1488
▁댓	-11.1498
▁분명하다	-11.1499
▁터미	-11.15
장자	-11.1501
▁필리	-11.1501
787	-11.1502
▁끔찍	-11.1506
▁맞고	-11.1508
리언	-11.1509
▁시키지	-11.151
▁똑같	-11.1516
컨	-11.1516
▁슈나	-11.1517
▁튀	-11.152
가족	-11.1521
러스	-11.1525
▁보내기	-11.1537
▁가했다	-11.1544
▁서버	-11.1545
더스	-11.1547
▁밝혀진	-11.1548
만년	-11.1549
▁넘기	-11.1552
▁열렸다	-11.1553
▁산하	-11.1554
▁특이	-11.156
았던	-11.1571
▁싱	-11.1579
▁부의	-11.1587
▁통근	-11.1587
▁빠지	-11.1592
▁있었으	-11.1597
▁잡았다	-11.1606
▁던지	-11.1607
공개	-11.161
▁드라이	-11.161
▁노무	-11.1611
혐	-11.1615
▁모아	-11.1622
▁끝내	-11.1634
▁스모	-11.1639
어야	-11.1645
▁결합	-11.1647
▁복수	-11.1648
▁이루어지	-11.1659
숙	-11.1662
▁임대	-11.1672
▁가능하	-11.1673
▁모터	-11.1679
▁와이	-11.1684
일러	-11.1688
▁안된다	-11.1705
▁이스트	-11.1714
▁있었기	-11.1715
▁끊	-11.1717
밀리	-11.1717
▁지나가	-11.1718
▁넣어	-11.1733
옷	-11.1733
▁쏟아	-11.1741
돔	-11.1743
▁77	-11.1743
될	-11.1751
타운	-11.1757
▁템	-11.1758
▁롤	-11.1759
▁북서	-11.1761
▁레트	-11.1764
▁실려	-11.1781
▁확실하지	-11.1787
▁콜롬	-11.1795
▁몬테	-11.1796
▁첩보	-11.1797
마디	-11.1798
▁두뇌	-11.1799
▁메뉴	-11.18
레비	-11.1802
▁트로피	-11.1804
▁미드필	-11.1805
▁8226	-11.1809
▁1987	-11.1811
▁180	-11.1812
▁유명하다	-11.1814
▁eng	-11.1815
▁트레이드	-11.1815
▁믿을	-11.1815
▁헤이	-11.1816
▁로커	-11.1817
▁무너지	-11.1818
▁뇌물	-11.1819
▁suv	-11.1819
▁매사추세츠	-11.1819
▁비평	-11.1821
▁표준	-11.1821
▁열리	-11.1822
▁로시	-11.1824
▁후안	-11.1829
▁떠난	-11.1831
▁맥코	-11.1831
▁면허	-11.1834
▁토요	-11.1835
공사	-11.1837
▁높게	-11.1838
선수	-11.1842
▁st	-11.1847
▁남기	-11.1859
주지	-11.1861
▁89	-11.1862
▁패스	-11.1874
▁예배	-11.1877
▁열었다	-11.1879
▁알았다	-11.1888
▁로브	-11.189
▁올리고	-11.1893
▁안락	-11.1909
v	-11.1913
▁테크	-11.1913
▁필수	-11.1914
▁모스	-11.1928
페타	-11.193
▁프랑	-11.1932
지진	-11.1937
▁99	-11.194
▁재고	-11.1941
▁내려졌다	-11.1943
짓기	-11.1944
▁iss	-11.1948
▁벗어	-11.1948
▁햄	-11.1948
▁피로	-11.1953
▁world	-11.1955
▁워너	-11.1956
▁바뀌	-11.1964
레이크	-11.1964
져야	-11.1972
▁지침	-11.1975
▁88	-11.1976
▁억만	-11.1976
▁이어지	-11.1978
려는	-11.1987
무관	-11.1997
▁강의	-11.1997
▁이브라	-11.2009
▁브레이	-11.2013
▁켈리	-11.202
▁불과하다	-11.2022
▁썼다	-11.2022
▁램	-11.2026
▁경사	-11.2034
▁탄도	-11.2036
▁마카	-11.204
▁전송	-11.2045
▁지낸	-11.2045
▁칩	-11.2045
말라	-11.2052
▁재미있	-11.2054
▁세실	-11.2068
▁기다려	-11.2074
▁아웃	-11.2077
르몬	-11.2081
▁티모	-11.2082
▁친부	-11.2091
▁닐	-11.2101
▁파이	-11.2106
▁associat	-11.2108
▁물었다	-11.2111
▁sn	-11.2116
리오	-11.2117
▁나란	-11.2119
개발	-11.2123
▁타마	-11.2129
▁남겨	-11.2132
▁197	-11.2136
▁물리학	-11.2143
▁세운	-11.2144
▁붙	-11.2151
dc	-11.2151
20	-11.2153
▁싱글	-11.2153
바니	-11.216
▁아칸소	-11.216
▁요새	-11.2161
▁윈도우	-11.2163
▁하얀	-11.2168
▁애니메이션	-11.2169
▁신의	-11.2178
▁남자아이	-11.2178
폴리	-11.2179
규칙	-11.218
라델	-11.2183
▁스파이스	-11.2186
▁바이오	-11.2187
▁낫	-11.2204
▁클린	-11.2208
▁크루	-11.2217
g	-11.2223
이미	-11.2226
▁au	-11.2236
▁돌아왔다	-11.2242
▁사이버	-11.2246
▁걷는	-11.2249
▁올리는	-11.2252
▁81	-11.2266
▁미소	-11.2272
▁앤드	-11.2273
▁받아들여	-11.2281
▁편안	-11.229
▁숨기	-11.2291
▁세라	-11.2293
튜	-11.2305
▁죽었다	-11.2307
▁어렵	-11.2319
버지니아	-11.2323
▁이루어	-11.2325
▁혁	-11.2325
▁인내	-11.2328
▁네트	-11.2337
▁가해	-11.234
주는	-11.2343
▁좁	-11.2351
▁맞았다	-11.2357
▁차별	-11.2358
리츠	-11.2372
▁바지	-11.2389
▁사라지	-11.239
▁떠날	-11.2391
▁왈	-11.2395
베르	-11.2403
▁데비	-11.2406
▁알려	-11.2415
냉	-11.2415
▁이양	-11.2425
발행	-11.2426
▁91	-11.2449
▁캔	-11.2458
▁74	-11.2458
▁소행	-11.2459
▁바티	-11.246
▁하비	-11.2461
▁하리	-11.2462
▁흥분	-11.2464
폼	-11.247
la	-11.2479
모르	-11.2485
city	-11.2493
▁영구	-11.2493
▁ope	-11.2498
▁로버	-11.2504
▁일단	-11.2507
▁부딪	-11.2511
▁피어	-11.2513
▁캐롤	-11.2515
▁밸	-11.2516
기적	-11.252
▁갤럭	-11.2524
선단	-11.2524
▁생기	-11.2526
▁윌리암	-11.253
▁페널티	-11.253
▁켄터키	-11.253
▁골든글	-11.2531
▁비영리	-11.2531
르도	-11.2533
▁도미니카	-11.2536
▁시에라	-11.2537
▁ab	-11.2538
▁오클라호마	-11.2538
▁깁	-11.2541
▁엉	-11.2541
나라	-11.2542
▁완공	-11.2544
▁좋아한다	-11.2544
털	-11.2544
아지	-11.255
▁뜨	-11.2553
간주	-11.2554
▁박격	-11.2557
바지	-11.2559
▁육상	-11.2559
▁그래미	-11.2559
여야	-11.2561
▁초등	-11.2569
▁가르치	-11.2571
스라	-11.2574
▁uf	-11.2574
▁미트	-11.2581
▁밀려	-11.2582
▁키우	-11.2586
▁브로드	-11.2591
▁뮤직	-11.2596
▁콩	-11.2598
▁브리티	-11.2598
▁레즈	-11.2601
▁세우지	-11.2603
▁들이었다	-11.2604
▁기울이	-11.2605
▁다가오	-11.2606
들리	-11.2612
▁창조	-11.2614
▁다이	-11.2626
▁iu	-11.2629
▁안내	-11.2629
▁마샤	-11.263
▁도덕	-11.263
▁엑스	-11.2637
▁로페	-11.2642
▁반등	-11.2643
석방	-11.2643
▁아끼	-11.2647
월드	-11.2647
▁응원	-11.2649
▁넘었다	-11.2654
▁권위	-11.2658
▁해준	-11.2674
내셔널	-11.2676
뱀	-11.2684
포트	-11.2684
기록	-11.2684
▁배상	-11.2686
25	-11.2687
▁주소	-11.2694
셉	-11.2708
▁음란	-11.271
▁이루기	-11.2711
칼	-11.2721
닐	-11.2724
▁질렀다	-11.273
원장	-11.2735
▁번스	-11.2739
의약품	-11.2749
▁부작	-11.275
켄	-11.2752
▁350	-11.2755
민자	-11.2755
▁살았	-11.2765
자메	-11.2775
리온	-11.2777
둘	-11.2784
타스	-11.2789
▁듣지	-11.279
▁굿	-11.2793
▁세이	-11.2796
▁접어	-11.2801
망원	-11.2802
▁구치	-11.2805
47	-11.2811
▁스트	-11.2816
삭	-11.2823
▁78	-11.283
▁야구	-11.2835
▁프레드	-11.2843
day	-11.2844
리트	-11.2845
사추세츠	-11.2848
▁나타	-11.2852
▁내리는	-11.2855
네그로	-11.2857
mex	-11.2858
▁간다	-11.287
▁없애	-11.2884
▁문자	-11.2884
▁앰	-11.289
▁사적	-11.2898
▁앙겔	-11.2906
▁콘텐	-11.2907
▁어휘	-11.2912
▁산타클로	-11.2921
▁1988	-11.2922
▁1981	-11.2924
▁마텔	-11.2926
▁퇴임	-11.2926
▁힌두교	-11.2927
▁발레리	-11.2929
▁온천	-11.293
▁마스	-11.293
▁좋게	-11.293
▁버린	-11.2931
▁국가대표	-11.2932
▁테일	-11.2938
▁리얼리	-11.2941
▁붙잡	-11.2944
▁될지	-11.2946
▁하였	-11.2947
지난	-11.2947
▁자전	-11.2949
▁불렀다	-11.2953
산부	-11.2955
▁마케	-11.2965
▁추종	-11.2965
▁예언	-11.2969
▁라왈	-11.2975
▁페레	-11.2981
▁들어와	-11.2982
▁휴식	-11.2983
▁높아졌다	-11.2984
▁떨어지는	-11.2984
▁들어있는	-11.2987
▁대국	-11.2989
워크	-11.299
▁걸려있	-11.2991
▁적대	-11.2991
▁대도시	-11.2991
▁잃지	-11.3003
▁크는	-11.301
▁공학	-11.3011
뭄	-11.3012
▁넘어섰다	-11.3019
▁관절	-11.3021
▁게르	-11.3022
▁되찾	-11.3023
방송	-11.3024
h	-11.3037
▁나비	-11.3059
있다고	-11.3065
▁83	-11.3074
▁만났	-11.3076
했으	-11.3078
▁ftse	-11.3084
▁조장	-11.3085
▁보니	-11.309
▁분화	-11.3092
▁사탕	-11.3099
▁모른다고	-11.31
▁여우	-11.3102
▁설문	-11.3108
▁펼치	-11.3119
▁떠	-11.3129
▁170	-11.3129
애틀	-11.3143
▁복장	-11.3147
▁고소	-11.3148
▁mm	-11.3156
▁믿	-11.3157
▁신조	-11.316
질러	-11.3165
▁펼쳤	-11.3178
렁	-11.318
슬램	-11.3182
▁잠수	-11.3185
▁선진	-11.3192
븐	-11.321
▁느꼈다	-11.321
팍	-11.322
▁걸려	-11.3228
비스	-11.3243
▁활발	-11.3244
앤	-11.3245
▁발명	-11.325
쩌	-11.3255
다시	-11.3267
▁샘	-11.3275
▁냈	-11.328
▁개장	-11.3282
미스	-11.3284
나다	-11.3289
명령	-11.3292
▁잇따	-11.3296
▁새롭	-11.3298
▁선적	-11.33
▁치른	-11.33
▁놀랄	-11.3306
▁밤새	-11.331
▁혼합	-11.3312
▁잃었	-11.3313
▁꼬리	-11.3313
▁bm	-11.3314
▁무너져	-11.3315
▁풍경	-11.3316
▁열대	-11.3318
질량	-11.3318
▁과테말라	-11.3319
▁컬럼비아	-11.3319
▁디스커버리	-11.3322
▁냉전	-11.3323
▁갑	-11.3323
▁월스트리트	-11.3323
▁일으켜	-11.3326
▁거둔	-11.3327
▁제라	-11.3327
▁후쿠	-11.3329
▁치르	-11.3332
▁매치	-11.3333
▁cbo	-11.3334
▁않았으	-11.3338
▁하더라	-11.3338
▁열렬	-11.3341
▁상속	-11.3343
▁늦	-11.3344
베키	-11.3351
▁담겨있다	-11.3354
▁긴밀	-11.3356
▁행방	-11.3357
▁모욕	-11.3358
어진	-11.336
▁비아	-11.3361
▁right	-11.3364
올로	-11.3366
▁마침	-11.3372
메인	-11.3372
▁대부	-11.3374
▁이정인	-11.3377
▁치타	-11.3378
▁임원	-11.338
▁선생	-11.3385
▁science	-11.3387
와르	-11.339
▁통행	-11.3395
▁겪었다	-11.3398
▁무너졌다	-11.3399
했	-11.3402
▁솔직	-11.3408
▁스튜어	-11.3408
▁320	-11.3417
▁탔다	-11.3424
타워	-11.3424
▁되는데	-11.3434
▁900	-11.3438
지지	-11.3439
▁생겼다	-11.3448
하면서	-11.345
▁이끌었	-11.3457
로스	-11.3459
▁그럴	-11.3459
▁익스	-11.3461
▁부른	-11.3462
▁느끼는	-11.3463
▁와히	-11.3472
▁추출	-11.3472
▁일자	-11.3474
▁설정	-11.3474
▁암시	-11.3492
전쟁	-11.3494
cn	-11.3495
▁잉	-11.3496
이프	-11.3502
▁테마	-11.3503
▁hd	-11.3509
런스	-11.3511
작가	-11.3517
▁알려주	-11.3519
▁re	-11.3521
교통	-11.3536
▁커지	-11.3536
▁구사	-11.3544
▁270	-11.3548
▁미안	-11.3556
앗	-11.3567
음악	-11.357
중력	-11.3581
라노	-11.3585
▁놓여	-11.3596
▁헴	-11.36
at	-11.3613
▁대에	-11.3617
평가	-11.3619
개념	-11.3621
▁띄	-11.3629
▁마누	-11.363
리스마	-11.3633
▁맥도	-11.3637
모스	-11.3639
▁몰려	-11.364
▁포도	-11.3641
▁담고	-11.3645
▁호에	-11.3647
▁피랍됐	-11.3648
방법	-11.3654
▁낭	-11.366
▁펼쳐	-11.3666
▁오디	-11.3667
밭	-11.3672
캥	-11.3672
팟	-11.3672
▁신비	-11.3674
▁톱	-11.3675
gs	-11.3684
ic	-11.3691
▁news	-11.37
▁짙	-11.3705
코프	-11.3711
체류	-11.3712
▁어부	-11.3712
▁복사	-11.3717
▁닌텐	-11.3722
무리	-11.3724
▁필름	-11.3727
▁엔데버	-11.373
▁화염	-11.373
로비	-11.3731
▁최우수	-11.3734
▁프랑크	-11.3735
▁반짝	-11.3738
▁글래스고	-11.3738
ice	-11.374
▁숨겨	-11.3741
▁평방	-11.3742
▁당했	-11.3747
▁아흐마디	-11.3748
▁드림	-11.3749
메라	-11.3751
▁킬	-11.3751
마라	-11.3752
▁가을	-11.3753
▁ak	-11.3758
▁유독	-11.376
▁가져다	-11.3762
▁거머	-11.3765
릴라	-11.3772
▁토끼	-11.3773
퀘	-11.3778
▁애쓰	-11.3778
▁gm	-11.3779
▁탄약	-11.3781
놨다	-11.3782
▁운하	-11.3788
▁삼았다	-11.3799
z	-11.38
▁거친	-11.38
▁레오	-11.3805
르토	-11.3805
▁면역	-11.3807
▁우방	-11.3808
▁time	-11.3808
▁받아들이지	-11.3809
▁잔혹	-11.381
▁아라비아	-11.3811
▁농작	-11.3812
▁부진	-11.3813
▁나미	-11.3817
▁붐	-11.3818
었습니다	-11.3819
▁일대	-11.3824
▁이주	-11.3827
▁끝나는	-11.3835
▁자라	-11.3837
▁흙	-11.3848
▁밀어	-11.3856
▁안젤	-11.3863
▁모르고	-11.3864
▁usa	-11.387
▁위축	-11.3885
▁여개	-11.389
도시	-11.3893
▁레이어	-11.3893
▁용적	-11.3894
스트로	-11.3901
▁샤프	-11.391
메드	-11.3918
의사	-11.3918
섰다	-11.392
▁유입	-11.3921
▁코비	-11.3928
클린	-11.394
받	-11.3942
▁제리	-11.3945
▁했었	-11.3947
▁늘어났다	-11.3961
▁불교	-11.3963
신병	-11.3964
▁위대	-11.3967
▁문학	-11.3983
▁이르기	-11.3997
▁연결하	-11.3997
▁헤르	-11.4
딜	-11.4001
버릴	-11.4002
▁미용	-11.4007
▁실패한	-11.4018
▁이끌었다	-11.4019
으면서	-11.4019
▁본드	-11.4022
▁엠	-11.4023
▁무승	-11.4026
▁기어	-11.4031
잡	-11.4031
첸	-11.4034
팔	-11.4039
▁폴리	-11.4043
▁위법	-11.4055
▁나눠	-11.4067
핵	-11.4072
▁o	-11.4083
▁포크	-11.4084
▁룸	-11.4088
보다	-11.4092
델라	-11.4095
내고	-11.4096
▁101	-11.4096
▁올렸	-11.4101
▁92	-11.4103
▁돌보	-11.4105
▁intern	-11.4105
볍	-11.4106
츨	-11.4106
▁자바	-11.4111
▁드문	-11.4113
▁루스	-11.4117
▁미하	-11.4121
▁질서	-11.4123
딴	-11.4127
몬드	-11.4132
▁살아남	-11.4134
▁블로	-11.4137
▁휩쓸	-11.4138
으로써	-11.4139
지자	-11.415
▁춤	-11.4155
▁washi	-11.4162
▁알바	-11.4163
▁선데이	-11.4166
▁떠오르	-11.4167
▁높였다	-11.4168
▁투데이	-11.4169
▁휴양	-11.4175
▁불행한	-11.4182
▁같았다	-11.4182
웠다	-11.4185
▁멜라	-11.4186
▁1600	-11.4186
▁사라질	-11.419
퍼드	-11.4192
▁남서	-11.4194
▁con	-11.4197
▁만족한다	-11.4197
▁물러나	-11.4198
▁아흐메	-11.4199
▁지냈	-11.4203
▁돌아와	-11.4206
가고	-11.4212
▁750	-11.4213
▁새겨	-11.4222
▁당사	-11.4222
▁들어온	-11.4222
▁줄여	-11.4228
▁우연	-11.423
▁fif	-11.4232
르시아	-11.4237
▁만족	-11.4238
▁랜디	-11.4239
륜	-11.4239
▁팔렸다	-11.4243
▁내지	-11.4249
▁우르	-11.4252
▁zan	-11.4255
도나	-11.426
▁융	-11.426
▁내게	-11.4262
▁진공	-11.4266
▁성지	-11.4267
▁셉	-11.4275
▁라틴	-11.4278
▁이든	-11.428
플레이	-11.4281
▁토레	-11.4281
um	-11.4289
▁모토	-11.4296
▁에스	-11.4297
▁84	-11.4298
▁크리스티	-11.4298
▁메인	-11.4301
육	-11.4305
▁human	-11.4307
▁230	-11.4307
▁웬	-11.431
sg	-11.4314
어져	-11.4322
▁사라진	-11.4324
▁트리니	-11.4331
▁다녔다	-11.4332
▁정통	-11.4335
키스	-11.4345
arc	-11.4346
▁press	-11.435
▁흐르	-11.4357
▁시미	-11.4364
▁매달	-11.4365
예선	-11.4368
투스	-11.4375
▁났	-11.438
▁노르	-11.438
비야	-11.4386
용차	-11.439
▁차고	-11.4391
▁건조	-11.4413
▁inter	-11.4414
아버	-11.442
▁페이	-11.4423
▁떨	-11.4426
▁리야	-11.4427
▁가속	-11.4431
▁뽑	-11.4435
▁탐지	-11.4435
네자	-11.4436
▁pf	-11.4437
▁몰아내	-11.4443
▁보여준	-11.4443
축구	-11.4445
ance	-11.4449
▁기법	-11.4451
▁이브	-11.4451
▁하니	-11.4451
▁에쿠	-11.4451
▁틸	-11.4454
▁평범	-11.4456
▁줄이는	-11.4467
▁란	-11.4471
▁일으키는	-11.4489
▁보라	-11.4494
▁뚫	-11.4508
▁중도	-11.4518
▁bo	-11.4518
▁오키	-11.452
▁저렴	-11.4521
대통령	-11.4523
▁심각하다	-11.4526
▁나갔	-11.4527
장애	-11.4529
▁얻었	-11.4532
▁미친	-11.4537
톱	-11.4538
▁감자	-11.4539
▁냉	-11.454
▁나타났	-11.4542
교육	-11.4547
▁되려	-11.4559
쁨	-11.4561
삿	-11.4561
스탤	-11.4561
웍	-11.4561
▁mg	-11.4564
ft	-11.4573
▁아티	-11.4576
만큼	-11.4589
▁휠	-11.4593
▁루시	-11.4595
로라	-11.4604
▁펼칠	-11.461
▁브뤼	-11.461
▁앵커	-11.461
▁끼칠	-11.4611
▁실망했다	-11.4612
▁스텔	-11.4613
▁냉각	-11.4613
▁슈워	-11.4613
▁냉동	-11.4615
▁밀접	-11.4616
▁해수욕	-11.4618
▁iraq	-11.4623
데스	-11.4627
▁1984	-11.4628
▁알마	-11.4633
▁찍었다	-11.4635
▁레오나	-11.4635
▁무자비	-11.4636
▁뚜	-11.4637
▁평결	-11.4638
▁미사	-11.4639
▁녹아	-11.4641
▁헬리	-11.4641
▁싱가	-11.4642
▁애틀	-11.4643
▁부속	-11.4644
▁바스크	-11.4645
민주	-11.4645
▁핸드	-11.4647
▁정해지지	-11.4651
▁척추	-11.4651
▁태어났다	-11.4652
▁살아있는	-11.4653
▁코피	-11.4656
▁이른다	-11.4658
었	-11.4663
▁이냐	-11.4665
▁터너	-11.4665
▁줬	-11.4666
라스무	-11.4666
이너	-11.4667
▁소아과	-11.4669
▁과실	-11.4673
▁백화	-11.4676
크라	-11.4678
▁터진	-11.4679
위안	-11.4681
▁빵	-11.4681
▁마오	-11.4687
▁점심	-11.4689
▁브래	-11.4692
▁계절	-11.4714
위해	-11.4718
▁읽	-11.4721
▁골든	-11.4721
▁통역	-11.4726
쿠스	-11.4727
▁올릴	-11.4739
▁크다	-11.4743
▁대니	-11.4743
▁렉	-11.4748
출혈	-11.475
▁스파	-11.4751
▁있냐	-11.4754
▁정규	-11.4756
▁고생	-11.4757
▁생선	-11.4759
▁압바	-11.476
▁많았다	-11.4763
▁조심	-11.4764
▁됐기	-11.4767
▁빈번	-11.4767
▁강간	-11.4768
▁오리	-11.4774
▁만나기	-11.4776
▁내셔널	-11.4778
▁있으	-11.4797
▁야마	-11.4803
▁시몬	-11.4812
▁군데	-11.483
▁걸음	-11.4841
▁불확실	-11.4842
▁안되	-11.4843
뭄바	-11.4845
ta	-11.4846
젤	-11.485
▁프레이	-11.4853
▁푸르	-11.4861
ml	-11.4861
▁이스	-11.4866
▁플레	-11.4867
▁만들었	-11.4871
▁그레이	-11.4871
▁해방	-11.4885
였	-11.4897
10	-11.4898
▁갖는다	-11.49
▁제로	-11.4903
이저	-11.4906
▁퍼스	-11.4919
르트	-11.4925
▁사라져	-11.4928
▁미터	-11.4934
▁분기	-11.4934
전면	-11.4935
▁몬	-11.4936
▁시트	-11.4943
▁랫	-11.4948
▁87	-11.4948
▁트루	-11.4952
▁트레	-11.4958
▁열렸	-11.496
범죄	-11.4965
▁nb	-11.497
▁싶	-11.4972
▁소매	-11.4975
▁써	-11.4983
▁125	-11.4984
부인과	-11.4984
▁앉	-11.4984
▁194	-11.4986
▁텔	-11.4988
in	-11.4992
▁자부	-11.4993
▁다카	-11.4993
▁안전하	-11.4999
마자	-11.5003
▁보드	-11.5003
백만	-11.5013
▁그렇	-11.5018
이지	-11.503
▁로프	-11.5033
껏	-11.5037
꽤	-11.5037
젭	-11.5037
▁내정	-11.5042
▁고현	-11.505
▁플라	-11.505
교도	-11.5054
▁부르는	-11.5062
▁막고	-11.5067
▁공상	-11.5083
▁퓨	-11.5088
▁초콜	-11.5089
▁돌아다니	-11.5093
▁카자흐	-11.5093
▁로맨틱	-11.5093
▁엔터테	-11.5095
▁치르는	-11.5095
▁마호메	-11.5096
▁횡단	-11.5096
▁압승	-11.5096
▁수마트라	-11.5098
는지	-11.5099
▁다녀	-11.51
▁자이언트	-11.5102
▁많지	-11.5104
▁결별	-11.5108
▁공안	-11.511
▁트러스	-11.5112
▁좋아하	-11.5115
▁비공	-11.5117
▁기뻐	-11.5117
▁2400	-11.512
▁외환	-11.512
▁과잉	-11.5123
▁지나치	-11.5123
▁파워	-11.5126
▁비핵	-11.5128
▁걸프	-11.5128
▁따돌리	-11.5129
▁나온다	-11.5133
▁맺었다	-11.5136
결합	-11.5147
▁재생	-11.5152
▁홀리	-11.5157
▁푸에르	-11.5158
▁많아	-11.5165
▁발송	-11.5174
이나	-11.5176
또	-11.5189
▁붙이	-11.519
▁십자	-11.5197
▁팔려	-11.5201
램	-11.5201
▁천재	-11.5208
▁다나	-11.521
▁불매	-11.522
▁물려	-11.5222
조선	-11.5225
드는	-11.5225
▁미쳤다	-11.5226
▁103	-11.5234
▁맺어	-11.5237
▁줄어	-11.5237
▁낙하	-11.5243
▁진보	-11.5244
클라렌	-11.5247
비츠	-11.5249
▁확실하다	-11.526
▁줄어들었다	-11.5262
렌시	-11.5265
▁마저	-11.5267
▁인쇄	-11.5269
▁개척	-11.5273
화나	-11.5275
▁움직이는	-11.5279
40	-11.5283
▁든다	-11.5288
▁듣	-11.529
▁아디	-11.5294
▁보여주기	-11.5294
려진	-11.5296
생물	-11.5299
▁피크	-11.5299
아메리	-11.53
▁불화	-11.53
▁베티	-11.5316
pa	-11.5317
▁농구	-11.5319
▁휩싸였다	-11.532
셰	-11.5322
▁정성	-11.5325
▁물어	-11.5325
▁파란	-11.5347
▁연습	-11.5349
회의	-11.535
▁됨	-11.5353
▁모였다	-11.5357
▁차전에	-11.5377
▁사절	-11.5377
▁얻는	-11.5383
어스	-11.5388
틸	-11.54
온난	-11.5403
▁개리	-11.5416
▁파울	-11.5425
낸	-11.5425
▁도와주	-11.5437
ff	-11.5438
거래	-11.5453
▁인정받	-11.5455
▁수염	-11.5456
▁순수	-11.5456
▁09	-11.546
▁해있다	-11.5462
▁시아	-11.5472
▁or	-11.5472
▁치렀	-11.5473
▁콜로	-11.5481
space	-11.5491
▁98	-11.5494
▁트위	-11.5496
▁돌아온	-11.5508
▁덜	-11.551
▁포스	-11.5517
소시	-11.552
▁190	-11.5531
▁필요하	-11.5533
▁않았을	-11.5537
▁싶었	-11.5545
활동	-11.5548
공격	-11.5554
안보	-11.5554
워진	-11.5556
▁상임	-11.5567
▁낡	-11.5568
▁뭉	-11.5568
▁셔	-11.5575
▁스마	-11.5578
▁팽팽	-11.5584
▁1400	-11.5587
▁주거	-11.5587
▁몰래	-11.559
▁코넬	-11.5592
▁나섰	-11.5594
▁아틀란	-11.5595
▁쿠즈넷소	-11.5597
▁요하네스	-11.5597
▁with	-11.5598
▁메세지	-11.5598
▁태어나	-11.5601
▁마닐	-11.5601
▁푸에르토리코	-11.5603
▁피플	-11.5604
▁research	-11.5606
▁괴물	-11.5607
▁하느	-11.5608
▁이뤄져야	-11.5608
▁프린스	-11.561
톡	-11.561
▁메릴	-11.561
▁보내지	-11.5613
▁세균	-11.5614
▁완승	-11.5615
▁스몰	-11.5616
▁독특	-11.5616
프레드	-11.5617
니야	-11.5619
오리	-11.562
▁지닌	-11.5622
▁poll	-11.5624
▁살라	-11.5626
▁기념품	-11.5627
▁인디언	-11.5628
▁베이비	-11.5632
▁안드레	-11.5632
▁홀로	-11.5636
미군	-11.5637
▁놓치	-11.5637
▁바바	-11.5639
▁됩니다	-11.5643
▁360	-11.5644
▁life	-11.5646
▁스노	-11.5655
▁제니	-11.5656
모레	-11.5657
▁맡아	-11.5658
▁검정	-11.566
▁있었을	-11.5663
폰테	-11.5666
▁동남	-11.5668
▁도망쳤다	-11.5669
▁끝내고	-11.567
▁빛나	-11.567
▁브레	-11.5673
▁이바노	-11.5676
▁화하기	-11.5676
▁타블	-11.5677
수술	-11.5679
▁기둥	-11.568
▁감추	-11.5681
▁레시	-11.5688
▁급진	-11.5697
▁직위	-11.5699
▁코프	-11.57
▁스릴	-11.57
▁쿠마	-11.5703
▁이끈	-11.5704
▁투르크	-11.5707
▁기획	-11.571
리노	-11.571
▁그로	-11.5719
▁미스터	-11.572
▁로빈	-11.5721
▁참전	-11.5722
부인	-11.5724
쯔	-11.5729
에르	-11.5731
▁망치	-11.5732
▁노바	-11.5743
▁받아들였다	-11.5744
▁wh	-11.5749
▁공적	-11.5751
▁레버	-11.5752
▁좋았다	-11.5761
▁유아	-11.5765
ma	-11.5765
▁앨리	-11.5768
첩	-11.5768
▁하퍼	-11.5768
▁셰이	-11.5769
▁가져왔다	-11.577
때로	-11.5777
▁상관없	-11.5782
▁뜨거	-11.5789
▁메신	-11.5793
겠	-11.5793
▁팜	-11.5795
▁금주	-11.5804
▁q	-11.5809
상세	-11.5809
▁재미	-11.5817
▁주시	-11.5819
비드	-11.582
▁세비	-11.5826
12	-11.583
▁모범	-11.5831
▁더블	-11.5836
▁산후	-11.5836
dad	-11.5837
▁멜리	-11.5844
▁베드	-11.5844
▁흔들리	-11.5845
▁고집	-11.5845
하는데	-11.5856
스펠	-11.5861
국가	-11.5861
▁집안	-11.5864
파리	-11.5864
▁신선	-11.5867
덜	-11.5874
▁단편	-11.5877
▁렌	-11.5878
▁흘러	-11.5883
뢰	-11.5892
호크	-11.5893
큐	-11.5893
▁볼드	-11.5901
ndon	-11.5907
▁보리	-11.5907
▁타지	-11.5908
▁시오	-11.5916
니어	-11.5928
▁펠리	-11.5929
▁꿀	-11.5935
싸움	-11.5952
▁성경	-11.5952
▁근접	-11.5954
정체	-11.5954
▁돕는	-11.596
▁all	-11.5961
▁에버	-11.5968
▁225	-11.5971
▁잃어버	-11.5974
▁패트	-11.5981
▁루디	-11.5987
▁위장	-11.5988
▁없기	-11.5992
▁만든다	-11.5992
항공우주	-11.5996
▁키티	-11.5998
▁바오	-11.6006
▁you	-11.6009
▁전과	-11.6016
▁들어가기	-11.602
▁117	-11.602
▁트랙	-11.6025
ump	-11.6035
경비	-11.604
▁유태	-11.6042
▁이탈	-11.6048
늬	-11.6063
멧	-11.6063
몫	-11.6063
탓	-11.6063
펫	-11.6063
룸	-11.6071
러시아	-11.6073
▁새우	-11.608
▁빔	-11.6094
▁섭	-11.6098
▁다쳤	-11.6101
주일	-11.6103
▁뇌졸	-11.611
▁꾸준	-11.6111
▁110	-11.6113
▁롤러	-11.6115
▁쓰러져	-11.6118
▁신생아	-11.6118
▁청와대	-11.6118
▁문명	-11.612
▁유해	-11.6123
▁show	-11.6124
▁top	-11.6125
▁지나친	-11.6125
▁movie	-11.6126
▁버려진	-11.6127
▁1975	-11.6128
▁화학물	-11.6131
▁이르렀	-11.6136
▁머무	-11.6137
▁텔레	-11.6139
▁대학원	-11.6144
▁와일드	-11.6144
▁달링	-11.6146
▁의한	-11.6147
▁정확하게	-11.6148
제르	-11.6148
▁미시간	-11.6156
▁바꿨	-11.6156
안토니	-11.6159
▁가져가	-11.616
▁스럽다	-11.6165
▁유성	-11.6173
▁막았다	-11.6174
▁있느냐	-11.6177
▁특파	-11.6178
▁죄수	-11.6178
▁주도하고	-11.6183
▁당일	-11.6184
종양	-11.6184
▁봐	-11.6189
▁펼치고	-11.6191
▁벌인다	-11.6194
▁대장	-11.6194
▁띠	-11.6195
▁러브	-11.6196
ish	-11.6197
▁비어	-11.62
▁배역	-11.62
▁실직	-11.6205
깃	-11.6206
▁저격	-11.6207
▁루마	-11.6208
▁bp	-11.6213
▁v	-11.6215
부패	-11.6217
후보	-11.6221
▁놓인	-11.6228
▁캘	-11.6228
▁96	-11.623
▁루카	-11.6231
▁야자	-11.6231
르완	-11.6232
▁먹을	-11.6233
펀드	-11.6236
▁믿는	-11.624
▁agenc	-11.6241
▁아타	-11.6252
비덴	-11.6255
▁선보였	-11.6269
왓	-11.6272
▁래드	-11.6278
▁알렉산드	-11.6279
웨	-11.6279
▁불가피하다	-11.628
▁갖기	-11.6282
▁세리	-11.6285
▁왕위	-11.6292
▁리얼	-11.6293
레이션	-11.6309
▁대폭	-11.6318
ac	-11.6318
▁흥	-11.632
르타	-11.6325
▁피처	-11.6332
흥	-11.6332
▁심정	-11.6333
토프	-11.6338
▁배아	-11.634
구리	-11.6343
▁모의	-11.6345
▁통일	-11.6353
▁콜럼	-11.6356
▁들어왔다	-11.6359
▁an	-11.6359
▁돌아갔다	-11.6371
▁루즈	-11.6378
▁그루	-11.6383
▁인적	-11.6392
어서	-11.6397
타임	-11.6401
재판	-11.6402
하마	-11.6403
▁믿지	-11.6404
▁am	-11.6405
▁취약	-11.6411
▁틀	-11.6416
▁살아	-11.6427
▁치과	-11.6435
▁카디	-11.6436
▁능	-11.6439
▁데니	-11.6451
▁합리	-11.6453
▁하기에	-11.6454
마드	-11.6456
ld	-11.6462
라스	-11.6465
▁했다면	-11.6467
▁리터	-11.6473
▁포토	-11.6474
▁시르	-11.6476
▁유연	-11.6482
▁ca	-11.6486
▁피스	-11.6487
봐야	-11.649
▁파르	-11.65
▁착한	-11.6502
▁줄었다	-11.6503
쥐	-11.6506
▁들렸다	-11.6514
▁페라	-11.6517
▁세웠	-11.6521
▁불사	-11.6529
반기	-11.6536
바일	-11.6547
사람	-11.6551
마크	-11.6552
▁바트	-11.6555
갔다	-11.6559
▁도서	-11.6564
▁팰	-11.6567
커다	-11.657
▁탔	-11.6574
전형	-11.6576
푸	-11.6577
▁드러	-11.6582
ster	-11.6589
노프	-11.6593
ube	-11.6604
횟	-11.6619
▁다닐	-11.6622
▁pk	-11.6624
rl	-11.6628
쿠바	-11.6631
▁구조조	-11.6632
▁따라잡	-11.6633
▁숨어	-11.6636
▁아키	-11.6637
▁발자	-11.6638
▁dh	-11.6645
▁나간	-11.6647
▁아유	-11.6648
▁뭔	-11.6648
▁켐	-11.6648
그라	-11.6652
▁즐겨	-11.6652
istan	-11.6659
▁정비	-11.6659
▁바하	-11.6662
▁jp	-11.6665
▁조달	-11.6667
▁잉카	-11.6668
크리	-11.6669
▁꾸미	-11.667
▁라모	-11.667
nhc	-11.6671
▁mo	-11.6674
▁가깝게	-11.6674
▁합참	-11.6675
▁요한슨	-11.6675
▁아우	-11.6676
▁평등	-11.6678
중국	-11.6679
▁카리브	-11.6681
▁heart	-11.6682
▁맡게	-11.6682
▁텔레비	-11.6682
▁academ	-11.6683
▁미시간주	-11.6687
▁퇴역	-11.6688
▁기울	-11.6688
▁친밀	-11.6689
▁2018	-11.6691
▁5500	-11.6695
19	-11.6696
▁스필	-11.6696
▁시달리고	-11.6702
▁성범죄	-11.6704
눈	-11.6706
▁간접	-11.6708
▁높았다	-11.6708
▁올스타	-11.6714
▁uni	-11.6715
▁로얄	-11.6717
▁소수민	-11.6719
▁달았다	-11.672
▁순교	-11.6723
▁상무	-11.6729
러운	-11.6729
▁날아가	-11.673
리핀	-11.6732
▁2200	-11.6734
▁유용	-11.6736
개구리	-11.6739
▁터치	-11.6744
▁가톨릭	-11.6745
▁메모	-11.6748
▁sun	-11.675
▁헤더	-11.6752
▁드럼	-11.6753
▁유기	-11.6754
▁늘리	-11.6758
▁고무	-11.6758
▁느	-11.6761
id	-11.6763
▁산산	-11.6766
▁도박	-11.6768
치는	-11.6773
▁겁	-11.6774
▁밝혀내	-11.6777
▁스쿨	-11.6777
▁디젤	-11.6779
▁성공할	-11.6779
▁미션	-11.678
상승	-11.678
세탁	-11.678
▁미치지	-11.6784
▁day	-11.6785
▁크로스	-11.6793
▁던진	-11.6799
잉	-11.6801
▁중세	-11.6803
코바	-11.6808
▁돼있는	-11.6808
▁놀랐다	-11.6809
랩	-11.6814
▁야스	-11.6818
▁논평	-11.6819
it	-11.6819
겔	-11.6823
lg	-11.6826
루드	-11.6826
▁로이	-11.6828
▁fun	-11.683
▁성전	-11.6838
▁함정	-11.684
▁테디	-11.684
르노	-11.6846
▁양조	-11.685
ers	-11.6856
▁국정	-11.6866
▁corp	-11.6866
▁쉽	-11.6871
▁220	-11.6871
▁되는지	-11.6872
▁맑	-11.6874
▁밝혔었	-11.6879
▁카나	-11.6886
린치	-11.6886
▁pop	-11.6888
▁괜찮	-11.6891
▁유일하	-11.6894
▁이끌어내	-11.6899
▁어워	-11.6907
▁캡	-11.6921
▁돌아가는	-11.6924
▁만들어지	-11.6928
▁교차	-11.6928
▁yout	-11.6928
▁페어	-11.6929
했지만	-11.693
▁압델	-11.6935
▁웨스	-11.6936
▁하우	-11.694
▁공통	-11.6944
파르	-11.6949
▁내다봤	-11.6949
▁재계	-11.6958
▁들어있다	-11.696
▁시켜주	-11.6961
▁찾아내	-11.6965
▁에디	-11.6966
▁엘바	-11.6975
▁파이어	-11.6978
▁왓	-11.6978
▁드물	-11.6981
▁데르	-11.6981
▁win	-11.6983
▁부처	-11.699
▁예보	-11.6994
▁정신병	-11.6998
▁베스	-11.7
▁570	-11.7001
롭게	-11.7007
▁ur	-11.7008
▁강화했다	-11.7009
▁fc	-11.7012
테리	-11.7014
리버	-11.7015
캐슬	-11.7021
▁린치	-11.7024
▁똑	-11.7025
▁관행	-11.7027
았	-11.7029
▁휘트	-11.7032
눌	-11.7036
▁나타냈	-11.7038
캐	-11.7044
▁잃을	-11.7046
코비	-11.7055
wf	-11.7061
에른	-11.7063
하라	-11.7064
느냐	-11.7072
▁unite	-11.7074
탈리아	-11.7078
포드	-11.71
▁꼬	-11.7101
▁살아가	-11.7104
▁분노한	-11.7114
▁헨	-11.7115
▁로렌	-11.7121
▁걸리는	-11.7122
▁카니	-11.7131
▁iw	-11.714
▁찌	-11.7151
우리	-11.7157
▁보았다	-11.7163
▁자란	-11.7168
카라	-11.7168
라이트	-11.717
둑	-11.7173
▁한계	-11.7174
▁랜	-11.7178
니카	-11.7178
계기	-11.7179
▁브라더	-11.7182
▁죽었	-11.7193
렴	-11.7205
룽	-11.7207
캇	-11.7207
▁챌	-11.7209
▁붉	-11.7214
▁로보	-11.7221
▁느끼지	-11.7222
▁기쁘	-11.7223
▁동거	-11.7224
pak	-11.7225
▁명에	-11.7232
▁힌두	-11.7238
▁안된	-11.7242
▁바비	-11.7244
▁글래	-11.7245
▁피오	-11.7247
▁뽑아	-11.7251
▁잎	-11.7252
▁카펠	-11.7254
▁맞춘	-11.7256
▁버밍	-11.7257
▁안타까	-11.7259
▁헬맨드	-11.726
▁헝가리	-11.726
아갈	-11.7261
▁니제르	-11.7262
▁버클리	-11.7264
▁미네소타	-11.7264
▁와이오밍	-11.7264
▁bagh	-11.7264
▁엑스파일	-11.7264
자르	-11.7265
▁unhc	-11.7265
▁뉴멕시코	-11.7265
▁돕슨	-11.7266
▁욕구	-11.7266
▁시키겠다	-11.7266
▁엑	-11.7268
▁암스테	-11.7269
▁심장질환	-11.727
▁window	-11.727
▁journal	-11.7275
▁georg	-11.7277
26	-11.7278
▁만들어졌다	-11.7278
▁만토바	-11.7279
▁카우	-11.7279
▁릭	-11.7281
▁앞장서	-11.7284
▁4500	-11.7286
▁3500	-11.7294
▁지표	-11.7296
▁fi	-11.7298
▁라임	-11.7302
▁겪을	-11.7302
▁서포터	-11.7302
▁안았다	-11.7302
아프리카	-11.7303
▁회복하고	-11.7303
▁발렌	-11.7305
선고	-11.7305
▁농산	-11.7305
▁레나	-11.7309
▁one	-11.7309
▁컸다	-11.7309
▁보르	-11.731
▁카본	-11.731
▁칼데	-11.7315
진과	-11.7316
▁서기	-11.7318
리프	-11.7321
oc	-11.7322
▁이루어졌다	-11.7322
▁재앙	-11.7324
▁wild	-11.7326
▁해줬다	-11.7328
▁시켜야	-11.7328
▁투병	-11.7332
▁공백	-11.7335
이즈미	-11.7338
▁놓여있다	-11.7345
▁제퍼	-11.7348
▁산시	-11.7352
▁웃음	-11.7359
▁미치	-11.7362
▁정복	-11.7371
▁미렌	-11.7379
▁쫓	-11.738
▁만들어내	-11.7384
▁제왕	-11.7385
▁리자	-11.7385
▁스펙	-11.7386
▁무자	-11.7397
▁몰랐다	-11.74
뼈	-11.74
▁총살	-11.7407
▁몰리	-11.7407
▁tg	-11.7407
▁240	-11.7407
하거	-11.7415
▁친서	-11.7423
니다	-11.7434
vs	-11.7437
▁글리	-11.7439
▁역설	-11.7439
▁돕고	-11.7443
▁킴	-11.7444
▁th	-11.7444
▁치솟	-11.7446
화물	-11.7457
▁전제	-11.7458
사항	-11.7462
▁공업	-11.7463
▁했음	-11.7466
cc	-11.7466
▁강성	-11.7467
ax	-11.7468
▁원심	-11.7479
▁도마	-11.748
▁king	-11.7483
▁풍자	-11.7483
거운	-11.7485
▁싸	-11.7488
▁알아	-11.7489
▁전세	-11.7494
▁스프링	-11.7501
테러	-11.7506
cb	-11.7507
▁원내	-11.7507
▁끌려	-11.7508
▁바라지	-11.7509
▁군용	-11.7516
▁켜	-11.7518
▁상표	-11.752
암스트	-11.7532
▁번영	-11.7532
▁pm	-11.7535
▁보행	-11.7536
우디	-11.7542
▁과속	-11.7545
▁에이	-11.7557
▁옮기	-11.7562
▁빗	-11.7569
▁따내	-11.757
▁아라	-11.7577
▁성대	-11.7579
▁임상	-11.7581
▁쓰인	-11.7587
핏	-11.759
▁chin	-11.7591
잉글랜드	-11.7592
▁쉽다	-11.7595
▁경의	-11.7595
▁푸드	-11.7598
▁묶	-11.76
위크	-11.7602
▁살리	-11.7614
▁통상	-11.7618
et	-11.762
▁토드	-11.762
▁로열	-11.7626
평화	-11.7628
▁변했다	-11.7629
레아	-11.7635
▁견고	-11.7637
바르	-11.7642
▁펠로	-11.7648
28	-11.7649
▁해오	-11.7656
퇴근	-11.7657
▁아닐	-11.7661
닌	-11.7671
카메라	-11.7674
dom	-11.7676
▁떨어졌	-11.7679
▁박수	-11.7681
▁중질	-11.7683
▁티크	-11.7683
▁농사	-11.7688
▁섞	-11.7689
이라크	-11.7695
시술	-11.7696
▁마르코	-11.7701
▁호스	-11.7704
rc	-11.7711
▁류	-11.7713
▁해진	-11.7716
켜	-11.7721
▁전해지	-11.7721
▁지나간	-11.7724
▁넘겨	-11.7727
▁원만	-11.7731
▁윗	-11.7732
▁싫어하	-11.7733
▁이룬	-11.7737
▁쓰이	-11.7739
▁dr	-11.7745
▁갇혀	-11.7746
▁영장	-11.7753
▁오만	-11.7753
스마일	-11.7758
▁맞지	-11.7759
▁동행	-11.776
이머	-11.7762
▁쉬는	-11.7763
비자	-11.7765
▁저명	-11.7776
서든	-11.7788
장치	-11.7789
대표	-11.7794
▁좋았	-11.7795
▁크라	-11.7796
▁사이언	-11.7805
▁hs	-11.7809
▁다행	-11.7813
벳	-11.783
깅	-11.7832
쳇	-11.7832
epl	-11.7833
리자	-11.7833
▁낭비	-11.7844
스펀	-11.7844
릴랜드	-11.7851
▁파일	-11.7852
대해	-11.7855
▁멤	-11.7858
▁깜	-11.7859
동성	-11.7862
▁사교	-11.7872
▁멈춰	-11.7875
▁즐겁	-11.7875
▁체스	-11.7876
▁엑손	-11.7877
▁몽	-11.7882
▁메릴랜드	-11.7882
▁스톡홀	-11.7883
▁제너럴	-11.7883
▁위태롭	-11.7885
▁블래	-11.7885
▁몬타나	-11.7885
▁프란체스	-11.7888
▁코네티컷	-11.7888
▁통행금지	-11.7888
탈리	-11.7891
▁즐긴다	-11.7891
▁아르메니아	-11.7891
▁black	-11.7891
▁리베라	-11.7893
▁1977	-11.7894
▁height	-11.7894
▁없습니다	-11.7894
▁로드아일랜드	-11.7895
▁루빈	-11.7896
▁끼어들	-11.7896
▁되었는데	-11.7897
▁기네스	-11.7897
▁좋겠다	-11.7899
▁있을까	-11.79
▁켄트	-11.7902
▁africa	-11.7904
▁버드	-11.7905
▁이르	-11.7905
▁1700	-11.7905
▁2015	-11.7905
▁피우	-11.7911
▁770	-11.7911
ls	-11.7915
▁낳았다	-11.792
▁1300	-11.792
▁디나	-11.7926
랐다	-11.7929
▁있었는지	-11.7934
▁극심	-11.7935
▁스머	-11.7936
버려	-11.7938
화기	-11.7941
▁끝나기	-11.7942
▁is	-11.7952
▁출하	-11.7953
께	-11.7954
▁스폰	-11.7955
▁퇴직	-11.7957
▁겪었	-11.796
▁돌아다니는	-11.7963
▁지형	-11.7963
▁빠져나가	-11.7967
uss	-11.7969
▁취업	-11.797
▁생기는	-11.7971
▁실리	-11.7972
▁os	-11.7975
▁쿠즈	-11.7979
▁사마	-11.7981
▁옥수	-11.7981
▁몰린	-11.7981
▁me	-11.7981
985	-11.7991
▁지켜봤다	-11.7992
▁야심	-11.7992
▁wid	-11.7997
▁xp	-11.7999
▁흥분한	-11.8001
▁믹	-11.8005
▁베가	-11.801
▁라르	-11.8011
브리지	-11.8014
▁떠났	-11.8019
▁바꾸기	-11.803
▁그릇	-11.8035
▁일으키고	-11.8038
▁128	-11.804
▁갖췄다	-11.8044
마리	-11.8045
▁세울	-11.805
▁공작	-11.805
직원	-11.8051
▁450	-11.8054
아노	-11.806
운트	-11.8062
▁애호	-11.8065
ign	-11.8078
▁젊	-11.8081
ries	-11.8082
▁퍼지	-11.8083
▁넘겼다	-11.8088
▁벨리	-11.8089
▁모여들	-11.8094
얀	-11.8096
▁스크	-11.8097
▁모닝	-11.8097
▁질식	-11.81
스타인	-11.8101
▁ja	-11.8113
▁지냈다	-11.8121
▁훔	-11.8124
▁놓았다	-11.8134
▁나누어	-11.8136
애자	-11.8137
▁퀴	-11.814
▁태워	-11.8149
▁코르	-11.8149
브리	-11.8149
▁라니	-11.8154
해져	-11.8155
장점	-11.8159
▁난폭	-11.8161
▁위험하다	-11.8161
수막	-11.8164
▁밀수	-11.8165
▁발레	-11.8168
▁인텔	-11.8171
▁비슷하다	-11.8172
무실	-11.8178
▁밝히기	-11.8179
▁파브	-11.8183
▁달렸다	-11.8185
레디	-11.8202
▁주도하	-11.8204
▁대조	-11.8206
▁옥	-11.8207
soft	-11.8212
아리	-11.8214
▁훈	-11.8214
▁부지	-11.8218
▁화하는	-11.8219
▁모으	-11.8219
▁state	-11.8221
▁잡혔다	-11.8228
즐	-11.8229
▁옮겼다	-11.8229
보기	-11.823
▁폴스	-11.8234
▁오버	-11.8235
▁ue	-11.8238
소련	-11.8241
넌	-11.8246
▁ip	-11.8247
▁ag	-11.8247
▁올라갔	-11.8255
60	-11.8256
▁그레이스	-11.8259
▁공로	-11.8268
프라이	-11.8278
▁확고	-11.8283
세데	-11.8285
▁버리는	-11.8285
닛	-11.8285
▁거뒀	-11.8289
▁밝혀지	-11.8292
라스카	-11.8295
▁서던	-11.8296
▁웅	-11.8299
▁고르바	-11.8301
▁벤자	-11.8306
▁민영	-11.8306
▁중립	-11.8314
▁정당하다	-11.8315
인해	-11.8316
부모	-11.8318
fo	-11.8321
▁주거지	-11.8323
바닥	-11.8323
아나	-11.8326
▁벌어졌	-11.8326
▁dai	-11.8326
천억	-11.8332
▁고마	-11.8332
화학	-11.8335
만두	-11.8336
▁히스	-11.8345
▁emi	-11.8349
▁ww	-11.8352
ple	-11.8356
▁갤러	-11.8361
피소	-11.8362
cf	-11.8364
오프	-11.8374
▁나간다	-11.838
▁맡	-11.8384
▁내주	-11.8385
착륙	-11.842
▁회동	-11.8421
대학	-11.8422
▁불가피	-11.8424
홍	-11.8427
▁주어진	-11.8428
▁높아	-11.8429
징역	-11.8432
▁일으켰	-11.8438
야만	-11.844
▁잡혀있	-11.8443
▁당혹	-11.8444
▁선보이	-11.8447
▁ec	-11.8451
▁버려	-11.8456
▁딴	-11.8467
▁바크	-11.8474
레인	-11.8476
▁115	-11.8484
지방	-11.8494
▁dc	-11.8498
▁훔쳐	-11.8499
긱	-11.8499
깐	-11.8499
숍	-11.8499
쩔	-11.8499
cd	-11.8506
▁재선	-11.8515
▁동남아	-11.8516
난민	-11.8516
▁조니	-11.8517
▁rc	-11.8525
▁곁	-11.8525
▁핫	-11.8525
▁싣	-11.8525
콜	-11.8534
웨일즈	-11.8534
▁싸울	-11.8539
▁정직	-11.854
▁퀘벡	-11.854
▁햇빛	-11.8541
▁촛불	-11.8541
▁나뭇	-11.8542
▁핑크	-11.8544
버른	-11.8544
▁꺼내	-11.8548
▁헬만드	-11.8549
▁흩어져	-11.8549
▁삼엄	-11.8549
▁썩	-11.855
▁서둘러	-11.8551
▁do	-11.8551
▁아쿠아	-11.8552
▁클레멘	-11.8553
▁메흐디	-11.8553
▁발렌타인	-11.8554
▁물러난	-11.8554
▁갤론	-11.8554
▁떠올랐다	-11.8557
▁코스피	-11.8557
▁유효	-11.8558
▁푸른	-11.8559
▁사이언톨로지	-11.8559
▁little	-11.8559
▁1983	-11.856
▁않으려	-11.8563
▁죠	-11.8565
▁이루어진	-11.8569
▁흘리	-11.8569
▁micro	-11.8569
ings	-11.8571
▁아이스	-11.8573
▁franc	-11.8573
▁냉장	-11.8573
▁드러나	-11.8575
▁타바	-11.8575
▁스마트	-11.8575
▁칼럼	-11.8576
▁존엄	-11.8576
▁맡을	-11.8578
▁어른	-11.858
▁했어야	-11.858
▁불가사의	-11.8581
▁무책임	-11.8584
▁모여들었다	-11.8584
▁이뤘	-11.8585
▁중요하	-11.8589
▁서사	-11.8591
쓰	-11.8594
▁브린	-11.8595
▁올라왔다	-11.8595
▁미켈	-11.8597
▁픽	-11.8597
스팅	-11.86
끄는	-11.8604
▁입학	-11.8606
피해	-11.8611
조합	-11.8612
북한	-11.8614
▁콜드	-11.8619
그램	-11.8619
과학	-11.8622
▁크랜	-11.8625
▁매트	-11.8628
▁다루는	-11.863
▁맛봤	-11.8633
으	-11.8633
▁둬	-11.8634
▁젖	-11.8638
▁빠져나갔	-11.864
▁영화제작	-11.8641
혔다	-11.865
▁bur	-11.865
▁행복한	-11.865
그러나	-11.8651
▁자궁	-11.8654
▁챈	-11.8655
▁air	-11.8656
▁가난	-11.8659
▁라벨	-11.8659
▁불명	-11.8667
▁어렸	-11.8667
▁철학	-11.8668
코스	-11.867
출국	-11.8681
▁엘레	-11.8681
▁멈추	-11.8684
▁만장	-11.8686
▁129	-11.8687
▁work	-11.869
▁보내졌다	-11.8691
▁웃는	-11.8694
▁철거	-11.8697
▁끝나면	-11.8709
▁타이거	-11.8716
▁관제	-11.8716
▁올드	-11.8722
▁해냈다	-11.8724
▁프라임	-11.8727
톨	-11.8728
▁그렸다	-11.8728
▁채권	-11.8731
▁헤어	-11.8733
자브	-11.874
▁셈	-11.875
수감	-11.875
▁지질학	-11.8752
16	-11.8752
▁링고	-11.8759
정보	-11.876
▁담겨	-11.8762
led	-11.8764
▁활기	-11.8771
▁맡기	-11.8775
▁들러	-11.8775
▁안다	-11.8777
▁빼앗	-11.878
▁조화	-11.8783
르는	-11.8786
nation	-11.8788
▁타인	-11.8801
▁메카	-11.8803
▁마시지	-11.8804
▁올바	-11.8808
▁소바	-11.8809
13	-11.8814
mw	-11.8816
리코	-11.8817
조각	-11.8821
잡이	-11.8821
▁나타난다	-11.8823
▁그랬	-11.8831
딸	-11.8831
▁살레	-11.8834
▁낮추는	-11.8834
합니다	-11.8836
▁고르	-11.8839
27	-11.8839
▁물러났	-11.8842
윤	-11.8846
▁이상하게	-11.8849
콜라	-11.885
▁쉴	-11.8855
▁틈	-11.8855
▁sc	-11.8855
▁거점	-11.8857
▁다이어	-11.8858
폴로	-11.8859
▁전해	-11.886
▁티드	-11.8874
▁폴라	-11.8875
▁먹지	-11.8879
▁여아	-11.8879
▁인류학	-11.8884
▁표지	-11.8887
▁마쓰	-11.8889
▁모리	-11.8892
nt	-11.8892
기간	-11.8903
▁out	-11.8908
is	-11.8909
겨진	-11.891
훈련	-11.8915
▁들어갔	-11.8919
▁할까	-11.8923
▁플리	-11.8923
ard	-11.8925
▁쳤	-11.8929
▁space	-11.8933
▁상트	-11.8938
데르	-11.8938
▁들어간다	-11.8944
와트	-11.8944
ex	-11.8949
명한	-11.8962
▁미야	-11.8963
▁변동	-11.8964
감자	-11.8966
농구	-11.8969
놓았다	-11.8969
▁126	-11.8972
▁서머	-11.8972
떼	-11.8974
소니	-11.8975
879	-11.8983
ds	-11.8984
▁이어진	-11.8986
모닝	-11.8994
위원장	-11.8997
▁펀드	-11.8998
▁되어있다	-11.9005
놈	-11.9005
▁밟	-11.9006
가는	-11.9009
▁들어올	-11.9018
믹	-11.9018
▁뒤진	-11.9019
▁하스	-11.9029
엠	-11.903
▁카나리	-11.9032
▁손잡	-11.9036
앤젤	-11.9036
쉐	-11.9037
▁테베	-11.9037
979	-11.9049
죠	-11.9057
하여	-11.9059
▁숭	-11.9073
▁싶어하	-11.9075
싸	-11.9079
▁brit	-11.908
▁아니었	-11.9088
▁위키	-11.9091
맵	-11.9092
▁힘들었	-11.9098
▁권했다	-11.91
▁량	-11.9105
▁구두	-11.9114
배상	-11.9119
▁쓰지	-11.9122
▁폭넓	-11.9123
▁쥬	-11.9123
사전	-11.9125
아누	-11.9126
▁지났	-11.9134
▁타디	-11.9137
▁면밀	-11.9138
벤	-11.9141
셀로	-11.9142
▁어기	-11.9143
▁노린	-11.9145
▁궁금	-11.9153
▁이었을	-11.9157
미트	-11.916
리사	-11.9163
737	-11.9169
제정	-11.9173
▁팩	-11.9176
라이버	-11.9181
개인	-11.9183
▁행크	-11.9186
▁찾았	-11.9187
▁놀랍	-11.9188
▁돌렸다	-11.9199
▁옮	-11.92
파드	-11.9202
▁로렌스	-11.9207
▁들었	-11.9208
▁세워졌	-11.9212
룻	-11.9213
결핍	-11.9213
셴	-11.9213
쉘	-11.9213
썹	-11.9213
흘	-11.9214
쉽	-11.9216
▁섬유	-11.9224
ue	-11.9228
▁적었다	-11.9229
ch	-11.9229
▁필라	-11.9233
▁샹	-11.9238
▁춀	-11.9238
인도	-11.9238
▁uc	-11.9246
▁안타깝	-11.9249
▁이겨	-11.9252
▁잃어	-11.9253
▁jo	-11.9253
▁햇볕	-11.9253
▁췌장	-11.9254
▁주먹	-11.9257
▁마주	-11.9257
▁굶주	-11.9258
▁홀딩	-11.9258
▁샀다	-11.9259
▁참혹	-11.926
▁갖춰	-11.926
▁넘긴	-11.9261
▁이뤄졌	-11.9261
▁드림걸	-11.9262
▁etc	-11.9262
▁쓰러진	-11.9263
▁빅토	-11.9264
▁소매업	-11.9265
▁tele	-11.9265
▁아닙니다	-11.9266
▁델라웨어	-11.9266
▁high	-11.9266
▁가루	-11.9268
▁1953	-11.9269
▁마다가스카	-11.927
▁1974	-11.9271
▁마젤	-11.9271
▁화폐	-11.9271
▁societ	-11.9272
일치	-11.9273
▁신혼	-11.9276
▁알려졌	-11.9276
▁안타깝게	-11.9278
▁유명해졌다	-11.928
ca	-11.928
▁코브	-11.9281
▁헐리	-11.9287
▁덧붙	-11.929
▁쌓인	-11.929
▁콤	-11.9292
▁탄저	-11.9293
▁않았다면	-11.9296
영장	-11.9296
▁나아가	-11.93
▁지켰다	-11.93
▁불행	-11.93
▁주도했다	-11.9302
▁않겠	-11.9304
▁댕	-11.9306
홀	-11.9307
▁엔론	-11.9308
▁학습	-11.931
▁sa	-11.9311
났다	-11.9311
▁브라우	-11.9312
▁같아	-11.9316
▁지부	-11.9318
▁농경	-11.932
▁응용	-11.932
▁사들이	-11.9326
▁전해진	-11.9327
▁라일	-11.9328
▁맨하	-11.9329
사이	-11.9333
▁버렸	-11.9335
▁정보통	-11.9339
하스	-11.934
▁페니	-11.934
▁육체	-11.9341
밀매	-11.9343
투아	-11.9343
way	-11.9344
야구	-11.935
▁기다렸다	-11.935
▁도둑	-11.9351
▁헬로	-11.9355
▁마신	-11.9356
메리	-11.9357
▁아브	-11.936
하드	-11.9362
99	-11.9367
인하	-11.9368
▁밝혀졌	-11.9369
▁지아	-11.937
▁밝혀져	-11.9381
▁옐로	-11.9382
실바	-11.9384
▁낮게	-11.9385
▁프란시스	-11.9386
네거	-11.9389
▁330	-11.939
▁마술	-11.939
▁green	-11.939
한다고	-11.9392
▁떠나는	-11.9392
▁쉐	-11.9393
▁tru	-11.9396
▁이지	-11.9398
▁엔젤	-11.9401
▁선수권	-11.9401
▁왔었다	-11.9402
▁워싱턴주	-11.941
▁불안정	-11.9413
럽게	-11.9418
▁쓰러졌다	-11.9418
했었다	-11.9422
burg	-11.9426
▁107	-11.9431
▁aig	-11.9434
▁추돌	-11.9439
▁마가	-11.944
▁트레일	-11.944
▁na	-11.9452
▁포츠	-11.9452
▁ps	-11.946
▁타당	-11.946
23	-11.9462
▁떠나기	-11.9462
▁바이올	-11.9465
▁112	-11.9473
▁sex	-11.9478
▁현행	-11.9479
네스	-11.9484
▁막는	-11.9487
▁도라	-11.9488
보라	-11.9497
▁post	-11.9498
▁메가	-11.95
유투	-11.9505
공학	-11.9506
▁여인	-11.9509
▁취했	-11.9515
프로스	-11.9526
▁가져야	-11.9529
▁어려워	-11.9532
▁노란	-11.9534
▁먹었다	-11.9535
합병	-11.9539
비행기	-11.9544
수아	-11.9546
▁수의	-11.956
▁제노	-11.9566
▁채무	-11.9571
기는	-11.9578
▁바나	-11.9581
▁배기	-11.9585
▁각성	-11.9585
토리	-11.959
▁폐쇄됐	-11.9591
부장	-11.9592
▁코모	-11.9598
▁빠졌	-11.9599
프스	-11.9603
▁소시	-11.9603
▁죽였다	-11.9604
▁찾아냈다	-11.9607
▁cps	-11.9609
▁적군	-11.961
▁중대	-11.9613
911	-11.9617
▁불가	-11.9628
▁닥	-11.9629
발라	-11.9631
▁바인	-11.9635
▁죽어	-11.9636
▁살았다	-11.9641
▁꾸	-11.9641
베디	-11.9644
▁구급	-11.9646
▁중력	-11.9653
▁유사하다	-11.9655
▁이었으	-11.9655
▁뒤집	-11.966
▁슐	-11.966
▁들였다	-11.9667
▁wi	-11.9672
꿈	-11.9693
▁내야	-11.9699
aa	-11.9701
▁들이는	-11.9707
▁싶어하지	-11.9714
▁코퍼	-11.9715
▁높이기	-11.9716
▁안겨	-11.9722
▁chi	-11.9726
gb	-11.9733
해서	-11.9734
▁받으면	-11.9737
▁만두	-11.9737
▁contr	-11.9743
dr	-11.9745
▁벗어났다	-11.9747
nia	-11.9751
왔다	-11.9757
▁견디	-11.9758
밥	-11.9764
ox	-11.9766
▁포격	-11.9767
▁탄원	-11.9767
▁점원	-11.977
ai	-11.9774
▁녹스	-11.9781
▁우체	-11.9785
▁도르	-11.9787
해진	-11.9788
▁조물	-11.9789
▁마티	-11.9789
▁om	-11.979
▁부산	-11.9795
▁페테르	-11.9796
사망	-11.9801
디스	-11.9804
▁잔인	-11.9805
▁앞서는	-11.9825
시킬	-11.9829
▁다임	-11.9832
▁보물	-11.9833
▁앓	-11.9834
ies	-11.9841
모함	-11.9841
일까	-11.9842
cus	-11.9843
44	-11.9844
▁잡았	-11.9848
▁104	-11.985
빈슨	-11.9853
▁벗어나지	-11.9856
덱스	-11.9859
▁226	-11.986
끌었다	-11.9861
▁먹어	-11.9862
▁개편	-11.9864
▁go	-11.9867
▁hp	-11.9868
▁이긴	-11.9877
▁수상하는	-11.9884
▁부당	-11.9888
풋	-11.9894
pe	-11.9901
▁ha	-11.9902
▁방수	-11.9905
▁so	-11.9907
▁남아있	-11.9917
자신	-11.9922
▁경감	-11.9927
곱	-11.993
▁양자	-11.9931
▁성공했	-11.9932
▁돼있	-11.9934
▁치우	-11.9938
▁날카로	-11.9939
▁고정	-11.9943
▁치아	-11.995
▁스럽	-11.9951
▁안경	-11.9953
▁주사	-11.9953
도주	-11.9957
건축	-11.9967
▁평의	-11.9973
dn	-11.9974
▁끄	-11.9981
949	-11.9982
륭	-11.9982
ead	-11.9991
tam	-11.9996
톨릭	-12.0001
▁살아있다	-12.0005
▁캄푸	-12.0007
▁보디	-12.0007
▁서에	-12.001
▁스위	-12.0013
▁스페이스	-12.0014
르기	-12.0015
▁깨닫	-12.0021
▁컨셉	-12.0021
▁링컨	-12.0022
▁브룩	-12.0022
▁삽입	-12.0022
슈타인	-12.0023
▁찍힌	-12.0024
▁불꽃	-12.0025
▁푼	-12.0027
▁세컨드	-12.0029
▁슬라브	-12.0029
▁제레미	-12.003
▁싸운	-12.003
▁일렉트	-12.0031
▁흉내	-12.0031
▁바르샤	-12.0032
▁앨라배마	-12.0034
▁스타워즈	-12.0035
▁노숙	-12.0035
▁sy	-12.0036
▁옳은	-12.0036
▁평온	-12.0037
▁알츠하이머	-12.0037
▁트랜스포머	-12.0037
▁해수	-12.0038
보였다	-12.0039
▁health	-12.0039
▁사우스웨스트	-12.0039
▁federa	-12.004
▁귀족	-12.004
▁grou	-12.0041
▁service	-12.0042
▁포틀랜	-12.0042
▁1945	-12.0042
▁슈레	-12.0042
▁건축물	-12.0044
▁불러일으키	-12.0045
▁commission	-12.0045
흑	-12.0045
▁펼쳐진	-12.0046
밖	-12.0046
▁자랑스럽다	-12.0047
▁양봉	-12.005
스트리트	-12.005
▁토너	-12.0051
▁꾼	-12.0054
▁내륙	-12.0054
▁2700	-12.0054
▁채플	-12.0055
▁있으면서	-12.0056
▁좋아	-12.0056
▁벤와	-12.0057
▁마르세	-12.0058
▁담았다	-12.0058
▁몰렸다	-12.0061
▁삼각	-12.0064
1191	-12.0068
▁앉아서	-12.0073
▁떠다니	-12.0079
스텔	-12.0082
▁헥타	-12.0085
낸다	-12.0088
▁갇혀있	-12.009
디언	-12.0096
▁3200	-12.0097
▁무패	-12.0097
▁red	-12.0098
▁07	-12.0099
▁캐시미	-12.01
▁라지	-12.0101
▁귀중	-12.0103
▁캐시	-12.0105
▁페러	-12.0106
▁맞붙는	-12.0107
▁안테	-12.0108
▁터졌다	-12.0108
▁간첩	-12.0109
버러	-12.0113
▁죽어가	-12.0113
키마	-12.0114
▁퍼져	-12.0118
▁올림	-12.012
▁비전	-12.0121
▁있겠지	-12.0128
▁맞았	-12.013
▁흐르는	-12.013
▁210	-12.0131
▁승강	-12.0131
▁무더	-12.0133
▁내려오	-12.0135
▁발트	-12.0141
▁갓	-12.015
▁엔터	-12.0157
▁양심	-12.0158
▁분명한	-12.0158
원경	-12.0161
▁하누	-12.0163
▁뛰어넘	-12.0166
▁진통	-12.0168
▁찔	-12.0169
▁수확	-12.0169
▁낀	-12.0174
▁다스	-12.0176
▁스테로	-12.0178
▁앗	-12.018
▁합쳐	-12.0182
▁병역	-12.0183
▁몽고	-12.0191
▁열리고	-12.0194
▁좋아지	-12.0196
▁레노	-12.0196
▁찰	-12.02
▁벌거	-12.0207
▁일으키지	-12.021
▁거치	-12.0214
ne	-12.0218
▁피랍자	-12.0222
▁적합하	-12.0222
▁꼽	-12.0224
▁live	-12.0226
▁느꼈	-12.0228
하우스	-12.0228
▁내는	-12.023
지리	-12.0231
▁겪는	-12.0232
통상	-12.0233
내며	-12.0238
노스	-12.0251
▁세레	-12.0255
▁아나	-12.0258
▁ga	-12.026
혁명	-12.026
▁버린다	-12.026
랜트	-12.0265
▁변함	-12.0274
▁몰려들	-12.0274
무역	-12.0275
▁face	-12.0282
29	-12.0288
▁용이	-12.0291
ess	-12.0292
▁스킨	-12.0296
지게	-12.0298
▁97	-12.0302
스필	-12.0305
▁550	-12.0311
▁웨어	-12.0321
푸스	-12.0335
수수	-12.0341
▁mp	-12.0347
더러	-12.0353
▁big	-12.0354
▁쌓	-12.0364
ore	-12.0367
▁옮겨졌다	-12.0367
▁분수	-12.0371
해진다	-12.0372
▁젤	-12.0372
▁심어	-12.0373
▁죽인	-12.0374
▁오존	-12.0377
▁크리스티아	-12.0379
티드	-12.0382
스코트	-12.0382
18	-12.0385
결혼	-12.0385
▁서점	-12.0386
▁돌아보	-12.0387
▁제네	-12.0394
▁버거	-12.0399
▁145	-12.0401
발생	-12.0403
ar	-12.0406
▁유카	-12.0408
▁국유	-12.041
웠던	-12.0411
닉스	-12.0411
▁ma	-12.0411
에어	-12.0412
▁셰르	-12.0419
승부	-12.0423
▁로키	-12.0426
ra	-12.0438
▁아니기	-12.0442
저기	-12.0453
▁여간	-12.0456
om	-12.0457
▁바치	-12.0462
▁이야	-12.0463
▁놓쳤	-12.0464
드라	-12.0465
▁자였다	-12.0465
▁맷	-12.0468
▁샴	-12.0468
▁없다면	-12.0468
▁wt	-12.047
타카	-12.0474
▁바라보	-12.0478
▁살아가는	-12.0481
▁되겠	-12.0485
자루	-12.0486
▁나쁘	-12.049
▁에볼	-12.0495
어지는	-12.0512
cy	-12.0523
▁펼쳐지	-12.053
▁산토	-12.0532
▁해주기	-12.054
폭발	-12.0541
줘야	-12.0543
▁우승했	-12.0544
▁하든	-12.0545
▁고기	-12.0547
프라	-12.0547
놀이	-12.0555
모델	-12.0557
영국	-12.0567
라이프	-12.0569
▁만나고	-12.057
▁사격	-12.0572
이거	-12.0576
▁엽	-12.0582
▁므	-12.0586
조금	-12.0587
▁호기	-12.0592
rna	-12.0592
꽃	-12.0594
ato	-12.0594
▁z	-12.0596
▁적응	-12.0596
90	-12.0599
▁수학	-12.0599
▁지에	-12.0607
000	-12.0609
▁하려다	-12.0613
▁뽑는	-12.0614
▁바랬	-12.0614
어졌다	-12.062
▁폰테	-12.0627
사자	-12.063
▁유니버	-12.063
▁명명	-12.0632
saf	-12.0633
이커	-12.0637
▁상류	-12.0638
턱	-12.064
▁mon	-12.0641
▁있음	-12.0641
▁fil	-12.0644
▁해질	-12.0653
래프	-12.0653
세워	-12.0656
▁잦	-12.0657
▁생겼	-12.066
▁구의	-12.0661
▁해치	-12.0663
▁세우는	-12.0663
book	-12.0665
▁부적절	-12.0666
핸드	-12.0666
▁당연	-12.0668
브스	-12.0668
▁톡	-12.0683
ama	-12.0684
트로이	-12.0684
▁올라가는	-12.0685
타이거	-12.0687
춤	-12.0695
▁135	-12.0703
▁울리	-12.0709
▁113	-12.071
알라	-12.0711
밸	-12.0711
▁시립	-12.0711
속도	-12.0716
듬	-12.0721
▁흑색	-12.0727
▁들어서	-12.0729
되는	-12.073
▁넘어서	-12.0733
▁테르	-12.0735
▁잊어	-12.0743
찌	-12.0748
▁학부	-12.0751
▁감원	-12.0751
잎	-12.0751
▁부총	-12.0757
보도	-12.076
푼	-12.0767
▁불렀	-12.0769
당하게	-12.0772
딱	-12.0779
의장	-12.0784
캣	-12.079
쿤	-12.079
▁생겨	-12.0791
▁움직이	-12.0792
미터	-12.08
▁사정	-12.08
키아	-12.0802
라데	-12.0803
▁집어	-12.0808
메네	-12.0809
▁벌리	-12.0812
▁dis	-12.0815
퉁	-12.0816
ww	-12.0831
▁주어	-12.0832
▁던졌	-12.0833
▁뮬	-12.0836
▁헝	-12.0837
▁닌	-12.0843
▁휴스	-12.0852
▁앵글	-12.0852
▁항셍	-12.0853
▁싸워	-12.0853
fta	-12.0854
24	-12.0854
▁교훈	-12.0854
▁웨딩	-12.0855
▁슈웨	-12.0855
▁발끈	-12.0856
▁흘렀	-12.0856
▁겨누	-12.0856
▁끼친	-12.0857
▁컨퍼	-12.0858
▁둘라	-12.0858
▁단기	-12.0858
▁버킹엄	-12.086
▁오두막	-12.086
▁찾으려	-12.086
▁겁니다	-12.086
▁sky	-12.086
oj	-12.0861
▁럭비	-12.0862
▁체육	-12.0862
▁프렌치	-12.0863
▁mv	-12.0864
웃	-12.0864
▁크메르루	-12.0865
▁옥스포드	-12.0865
▁독립선언	-12.0867
▁earth	-12.0868
▁메트로폴리	-12.0868
▁콘테	-12.0869
▁학술	-12.087
▁school	-12.087
▁사우스다코타	-12.087
▁자랑스러워	-12.0871
▁오리건주	-12.0871
se	-12.0871
▁russia	-12.0871
▁목욕	-12.0873
▁황열	-12.0874
블리	-12.0874
▁난투	-12.0874
▁아델	-12.0877
▁메릴랜드주	-12.0881
▁무용	-12.0885
▁god	-12.0885
▁맥킨	-12.0887
▁벌어질	-12.0888
뇌	-12.0891
▁만족할	-12.0892
14	-12.0897
▁벤치	-12.0897
▁비겁	-12.0897
▁저지르	-12.0899
▁777	-12.09
▁카렌	-12.09
스카	-12.0902
▁따냈다	-12.0903
▁끼치지	-12.0904
로프	-12.0904
▁다가왔다	-12.0905
뒤	-12.0906
▁올라있다	-12.0916
크스	-12.0917
▁닫고	-12.0919
▁지나면	-12.0923
벤투	-12.0923
aris	-12.0929
▁겪은	-12.0932
▁돌연	-12.0934
▁안정화	-12.0937
▁거칠	-12.0938
▁타노	-12.0939
▁손목	-12.0944
▁미끄러지	-12.0945
▁머물렀다	-12.0948
▁바랐다	-12.0951
르크	-12.0954
▁뛰었다	-12.0956
레가스	-12.096
▁1100	-12.0961
▁블러	-12.0962
▁따돌	-12.0965
▁트리스	-12.0967
▁맞추기	-12.0968
▁medic	-12.097
45	-12.0971
▁붙었다	-12.0972
▁펴	-12.0977
▁440	-12.0977
▁훌리	-12.0979
▁안드로	-12.098
▁밝혀내지	-12.0983
▁pro	-12.0984
이사	-12.0987
▁생계	-12.0987
▁패러	-12.0989
▁따뜻하	-12.0991
▁라티	-12.0994
▁맞서기	-12.0994
▁모국	-12.0994
다닐	-12.0997
▁얻으면	-12.0999
젤리	-12.1
테이	-12.1009
▁클립	-12.101
▁애니	-12.1011
▁하느냐	-12.1013
▁아미	-12.1017
▁플랜	-12.1018
▁650	-12.1019
ts	-12.1021
▁무언	-12.1027
▁혼잡	-12.1027
기자	-12.1027
▁계란	-12.1029
▁지켜보고	-12.1031
▁280	-12.1032
▁에델	-12.1033
▁star	-12.1036
리안	-12.1042
▁싫	-12.1043
리카	-12.1046
▁경합	-12.1047
지우	-12.1049
행동	-12.1054
▁스프레	-12.1063
▁fo	-12.1067
▁겸손	-12.1076
▁오클	-12.1079
ri	-12.1079
▁강화하기	-12.1097
▁팔레	-12.1098
▁경상	-12.1107
▁미네	-12.111
▁야영	-12.1114
▁아지	-12.112
▁106	-12.1123
▁아서	-12.113
드미	-12.1135
▁watch	-12.1139
스타일	-12.114
▁그만두	-12.114
95	-12.1141
네르	-12.1143
▁로젠	-12.1147
캘리포니아	-12.115
▁참을	-12.115
한다면	-12.115
▁멜로	-12.1152
▁앉아있	-12.1152
▁네비	-12.1154
슬레	-12.1154
탐사	-12.1163
▁레미	-12.1164
▁자유로	-12.1164
ning	-12.1166
▁공직	-12.1167
▁신성	-12.1167
었는지	-12.1168
▁돌아섰	-12.1175
▁낮추	-12.118
▁숨져	-12.1184
▁장의	-12.119
▁일련	-12.1195
▁라리	-12.1196
▁갈수	-12.1197
▁밝히는	-12.1197
전자	-12.1197
내기	-12.12
하계	-12.1213
▁에이전	-12.1214
▁셋	-12.1214
reven	-12.1218
▁정확하	-12.1227
비오	-12.123
▁강화해	-12.1233
▁와트	-12.1234
▁대담	-12.1234
▁싸이	-12.1238
▁엠마	-12.124
성이	-12.1242
▁놓을	-12.1243
el	-12.1246
타디	-12.1246
도널	-12.1246
트라	-12.1247
▁묶여있	-12.1249
▁두었다	-12.126
▁정해진	-12.1262
▁ase	-12.1263
▁기대했	-12.1265
64	-12.1265
▁시가	-12.1275
▁신중하	-12.1283
▁우수	-12.1284
▁신년	-12.1285
▁몰락	-12.129
▁카다	-12.1294
팩	-12.1297
▁부적	-12.1297
▁스쿠	-12.13
▁넌	-12.1304
세이	-12.1309
▁잘라	-12.1322
82	-12.1325
어주지	-12.1326
▁가혹	-12.1326
▁흔들었	-12.1336
▁이루는	-12.1338
대국	-12.1342
하도록	-12.1344
▁죽고	-12.135
▁op	-12.1351
▁감수	-12.1355
▁부드러	-12.1362
▁듀프	-12.1364
▁디지	-12.1364
▁만지	-12.1373
▁강렬	-12.1376
▁수산	-12.1379
▁걸렸	-12.1382
나가	-12.1382
얄	-12.1383
▁성도	-12.1389
xa	-12.1392
▁잠자	-12.1393
중해	-12.1393
▁보여주지	-12.1402
▁ev	-12.1404
▁베레	-12.1404
▁괜찮다	-12.1413
▁코레	-12.1416
fid	-12.1416
과이	-12.1417
▁하는가	-12.1419
▁하냐	-12.1446
워스	-12.1454
▁들어왔	-12.1456
▁잡혀	-12.1469
▁태어났	-12.1469
▁ii	-12.1482
▁받았으	-12.1485
▁펀	-12.1491
회생	-12.1496
유권	-12.15
▁we	-12.1523
▁나타낸	-12.1529
▁헤리	-12.1529
대기	-12.1542
▁키르	-12.155
▁적혀있	-12.1551
▁bei	-12.1554
보드	-12.1555
두리	-12.1568
▁혼인	-12.1572
▁사직	-12.1573
ifor	-12.1574
이먼	-12.1577
▁다뤄	-12.158
▁스태	-12.1583
에트	-12.1586
▁입히	-12.1591
▁리베	-12.1592
▁프로세	-12.1593
▁무너졌	-12.1593
▁라마	-12.1594
▁건전	-12.16
▁히로	-12.161
슴	-12.1611
▁수호	-12.1614
레저	-12.1614
▁sar	-12.1627
▁비춰	-12.163
나갈	-12.1633
▁소금	-12.1634
▁찾아온	-12.164
▁cas	-12.1651
▁나도	-12.1651
▁킬로	-12.1652
21	-12.1656
▁무단	-12.1673
페이	-12.1677
▁칼로	-12.1678
▁필요했다	-12.1679
폭스	-12.1684
▁파는	-12.1687
분할	-12.169
ine	-12.1692
▁도망	-12.1696
▁돌아간	-12.1706
▁있겠	-12.1714
르고	-12.1717
러진	-12.1721
▁이목	-12.1722
91	-12.1722
▁에탄	-12.1723
▁얇	-12.1723
▁날아	-12.1724
돌렸다	-12.1725
스토	-12.1728
▁키우는	-12.1735
낭	-12.1739
▁guil	-12.1741
▁꽂	-12.1743
▁담뱃	-12.1759
▁다뤘	-12.1762
▁붙어	-12.1763
▁적게	-12.1764
▁ex	-12.1765
▁체첸	-12.1767
▁천안문	-12.1767
▁실리콘	-12.1767
▁아이튠	-12.1768
▁높아져	-12.1768
▁컨트리	-12.177
▁고리	-12.177
▁페스티	-12.1771
▁피아	-12.1771
▁타이타닉	-12.1772
▁프랜시스	-12.1772
▁에두아르	-12.1772
▁트레이너	-12.1772
▁비벌리힐	-12.1772
▁캐피	-12.1773
▁니켈	-12.1774
▁기울여야	-12.1774
▁롤링스톤	-12.1775
▁네브라스카	-12.1775
▁dream	-12.1775
▁famil	-12.1775
▁손가	-12.1778
헨더	-12.1778
▁1967	-12.1779
▁도미니	-12.178
▁institut	-12.178
▁라이플	-12.178
▁australia	-12.1781
▁휘두르	-12.1782
▁management	-12.1782
▁세븐	-12.1782
▁않습니다	-12.1782
▁감사한다	-12.1785
▁director	-12.1789
▁꺾었다	-12.179
▁마니	-12.179
▁늘었다	-12.1791
▁놀란	-12.1792
▁환경운동	-12.1792
▁달아나	-12.1792
▁페르시아	-12.1792
▁깨진	-12.1793
▁메모리	-12.1793
▁울려퍼지	-12.1795
▁붙였다	-12.1797
▁캄포	-12.1798
▁올라와	-12.1798
▁배신	-12.1805
▁팍	-12.1806
▁쿼	-12.1807
없는	-12.1807
▁다이아	-12.1809
▁요한	-12.181
브라	-12.1813
롤리	-12.1813
▁통일부	-12.1813
▁슬프다	-12.1813
▁불러일으켰다	-12.1813
무소	-12.1816
▁자질	-12.1818
▁아이슬	-12.1819
▁gre	-12.1821
▁이맘	-12.1826
▁스턴트	-12.1829
▁크릴	-12.1829
디에	-12.1832
▁193	-12.1839
▁소용없	-12.1844
▁원시	-12.1845
▁내놓았	-12.1848
고리	-12.1851
▁해낼	-12.1852
▁플레인	-12.1855
▁정확하지	-12.1855
랫	-12.186
▁헤비	-12.1861
하자	-12.1862
▁다람	-12.1863
▁108	-12.1864
프랑스	-12.1867
수르	-12.1873
부시	-12.1876
킬레	-12.1878
▁즐기기	-12.1885
라나	-12.1889
80	-12.1889
기념	-12.1895
▁평론	-12.1899
06	-12.1902
텍	-12.1902
▁카바	-12.1903
▁스콜라	-12.1904
▁신드	-12.1905
ure	-12.191
▁평상	-12.1911
▁위험할	-12.1912
▁놓였다	-12.1912
▁맞붙	-12.1917
▁도날	-12.1922
▁거북	-12.1924
커니	-12.1926
▁특유	-12.1926
고민	-12.1928
▁숨어있	-12.1935
▁아사	-12.1935
▁자비	-12.1936
▁알폰	-12.1941
머신	-12.1943
상회	-12.1947
▁두르	-12.1954
tic	-12.1959
신문	-12.1962
▁스포	-12.1963
▁마츠	-12.1964
▁260	-12.1977
놓	-12.198
▁특정한	-12.1984
▁붙어있	-12.1984
▁007	-12.1991
▁맘	-12.1992
바코	-12.1995
▁쓰여	-12.1998
놓겠다	-12.2007
서면	-12.2011
내는	-12.2013
▁460	-12.2018
▁그려	-12.2024
▁찾는다	-12.2027
▁닛	-12.2027
▁쳐지	-12.2031
▁165	-12.2037
▁바람직하다	-12.2041
용기	-12.2046
▁생식	-12.2047
▁480	-12.2053
놓는다	-12.2053
모티	-12.2055
남자	-12.2056
65	-12.2059
▁폴로	-12.2063
▁공정하	-12.2067
▁해독	-12.2069
▁저질렀	-12.2071
▁girls	-12.2073
▁벗기	-12.2073
▁충분하다	-12.2076
▁이즈	-12.2079
라테스	-12.2082
나이	-12.2084
▁렌트	-12.2084
tsb	-12.2094
▁틀린	-12.2096
▁나탈	-12.2107
▁고아	-12.2109
더비	-12.2111
▁뭐	-12.2115
▁나오기	-12.2126
▁둥	-12.2128
▁레코	-12.2132
ars	-12.2136
▁싸우는	-12.2142
자금	-12.2143
▁안타	-12.2147
▁로케	-12.2148
200	-12.2151
통해	-12.2161
▁립	-12.2165
▁미끄러	-12.2165
냈다	-12.2171
me	-12.2174
▁아루	-12.2175
▁mos	-12.2178
▁나쁘지	-12.218
특	-12.218
ease	-12.2181
▁적법	-12.2184
대변	-12.2186
▁오르기	-12.219
▁ml	-12.2193
▁낮아	-12.2193
▁웨일	-12.2201
▁111	-12.2205
▁바쿠	-12.2206
드라마	-12.2209
달려	-12.221
지대	-12.2212
▁교과	-12.2213
짓	-12.2215
▁증후	-12.222
▁예고	-12.2224
같은	-12.2232
립스	-12.2237
네바	-12.2238
▁부주의	-12.224
들이	-12.225
dp	-12.2254
▁바레	-12.2256
▁짓기	-12.2259
▁받아들이는	-12.2264
▁관세	-12.2272
캠	-12.2283
레예	-12.2285
▁kl	-12.2287
ement	-12.2295
mi	-12.2296
▁예일	-12.2301
▁친근	-12.2302
▁hav	-12.2308
ge	-12.2308
▁비참	-12.2313
▁마법	-12.2314
▁분비	-12.2314
받고	-12.232
▁정당한	-12.2323
미리	-12.2327
주장	-12.2328
▁오크	-12.2331
▁미들	-12.2338
스스	-12.234
▁성교	-12.234
▁이면	-12.2341
nsa	-12.2345
라이	-12.2348
▁벗겨	-12.2364
디아	-12.2364
▁늘리는	-12.2367
싸고	-12.2367
크림	-12.2367
▁ge	-12.2375
적십자	-12.2378
▁cc	-12.2381
▁간격	-12.2382
▁카발	-12.2383
▁무척	-12.2391
랜스	-12.2394
프레이	-12.2395
뉴스	-12.2397
▁정해	-12.2406
▁베트남전	-12.2411
▁통지	-12.2411
▁떨어뜨	-12.2412
▁위트	-12.2417
▁inc	-12.2419
▁내려갔	-12.2423
▁멋지	-12.2436
▁클라우디	-12.2437
중독	-12.2437
▁차입	-12.2443
▁114	-12.2445
▁net	-12.2449
어가	-12.2449
▁인신	-12.2459
▁방탄	-12.2462
버셜	-12.2463
▁쾌	-12.2465
▁191	-12.247
▁bd	-12.2471
▁spa	-12.2472
스프링스	-12.2474
▁헤치	-12.2479
▁사실이라	-12.248
▁아가	-12.2486
te	-12.2492
ren	-12.2495
ary	-12.2499
침식	-12.2501
▁솔직하	-12.2504
있	-12.2508
▁mr	-12.2509
▁도청	-12.2514
▁바람직	-12.2517
▁cal	-12.2519
관리	-12.2528
est	-12.2528
▁성장하는	-12.254
▁역사학	-12.2543
▁되었을	-12.2543
리게	-12.2548
go	-12.2552
라피	-12.2556
▁들어있	-12.2557
▁리바	-12.256
gle	-12.2563
조직	-12.2564
밀라	-12.2571
친스	-12.2577
▁있든	-12.2578
주었다	-12.259
▁모티	-12.2594
▁휩싸	-12.2599
▁성공하지	-12.2599
▁위험하지	-12.2606
▁조야	-12.2609
▁케이프	-12.2613
▁예식	-12.2613
lc	-12.2614
레오	-12.2615
▁다르지	-12.2616
▁up	-12.2619
▁화했다	-12.262
르모	-12.2625
▁나눈	-12.2625
▁스칼	-12.2629
▁상급	-12.2631
▁유능	-12.266
▁몰려들었	-12.266
▁무례	-12.2663
릇	-12.2667
델타	-12.2669
기사	-12.2669
퀸	-12.2669
man	-12.2672
▁잠겨	-12.2673
봇	-12.2674
▁처녀	-12.268
▁스캐	-12.268
▁가라앉	-12.2681
헤드	-12.2681
식물	-12.2684
▁여장	-12.2686
댄	-12.27
▁할수	-12.2704
▁소변	-12.2715
▁리모	-12.2715
변기	-12.2716
앙카	-12.2721
▁로베르	-12.2722
harry	-12.2725
very	-12.2726
▁메스	-12.2726
스웨스트	-12.2727
▁뻔	-12.273
쿠버	-12.2731
을까	-12.2733
aids	-12.2737
터스	-12.274
▁닮	-12.2741
▁드러냈	-12.2744
▁벵	-12.2747
▁있은	-12.2748
탈레	-12.2749
▁탬파	-12.2757
▁입었으	-12.2757
▁팽창	-12.2757
큐리	-12.2758
▁눌러	-12.2758
▁허벅	-12.2758
▁꾸민	-12.2759
▁아틀레	-12.2761
▁낚시	-12.2763
▁저기	-12.2763
▁수줍어	-12.2764
▁몬태나	-12.2764
▁니가타	-12.2765
▁나타낼	-12.2765
▁goo	-12.2765
85	-12.2765
▁투모로	-12.2766
저널	-12.2767
▁트레킹	-12.2767
▁헤딩	-12.2767
▁준우승	-12.2767
▁곡예	-12.2768
▁파딜라	-12.2769
▁food	-12.2769
▁까다로운	-12.2769
▁딱	-12.2769
▁meet	-12.277
▁붐비	-12.277
▁되돌려	-12.2771
▁흔들림	-12.2771
dy	-12.2772
▁아인슈타인	-12.2772
▁child	-12.2772
▁hotel	-12.2772
▁특허	-12.2773
▁travel	-12.2774
▁포브스	-12.2776
▁두꺼	-12.2776
▁8600	-12.2777
▁우익	-12.2777
▁바뀌었다	-12.2778
▁어울리는	-12.2779
▁foundation	-12.278
▁틀림없다	-12.278
▁administration	-12.2782
▁챙	-12.2783
▁되었습니다	-12.2784
▁대배심	-12.2784
▁1972	-12.2785
▁쿠르	-12.2786
▁잠복	-12.2786
▁내려앉았다	-12.2788
▁털어	-12.2788
▁베르나르	-12.2788
▁관대했다	-12.2791
▁보육	-12.2792
▁1900	-12.2792
▁ne	-12.2793
▁뱃	-12.2793
▁룩소	-12.2794
▁있었습니다	-12.2795
▁몬트리	-12.2798
▁불가사	-12.2798
▁데스크	-12.2799
▁카시	-12.2799
▁막내	-12.28
▁애너	-12.2801
▁렉시	-12.2802
▁비싸	-12.2802
▁떠올리	-12.2803
보면	-12.2804
▁만나지	-12.2806
▁휩쓸려	-12.2807
▁엄중	-12.2809
▁왔습니다	-12.281
치니치	-12.2813
▁달랐다	-12.2814
▁없어질	-12.2814
▁잇따르	-12.2817
▁드라	-12.2817
▁간염	-12.2817
섬유	-12.2822
▁당할	-12.2824
수도	-12.2828
▁선수였	-12.2836
▁비무장	-12.2836
▁쉬프	-12.2836
▁두려워하지	-12.2837
▁가깝다	-12.2837
중생	-12.2847
▁직립	-12.2849
린저	-12.285
쥬	-12.2854
▁오가	-12.2854
▁울음	-12.2856
63	-12.2862
▁돼있었다	-12.2863
▁del	-12.2864
▁돌발	-12.2867
▁웃기	-12.2867
▁거세지	-12.2869
▁으	-12.287
▁스톱	-12.2871
▁힌클	-12.2873
▁가리키	-12.2875
▁org	-12.2875
▁담아	-12.2876
꼬	-12.2877
▁오지	-12.288
▁change	-12.2883
▁디디	-12.2885
계획	-12.2887
청소	-12.2887
▁치러졌다	-12.289
▁조이스	-12.289
▁믿어지	-12.2891
▁122	-12.2892
▁읽는	-12.2894
▁니키	-12.2897
공업	-12.2901
▁올라간다	-12.2902
리메	-12.2908
▁제대	-12.2908
루미	-12.291
▁글레	-12.2912
able	-12.2914
▁채우	-12.2914
▁성전환	-12.2927
▁최적	-12.2928
의학	-12.2929
▁미세	-12.293
▁420	-12.2937
▁아프다	-12.2938
▁알제	-12.2938
▁west	-12.2939
▁버디	-12.2944
구동	-12.2944
줬다	-12.2951
멜	-12.2955
▁릴리	-12.2959
치와	-12.296
▁선풍	-12.2961
돼	-12.2964
▁하르	-12.2968
경제	-12.2969
▁성기	-12.2971
▁넘어갔다	-12.2971
▁루치아	-12.2977
▁지어진	-12.2983
▁탄자	-12.2985
▁기르기	-12.2987
▁san	-12.2989
▁주름	-12.2992
▁로우	-12.3002
▁뉘	-12.3006
▁샌더	-12.301
▁car	-12.3012
티노	-12.3012
발전	-12.3013
기에	-12.3014
▁사귀	-12.3014
▁넘어가	-12.3014
▁이어져	-12.3015
▁마코	-12.3018
▁서두르	-12.302
▁치즈	-12.3021
22	-12.3021
▁메탄	-12.3027
나스	-12.3034
▁태웠다	-12.3041
▁합성	-12.3047
▁타니	-12.3051
▁상하	-12.3054
▁브렌	-12.3062
▁식용	-12.3062
▁신세	-12.3064
▁자이	-12.3078
성기	-12.3078
▁스테파	-12.3083
17	-12.3086
▁꼽히	-12.3088
▁건네	-12.309
오카	-12.3091
▁방코	-12.3094
▁두려워하	-12.3096
▁한밤	-12.3097
▁찾아가	-12.3099
▁졌다	-12.3102
▁중추	-12.3105
시오	-12.3105
▁마그	-12.3106
기술	-12.3109
▁뒤지	-12.3116
▁도너	-12.3119
▁움직여	-12.3125
▁지나갔다	-12.3125
▁94	-12.3128
▁말려	-12.3129
▁춘	-12.3131
스버	-12.3134
▁사나	-12.3135
▁톨	-12.3146
▁cp	-12.3162
행사	-12.3176
▁코로	-12.3187
▁미키	-12.3198
지혈	-12.3207
▁기르	-12.3209
15	-12.3212
슈투	-12.3228
▁팔기	-12.3229
황산	-12.3229
▁길거	-12.323
▁후난	-12.3231
▁더글	-12.3242
▁질주	-12.3246
▁넘치	-12.3249
▁호모	-12.325
▁스러웠다	-12.3251
제프	-12.3255
▁줘	-12.3271
▁동일	-12.3271
▁리베리	-12.3272
▁러시	-12.3276
▁등산	-12.3277
▁롤라	-12.3279
▁모나	-12.3282
▁무서	-12.3288
▁오를	-12.3289
ms	-12.3289
▁천억	-12.3293
▁하노	-12.3298
콩	-12.33
▁덤	-12.3303
▁용감	-12.3304
소장	-12.3305
▁그린랜	-12.3306
▁터뜨	-12.3309
데라	-12.331
홈	-12.331
▁성행	-12.3311
▁킨	-12.3316
폭풍	-12.3319
▁선사	-12.3325
▁마셨다	-12.3329
겠지	-12.3329
▁마테	-12.3333
ss	-12.3334
▁부각	-12.3335
▁곤란	-12.3335
400	-12.3335
었을	-12.3336
▁많았	-12.3336
▁정보기	-12.3339
▁닫	-12.3351
▁지나는	-12.3358
▁섹시하	-12.3358
78	-12.3361
▁생긴다	-12.3362
▁퇴근	-12.3368
42	-12.3376
▁off	-12.3376
▁넥	-12.3379
▁소아	-12.3382
▁중거리	-12.3394
도저	-12.3403
자민	-12.3406
ition	-12.3406
▁pe	-12.341
손가	-12.3412
▁쿨	-12.3424
하우	-12.3424
밴	-12.3426
▁몰라	-12.343
▁파스	-12.3432
청장	-12.3437
▁모로	-12.3447
▁찾아내는	-12.3457
▁죽는	-12.3461
co	-12.347
보이	-12.3477
▁루아	-12.3481
티니	-12.3486
▁조세	-12.3488
▁돌아갔	-12.3489
▁kiss	-12.3492
화산	-12.3493
▁가져	-12.3496
런드	-12.3498
▁외과	-12.3499
▁사소	-12.3501
54	-12.3503
▁고통스러	-12.351
▁쓰일	-12.351
아폴	-12.351
▁안도	-12.3523
▁적당	-12.3523
▁da	-12.3524
▁앓았	-12.3549
▁느낀	-12.3552
▁can	-12.3553
농	-12.3557
▁적절하	-12.3558
▁넉	-12.3566
▁gold	-12.3568
로그	-12.3569
▁승소	-12.3571
▁대단하	-12.3574
는가	-12.3588
▁경미	-12.3589
▁pri	-12.3591
▁유조	-12.3592
▁지안	-12.3595
▁있는가	-12.3606
pd	-12.3609
▁안치	-12.361
워졌다	-12.3617
부상	-12.362
ur	-12.3622
라운	-12.3623
▁나감	-12.3625
미사일	-12.3626
닷	-12.363
▁드리아	-12.3641
▁성형	-12.3641
ast	-12.3647
▁스나	-12.3648
▁장편	-12.3648
▁보편	-12.3664
▁대공	-12.3666
로버	-12.367
▁무작	-12.3676
▁옳	-12.3677
▁세네	-12.3685
장인	-12.3689
▁될것이	-12.3696
▁가기	-12.3702
fld	-12.3704
▁다양하	-12.3705
▁할인	-12.3705
▁185	-12.3706
▁살고있	-12.3711
▁다녔	-12.3712
긍	-12.3712
gue	-12.3713
49	-12.3722
▁소중	-12.3723
▁꾸며	-12.3727
▁흥분하	-12.3732
▁팔로	-12.3737
▁파인	-12.3742
▁사치	-12.3752
▁177	-12.3753
ap	-12.3754
훼	-12.3757
▁놓았	-12.3761
비니	-12.3768
▁마쳤	-12.3769
▁보여줬	-12.3772
▁복잡하	-12.3774
▁분자	-12.379
▁담겨있	-12.3795
▁바누	-12.3795
▁넘버	-12.3796
▁베풀	-12.3799
▁136	-12.3799
▁tr	-12.3799
▁orc	-12.38
▁vi	-12.3804
▁아리	-12.3807
▁출근	-12.3811
발표	-12.3812
않았다	-12.3812
위치	-12.3815
ital	-12.3817
▁넣었	-12.3818
▁몰렸	-12.382
peo	-12.3821
다림	-12.3829
지에	-12.3829
란다	-12.3836
▁스노우	-12.3847
light	-12.3853
organ	-12.3854
▁핸	-12.3854
▁하는것	-12.3856
▁낮춰	-12.3865
라비	-12.3865
▁플랫	-12.3866
▁자욱	-12.3866
▁불쌍	-12.3867
▁깊숙	-12.3867
▁돋구	-12.387
▁셀틱	-12.3871
▁유방암	-12.3872
▁스페셜	-12.3872
▁크렘린	-12.3872
▁옷차림	-12.3873
▁다빈치	-12.3873
▁허덕이	-12.3873
▁컨설팅	-12.3873
▁막으려	-12.3873
▁lpg	-12.3873
▁intel	-12.3873
▁휩싸여	-12.3874
▁신흥	-12.3874
▁쿼터	-12.3875
▁기다릴	-12.3875
▁돕겠다	-12.3875
▁boe	-12.3876
▁납북	-12.3876
▁스크래	-12.3877
▁밀랍	-12.3877
▁아리조나	-12.3877
▁제자	-12.3877
▁어리석	-12.3877
▁아보카도	-12.3877
▁쿠알라룸	-12.3877
▁보르네오	-12.3877
▁지켜볼	-12.3877
▁털어놨다	-12.3877
▁운전면허	-12.3877
▁일부다처	-12.3877
▁복음주의	-12.3878
▁fire	-12.3878
▁free	-12.3879
▁흥미롭	-12.3879
▁알아냈다	-12.3879
▁얻었는지	-12.388
▁컬럼	-12.388
▁royal	-12.388
▁원자력발전	-12.3881
과학기술	-12.3881
▁사와야	-12.3881
▁1952	-12.3882
▁호놀	-12.3882
▁system	-12.3882
▁animal	-12.3882
▁하멜	-12.3884
▁트롬	-12.3884
▁레스	-12.3884
▁church	-12.3885
▁디킨	-12.3886
▁파블로	-12.3887
▁치솟았다	-12.3887
▁보내겠다	-12.3887
▁쓸모없	-12.3888
▁알아보기	-12.3889
▁시달리	-12.389
▁터뜨렸다	-12.389
▁브릿지	-12.3891
▁intelligen	-12.3893
▁깔린	-12.3894
▁뚫어	-12.3896
▁2900	-12.3896
▁도망치	-12.39
▁굴러	-12.39
▁회복하기	-12.3902
▁스켈	-12.3903
▁2014	-12.3904
▁명확하지	-12.3904
▁머무르	-12.3905
▁2800	-12.3906
▁페더라	-12.3908
▁쓰러지	-12.3908
▁재학	-12.3908
▁제다이	-12.3909
▁스웨	-12.3911
▁고생물학	-12.3911
▁들리는	-12.3911
▁인테르	-12.3912
▁진귀	-12.3913
▁팔리고	-12.3916
▁들어주	-12.3917
깨	-12.3918
쳐야	-12.3919
트랙	-12.3922
▁허탈	-12.3922
▁열광	-12.3922
▁심각해지	-12.3923
▁뽑을	-12.3924
work	-12.3928
▁리누	-12.3928
▁ru	-12.3931
▁옥스	-12.3933
▁떨어뜨리	-12.3935
아웃	-12.3935
▁키에	-12.3937
▁낳는다	-12.394
▁바클레이	-12.394
1948	-12.3941
▁낳게	-12.3941
▁샤러	-12.3942
▁집어넣	-12.3943
▁배웠다	-12.3949
▁커진다	-12.395
▁당연하다	-12.3952
ate	-12.3955
▁angel	-12.3955
▁470	-12.3956
지니	-12.3956
▁세척	-12.3961
내려	-12.3963
ro	-12.3964
▁기대하지	-12.3965
▁아님	-12.3966
다스	-12.397
▁모으는	-12.397
▁보자	-12.3974
▁173	-12.3974
▁성장할	-12.3976
▁잠겼다	-12.3977
▁je	-12.3982
▁벌었다	-12.3984
▁총력	-12.3988
링스	-12.3992
▁버섯	-12.3994
▁코마	-12.4
▁읽고	-12.4
우주	-12.4002
▁potter	-12.4002
▁award	-12.4002
▁둘러보	-12.4003
▁290	-12.4005
▁화살	-12.4008
▁불리우	-12.4009
▁헬스	-12.401
윗	-12.401
100	-12.4011
칩	-12.4014
레스트	-12.4014
68	-12.4023
▁행해지	-12.4025
굿	-12.4025
▁소멸	-12.4027
캐년	-12.4031
▁part	-12.4031
▁움직였다	-12.4032
▁신인	-12.4032
▁사로잡	-12.4034
세요	-12.4034
▁즐겼다	-12.4035
헴	-12.4036
▁돌아왔	-12.4036
겹	-12.4042
슈아	-12.4042
메시	-12.4044
받아	-12.4045
▁105	-12.4051
▁슬램	-12.4051
▁단단	-12.4054
▁투견	-12.4056
▁주제가	-12.4058
▁샤우	-12.4058
이란	-12.4058
▁펼치는	-12.4059
▁바꾸고	-12.4061
애폴	-12.4064
▁film	-12.4065
그만	-12.4066
▁니코	-12.4066
▁달래	-12.4067
툰	-12.4068
▁백작	-12.4071
▁싼	-12.4072
▁드래	-12.4074
플린	-12.408
▁보내야	-12.408
▁섰다	-12.4086
▁잡는	-12.4092
▁팽	-12.4093
▁소울	-12.4093
▁넣는	-12.4095
잠	-12.4099
▁브란	-12.4099
▁청동	-12.4104
▁공예	-12.4111
▁카롤	-12.4112
첨가	-12.4112
▁슈머	-12.4113
넉	-12.4114
퐁	-12.4124
▁슈월	-12.4124
▁벨라	-12.4126
▁팔았다	-12.4127
▁끊어	-12.4127
케이프	-12.4135
▁오션	-12.4143
샨	-12.4144
▁침착하	-12.4148
▁850	-12.4155
조업	-12.4155
rim	-12.4159
봤다	-12.4164
▁kph	-12.4169
▁햇	-12.417
츄	-12.4171
맞	-12.4172
▁해리스	-12.4173
▁멕	-12.4173
▁산출	-12.4178
제한	-12.4183
스펜	-12.4183
▁비축	-12.4189
▁not	-12.4189
▁힘들었다	-12.4193
▁클라우	-12.4195
가운	-12.4196
▁마우	-12.4198
등판	-12.4198
슬라비	-12.4204
▁천체	-12.4206
▁없으	-12.421
▁덮여있	-12.4214
줄기	-12.4216
▁plan	-12.4217
▁만족하	-12.4228
▁india	-12.4238
되고	-12.4241
는다	-12.4243
▁빈부	-12.4246
▁없어지	-12.4246
▁장외	-12.4249
▁퍼뜨	-12.425
▁슬로바키아	-12.425
아들	-12.4254
▁선명	-12.4259
▁유익	-12.4276
▁서핑	-12.4278
▁쐈다	-12.4282
▁mi	-12.4282
▁트랜	-12.4287
치기	-12.4289
apa	-12.4292
▁끝난다	-12.4293
▁케인	-12.4297
하다는	-12.43
▁sola	-12.4311
▁거두고	-12.4311
▁넘겨주	-12.4313
레즈	-12.4313
▁난처	-12.4323
왈	-12.4324
▁과장	-12.4328
▁걸린다	-12.4332
▁줄어든다	-12.4337
예정	-12.4342
▁셰퍼	-12.4344
▁los	-12.4346
▁불필요	-12.4346
▁콕	-12.4347
▁또래	-12.4349
▁그쳤	-12.4352
▁때려	-12.4353
▁기동	-12.4353
ones	-12.4354
큰	-12.4359
체중	-12.436
▁기세	-12.4364
▁견인	-12.4364
▁신들	-12.4367
▁궐	-12.4374
jd	-12.4375
96	-12.4379
cw	-12.4387
▁플러	-12.4389
저하	-12.4389
▁페인	-12.4394
▁힘들어	-12.4396
▁감전	-12.4396
▁줄었	-12.44
▁이슬	-12.44
네프	-12.4401
▁틀어	-12.4402
효과	-12.441
out	-12.4412
티르	-12.4417
▁오노	-12.4418
▁ces	-12.4418
▁기생	-12.4426
▁자율	-12.443
▁올라섰	-12.4433
▁남겨놓	-12.444
net	-12.4441
사용	-12.4443
▁anc	-12.4445
▁마셨	-12.4449
▁islami	-12.4449
▁night	-12.4449
▁드루	-12.4451
▁가로서	-12.4452
▁스텐	-12.4455
▁흘	-12.4458
▁water	-12.4458
박스	-12.4459
같	-12.4466
우호	-12.4471
좋은	-12.4489
▁다비	-12.4491
▁당하	-12.4492
▁이적	-12.4496
ef	-12.45
민족	-12.4502
▁08	-12.4502
루스	-12.4504
lbar	-12.4508
▁토리	-12.4508
▁채식	-12.4509
▁토바	-12.451
이상	-12.4513
리뷰	-12.4516
▁지스	-12.4516
돌이	-12.4524
곧	-12.4524
▁일인	-12.4527
▁테라	-12.4533
▁늘어난	-12.4533
▁분명하지	-12.4538
▁바쁘	-12.4543
워키	-12.4545
▁묶여	-12.4546
생산	-12.455
▁전공	-12.4553
▁피카	-12.4562
▁od	-12.4564
▁바꾸는	-12.4564
▁디트	-12.4565
▁심해	-12.457
▁물린	-12.4574
진다	-12.4574
▁살아있	-12.4584
▁di	-12.4586
▁동화	-12.4592
▁스트리	-12.4592
che	-12.4601
앞	-12.4604
▁보이스	-12.4605
차량	-12.4609
▁주어지	-12.4612
▁치킨	-12.4615
▁쥐었	-12.4615
▁겔	-12.4617
▁밀스	-12.4617
심지	-12.4619
▁원더	-12.462
▁ice	-12.4621
▁전자기	-12.4629
▁줄어든	-12.4637
▁건강해	-12.4637
▁fre	-12.464
▁였을	-12.4643
▁왔으	-12.4649
▁04	-12.4653
▁옮기는	-12.4657
shing	-12.4659
▁내보냈	-12.4663
▁기저	-12.4675
보냈다	-12.4681
녀자	-12.469
화질	-12.469
▁썼	-12.4694
▁산트	-12.4703
▁트래	-12.4709
▁뷔	-12.4715
▁예의	-12.4717
▁느리	-12.472
son	-12.4729
uk	-12.4729
관련	-12.473
쉽게	-12.4734
교수	-12.4734
▁죽기	-12.4738
확인	-12.4746
▁들소	-12.4747
▁벌기	-12.4751
▁구석	-12.4757
▁미카	-12.476
치료	-12.4764
▁구명	-12.4777
파테	-12.478
ny	-12.4788
▁ol	-12.4789
시안	-12.4797
히드	-12.4804
am	-12.4811
▁벡	-12.4815
ern	-12.482
▁신속하	-12.4837
니네	-12.484
▁후속	-12.4841
▁후회	-12.4851
▁쓰러졌	-12.4851
▁세미	-12.4855
▁미미	-12.4858
▁서야	-12.4869
했는지	-12.4885
▁비웃	-12.4887
▁넷	-12.4895
▁필요하지	-12.4902
예루살	-12.4906
ical	-12.4912
덧붙였다	-12.4914
tf	-12.4917
▁막혔	-12.4926
된다	-12.4935
▁라미	-12.4938
주치	-12.4948
▁유서	-12.4953
▁친절	-12.4956
the	-12.4957
씩	-12.4958
보고	-12.4959
▁치열	-12.4962
▁rb	-12.4966
▁완벽하	-12.4978
▁꺼	-12.4978
렸	-12.4979
ite	-12.499
▁모르겠	-12.4995
▁빠뜨	-12.4998
▁심도	-12.5004
▁아레	-12.5004
▁가려	-12.5005
동영	-12.5008
뒀다	-12.501
▁엇	-12.5014
▁지브	-12.5014
▁맛있	-12.5015
▁상실	-12.5017
덩	-12.502
대포	-12.5023
▁기뻐하	-12.5028
보리	-12.5028
▁시라	-12.5032
▁달려있다	-12.504
mba	-12.5044
39	-12.5047
▁가르쳐	-12.5051
▁판매원	-12.5052
▁텍	-12.5057
사절	-12.5063
▁전해졌	-12.5065
랍	-12.5073
ubs	-12.5083
▁쓴다	-12.5085
카나	-12.5085
릅니다	-12.5088
랙스	-12.5092
▁뿌려	-12.5093
▁뜯	-12.5095
낸셜	-12.5096
nsc	-12.5096
▁현명	-12.5096
▁이렇다	-12.5096
시위	-12.5097
▁스틸	-12.5099
nsid	-12.5099
▁무성	-12.5102
▁바닷	-12.5103
▁민사	-12.5111
aha	-12.5113
▁거둬	-12.5113
▁민첩	-12.5113
▁템플	-12.5114
▁프놈	-12.5114
ba	-12.5115
ist	-12.5116
▁붙인	-12.5116
▁짓는	-12.5117
▁보궐	-12.5117
▁끝낸	-12.5118
▁옥외	-12.5118
▁광저우	-12.512
▁디야르	-12.512
▁가리킨	-12.512
따	-12.5121
▁일궈	-12.5122
▁매거진	-12.5122
▁쌓아	-12.5123
▁부딪혔다	-12.5123
▁시킴	-12.5124
비키	-12.5124
▁분홍	-12.5124
▁마약밀매	-12.5125
▁셰르파	-12.5125
▁주파수	-12.5125
▁take	-12.5125
▁통솔	-12.5126
▁아브하	-12.5126
▁곤혹	-12.5126
▁괴롭히	-12.5126
▁japan	-12.5126
nn	-12.5127
▁잡으려	-12.5127
▁미사일방어	-12.5127
▁1957	-12.5127
▁오리건	-12.5128
▁public	-12.5128
▁second	-12.5128
▁스쿠버	-12.5128
▁안전하지	-12.5129
▁빼앗아	-12.5129
▁나고야	-12.513
▁저널리	-12.513
▁twitter	-12.513
hanne	-12.513
▁좋아질	-12.5132
위대	-12.5132
▁스파이더	-12.5134
▁교묘	-12.5134
▁일어났는지	-12.5135
▁데려가	-12.5135
▁park	-12.5135
▁어려웠다	-12.5135
▁매드	-12.5135
ck	-12.5136
▁4700	-12.5137
▁천수이	-12.5138
▁어빙	-12.5139
▁신앙	-12.5139
▁알아내기	-12.514
▁돈독	-12.5141
▁곤란하다	-12.5141
▁부드럽	-12.5141
▁홀츠	-12.5143
▁슬럼	-12.5143
▁하모니	-12.5143
▁키워	-12.5144
▁앞당겨	-12.5145
▁독립운동	-12.5148
▁8500	-12.5148
▁1940	-12.515
▁각별	-12.515
▁보이스카	-12.515
▁힘써	-12.5151
▁7500	-12.5153
▁피곤	-12.5153
▁심플	-12.5153
▁얼린	-12.5154
▁vip	-12.5155
▁받아들였	-12.5155
▁디펜	-12.5156
▁요하	-12.5157
▁scr	-12.5157
sic	-12.5157
▁유명해	-12.5158
▁기븐	-12.5158
▁아이젠	-12.5158
▁flo	-12.5159
▁blue	-12.5159
▁쫓아내	-12.516
▁소모	-12.5161
스테이	-12.5162
▁6500	-12.5164
▁저술	-12.5164
▁esta	-12.5166
▁어딘	-12.5167
▁탈북	-12.5167
비한	-12.517
▁싸우고	-12.5176
▁미숙	-12.5176
▁뛰어들었다	-12.5179
▁2300	-12.5179
▁아웅	-12.5179
▁링크	-12.5179
▁간략	-12.5184
two	-12.5187
▁알았	-12.5187
▁포춘	-12.5188
▁작별	-12.519
함이	-12.519
▁미식	-12.5191
겐조	-12.5193
른다	-12.5195
▁맺었	-12.5198
▁뛰어들어	-12.5199
▁une	-12.5199
소포	-12.52
▁치른다	-12.5201
▁크라우	-12.5202
▁목축	-12.5204
▁그랜	-12.5204
▁공보	-12.5204
▁흘렸다	-12.5205
▁서늘	-12.5206
▁되찾아	-12.5208
▁구슬	-12.5208
▁간단하다	-12.5209
▁뿐이었다	-12.5209
멘티	-12.5209
정한	-12.5209
▁햄버	-12.521
▁뒤따라	-12.5212
▁터뜨리	-12.5212
▁무링	-12.5216
▁윌킨	-12.5219
▁병마	-12.5221
라렌	-12.5224
▁시나	-12.5226
▁히드라	-12.5229
하듯	-12.5233
▁먹으면	-12.5234
▁나빠지	-12.5235
▁275	-12.5236
▁그랑	-12.5242
▁나타내며	-12.5243
▁스탬	-12.525
▁127	-12.525
▁마운틴	-12.5251
▁별세	-12.5251
카니스	-12.5253
▁2100	-12.5255
▁비엔	-12.5256
▁떠올렸	-12.5257
▁just	-12.5257
치구	-12.5259
▁나르시	-12.5259
▁덧	-12.5259
▁싸우기	-12.5262
▁네이션	-12.5262
▁보았	-12.5262
▁나뉘어	-12.5263
▁묻히	-12.5265
▁녹는	-12.5266
▁낮췄	-12.5267
▁죠지	-12.5268
▁넘쳐	-12.5269
▁클락	-12.527
▁중화	-12.5273
▁윈터	-12.5277
▁유대교	-12.5285
▁멈추지	-12.5288
▁될수	-12.5289
진학	-12.5291
▁남았	-12.5294
▁부러지	-12.5295
▁빨라	-12.5296
▁박동	-12.5296
그다	-12.5297
자유	-12.5309
io	-12.5312
▁게스트	-12.5312
▁회의론	-12.5313
▁book	-12.5322
▁심어주	-12.5323
슛	-12.5323
소설	-12.5324
▁마거	-12.5324
▁기에	-12.5325
▁내세우	-12.5328
탱	-12.533
▁광물	-12.5337
▁액세	-12.5338
▁music	-12.5341
▁내줬	-12.5342
뷔	-12.5342
▁충분하	-12.5344
▁흥미로	-12.5344
▁깔	-12.5346
▁동사	-12.535
▁빼고	-12.5351
▁돌아온다	-12.5357
▁입혔다	-12.5361
랭크	-12.5364
▁평화롭	-12.5365
펀	-12.5366
▁camp	-12.5367
▁들입니다	-12.5367
▁방청	-12.5372
▁카루	-12.5374
▁흥분했다	-12.5378
인간	-12.5381
지면	-12.5382
line	-12.5383
틀랜	-12.5385
▁sad	-12.5394
▁일광	-12.5395
▁바뀌지	-12.5399
▁치르기	-12.54
ean	-12.5403
▁가득하	-12.5404
▁빠져있	-12.5405
페테르	-12.541
▁cl	-12.541
▁전보	-12.5411
▁선천	-12.5414
▁갈아	-12.542
▁발길	-12.5423
▁정해졌다	-12.5424
▁끼치는	-12.5425
▁af	-12.5431
해안	-12.5433
77	-12.5435
췄다	-12.5435
ner	-12.5437
box	-12.5439
▁포르	-12.5443
▁미치는지	-12.5445
▁주어진다	-12.5448
az	-12.5453
엽	-12.5453
▁쌓여	-12.5453
▁선보인다	-12.5457
▁킬리	-12.546
▁폐쇄하	-12.5462
▁카마	-12.5467
▁참수	-12.5469
소식	-12.5477
여성	-12.548
▁house	-12.5482
세르	-12.5489
▁임파	-12.5496
▁발코	-12.5499
▁불안해	-12.5504
학기	-12.5505
▁일러	-12.551
▁말레	-12.5512
▁en	-12.5516
▁이었는지	-12.5518
학대	-12.5526
▁ph	-12.5527
▁하기까지	-12.5529
스티	-12.5539
▁풍기	-12.554
▁잃는	-12.554
▁rai	-12.5541
ham	-12.5541
▁공과	-12.5542
▁540	-12.5544
▁생체	-12.5547
게임	-12.5547
▁모리스	-12.5551
▁기울였	-12.5556
키티	-12.5559
▁맞췄	-12.5559
▁natur	-12.556
▁들어가려	-12.5564
▁퍼스트	-12.5571
▁코티	-12.5574
▁310	-12.5579
플로	-12.5582
▁좋아졌다	-12.5584
▁물었	-12.5586
▁안전하다	-12.5588
nel	-12.5591
▁닮았다	-12.5592
주고	-12.5596
▁타일	-12.5598
▁핏	-12.5605
▁쇠	-12.5605
bm	-12.5614
▁들여다	-12.5615
▁가비	-12.5628
▁성장한	-12.5629
▁다닌다	-12.5633
자율	-12.5635
▁풀려나	-12.5639
▁돌봐	-12.564
메니	-12.5648
▁종려	-12.5648
▁벌이기	-12.5648
단합	-12.5649
▁피그	-12.5654
맨스	-12.5657
캄	-12.5665
▁됨으로	-12.567
▁훔쳤	-12.5674
테디	-12.5682
▁신시	-12.5685
▁강하다	-12.5691
▁옮겨졌	-12.5692
있다는	-12.57
▁내보내	-12.5705
안이	-12.5706
일방	-12.5707
▁피운	-12.571
▁캐스	-12.5715
▁wa	-12.5718
▁금성	-12.5724
▁370	-12.5725
our	-12.5731
▁동호	-12.5732
▁세월	-12.5734
가장	-12.5739
▁맺는	-12.5741
▁게스	-12.575
소생	-12.5763
▁이르다	-12.5763
ted	-12.5767
뱅	-12.5767
▁떨어지지	-12.5772
fi	-12.5773
▁싸우	-12.5777
▁가두	-12.5778
▁놓는	-12.578
▁늘어났	-12.578
▁bad	-12.578
▁체질	-12.5782
지아	-12.5787
▁걸었	-12.5788
▁빚었	-12.579
▁해내는	-12.5791
▁미친다	-12.5792
▁노렸	-12.5795
▁키웠다	-12.5795
오피	-12.5795
있게	-12.5804
반스	-12.5808
퍼트	-12.583
▁clu	-12.5832
▁저조	-12.5845
▁코파	-12.5845
▁불가능하	-12.5847
자동	-12.5848
▁week	-12.585
착상	-12.5854
▁빠	-12.5862
개시	-12.5869
mon	-12.5878
루즈	-12.588
▁할로	-12.5887
▁해로운	-12.5896
▁자물	-12.5901
▁힘쓰	-12.5904
유화	-12.5908
▁124	-12.5911
▁유영	-12.5911
▁잠들	-12.5912
게이	-12.5919
▁힌	-12.5921
▁지쳐	-12.5925
▁니트	-12.5925
▁산성	-12.5936
▁쏟아졌	-12.5936
▁페로	-12.5938
▁카타	-12.5946
발사	-12.5949
▁풀리	-12.595
불명	-12.5952
▁bar	-12.5952
▁덮어	-12.5954
▁쯔	-12.5961
▁act	-12.5968
▁선더	-12.5969
▁te	-12.5972
▁묶어	-12.5972
▁열려	-12.5974
▁are	-12.5981
▁물리치	-12.5991
35	-12.5994
갖	-12.5995
슈미	-12.6003
▁깨지	-12.6004
▁피자	-12.6005
▁오라	-12.6007
▁미뤄	-12.601
ph	-12.6016
▁뒤져	-12.6024
▁rock	-12.6026
▁만족해	-12.603
73	-12.6036
▁05	-12.6037
for	-12.6042
ll	-12.6043
tan	-12.6046
▁깨어	-12.6052
ilf	-12.6056
radi	-12.6059
▁해보	-12.606
▁아쉬	-12.6066
▁밝혀내는	-12.6074
예방	-12.6076
▁gene	-12.6078
프린	-12.6083
one	-12.6083
▁knu	-12.6085
▁le	-12.6085
▁또다	-12.6086
▁풀어주	-12.609
▁세례	-12.6091
▁mit	-12.6095
87	-12.6101
▁ze	-12.6106
▁이겼	-12.611
본부	-12.6111
결정	-12.6111
ns	-12.6114
했을	-12.6114
age	-12.6117
▁내려졌	-12.6119
▁잡히	-12.6126
▁쇄	-12.6129
활	-12.6129
▁pac	-12.6131
수지	-12.6135
▁센티	-12.6137
트로	-12.6138
▁로사	-12.6142
▁원활	-12.6145
▁가즈	-12.6147
갑부	-12.615
▁민국	-12.615
▁sp	-12.6152
▁세워지	-12.6154
▁살로	-12.6162
▁다가가	-12.6164
▁불면	-12.6165
▁워너브	-12.6165
획	-12.6171
▁만년	-12.6176
▁끝났	-12.6178
트너	-12.6178
▁초상	-12.6186
▁아세	-12.6186
▁390	-12.6189
▁몰랐	-12.6191
roll	-12.6195
▁겹	-12.6197
기스	-12.6197
▁푸아	-12.6199
mas	-12.6206
▁광대	-12.6208
▁나트	-12.6214
▁나선다	-12.6232
▁두루	-12.6233
▁족	-12.6233
▁닫았	-12.6239
그리고	-12.6241
▁끝없	-12.6243
▁가하는	-12.6244
lse	-12.6245
▁수상했	-12.6246
▁158	-12.6247
라카	-12.6248
뤄졌다	-12.6256
▁지어	-12.6263
▁boa	-12.6263
▁주겠다	-12.6278
톰	-12.6279
레바	-12.6279
▁끝냈	-12.628
끈	-12.629
▁불안정하	-12.6295
▁파우	-12.6295
▁가십	-12.6298
▁이치	-12.63
▁지켜봤	-12.6303
▁사바	-12.6311
▁비타	-12.6316
모네	-12.6318
다이스	-12.6322
▁크레이	-12.6326
▁li	-12.6327
▁치르지	-12.6335
지못	-12.6336
▁침착	-12.6338
▁네이	-12.6348
클라	-12.6355
▁줄였	-12.6359
▁실비	-12.637
▁나열	-12.6372
브레	-12.6375
▁주도했	-12.6381
ser	-12.6382
▁플라이	-12.6382
대사	-12.6389
▁su	-12.6391
eu	-12.6392
▁바꾼	-12.6392
cow	-12.6394
레브	-12.6401
▁늦추	-12.6403
▁155	-12.6407
▁중소	-12.6414
ago	-12.6417
물교	-12.642
시나이	-12.6421
gy	-12.6426
대중	-12.6428
▁고추	-12.643
이후	-12.6435
alli	-12.6435
▁아비	-12.644
▁love	-12.6443
rt	-12.6443
end	-12.6444
▁쌓여있	-12.6445
▁지키는	-12.6449
▁씻	-12.6449
ix	-12.6456
▁도와준	-12.6457
▁억지	-12.6459
▁proce	-12.6463
▁묻혀	-12.6464
▁비야	-12.6467
▁올라간	-12.6471
▁실려있	-12.6477
마누	-12.648
33	-12.6484
▁깨우	-12.6489
비행	-12.6494
olog	-12.6495
cr	-12.6497
분리	-12.6499
▁쫓겨	-12.6501
rida	-12.6501
▁굶	-12.6505
곽	-12.6512
▁가능해	-12.6513
꼈다	-12.6514
프런티어	-12.6514
rrow	-12.6515
nfl	-12.6515
▁예쁘	-12.6515
place	-12.6516
▁progr	-12.6521
▁경작	-12.6524
리케	-12.653
▁룩셈	-12.6537
▁커넥	-12.6538
▁튜닝	-12.6538
▁떨쳐	-12.6538
que	-12.654
▁테넌	-12.6541
▁팜플	-12.6542
▁밍크	-12.6543
▁생필품	-12.6543
▁님로즈	-12.6543
▁헨드릭	-12.6543
▁키쿠유	-12.6543
▁꿈꾸	-12.6544
▁외페레	-12.6544
▁민방위	-12.6544
▁삽흐나	-12.6544
▁길렀다	-12.6544
▁늘렸다	-12.6545
▁친숙	-12.6546
▁뽑힌	-12.6547
▁쾌적	-12.6547
종일	-12.6547
▁lea	-12.6547
▁타케	-12.6547
▁glob	-12.6547
▁온타리오	-12.6547
▁마지못해	-12.6547
▁drug	-12.6547
▁safe	-12.6548
▁가져갔다	-12.6548
▁will	-12.6548
▁걸렸는지	-12.6549
▁부르니와	-12.6549
▁맹렬	-12.6549
▁스타트랙	-12.655
▁프로그래	-12.655
▁다윗	-12.655
▁고바야	-12.6551
▁엇갈리	-12.6551
▁출생신고	-12.6551
▁알베르	-12.6552
▁kurdis	-12.6552
낙	-12.6552
▁도밍게	-12.6553
▁최루가스	-12.6553
▁gartner	-12.6554
▁프로레슬	-12.6554
▁1937	-12.6554
리인	-12.6554
▁마르케	-12.6555
▁짖지	-12.6555
▁br	-12.6555
▁business	-12.6555
▁transport	-12.6556
▁염색	-12.6556
▁electronic	-12.6557
▁웨이츠	-12.6557
▁높아질	-12.6557
당국	-12.6557
▁1946	-12.6557
▁중앙아프리카	-12.6559
▁옥토	-12.6559
▁가져와	-12.6559
▁캣	-12.6559
▁쿤	-12.6559
▁다이버	-12.656
▁들어섰다	-12.6561
▁프렌	-12.6561
▁많아질	-12.6561
한다는	-12.6562
▁환태평양	-12.6562
▁아시안	-12.6563
▁닥터	-12.6564
▁나타내면서	-12.6565
▁벌였었다	-12.6565
▁4800	-12.6567
▁쓰여진	-12.6567
▁도이체	-12.6568
▁올리브	-12.6568
▁6300	-12.6571
▁멈추게	-12.6571
▁연락처	-12.6573
▁에드먼	-12.6574
▁두자나	-12.6574
도날	-12.6574
▁안드레아	-12.6574
▁티노	-12.6576
비수	-12.6577
▁이르지	-12.6577
▁훔치	-12.6581
▁잃어버렸다	-12.6581
▁살아있을	-12.6582
▁조그	-12.6584
▁베르나	-12.6587
▁발칸	-12.6588
head	-12.6589
▁짜증	-12.6591
▁자이언	-12.6593
▁펜실	-12.6594
▁1920	-12.6594
▁반갑	-12.6596
▁우세했다	-12.66
▁강우	-12.6606
이면서	-12.6607
▁다치지	-12.6607
▁writer	-12.6607
▁좁혀	-12.6608
▁누렸	-12.6609
▁자위	-12.6611
ngo	-12.6613
▁마주치	-12.6613
▁극악	-12.6614
les	-12.6615
▁영리	-12.6616
검찰	-12.6616
▁끌려가	-12.6617
rs	-12.6621
있을	-12.6623
부부	-12.6623
▁섞어	-12.6625
▁살아남았다	-12.663
▁낮출	-12.663
▁레스터	-12.663
▁장미	-12.6632
▁날렸다	-12.6633
▁브랜트	-12.6633
▁있으면	-12.6635
▁콘타	-12.6636
▁코네	-12.6637
▁섬세	-12.6637
▁마켈	-12.6639
▁ordina	-12.6641
▁5505	-12.6646
▁182	-12.6646
▁아흐마	-12.6648
▁사하	-12.6648
▁싸웠다	-12.665
▁착했다	-12.6653
▁프리미	-12.6655
airs	-12.6656
▁끌어내	-12.6657
건강	-12.6659
▁3100	-12.6659
▁페스	-12.6661
▁평안	-12.6661
▁닝	-12.6665
▁마인	-12.6668
만삭	-12.6669
1966	-12.6673
▁고메	-12.6674
▁처참	-12.6676
레일리	-12.6676
촬영	-12.6677
▁미혼	-12.6678
▁만연한	-12.6679
▁꺼리	-12.6679
cef	-12.6679
▁호환	-12.6683
스토크	-12.6684
나는	-12.6685
확하게	-12.6685
▁뽑아내	-12.6687
▁직선	-12.6688
56	-12.6689
afa	-12.6691
섹	-12.6693
▁샬	-12.6693
▁법학	-12.6694
으려	-12.6696
▁오메	-12.6697
79	-12.6697
▁참고	-12.6697
▁하고있다	-12.6701
ank	-12.6702
▁강해지	-12.6702
▁홉	-12.6704
▁안성	-12.6706
아르	-12.6706
▁오스만	-12.6706
카르	-12.6707
▁러블	-12.6708
▁home	-12.6709
▁되찾았다	-12.6711
치고	-12.6713
▁쓰여져	-12.6714
now	-12.6715
캐스터	-12.6718
fcc	-12.6718
▁없어졌다	-12.672
▁금발	-12.672
▁부족해	-12.6721
▁공정하지	-12.6722
▁잃어버리	-12.6724
▁일어	-12.6727
▁했는가	-12.6729
▁쿠즈네	-12.6733
▁찾게	-12.6733
라즈	-12.6735
가루	-12.6739
▁나아지	-12.674
빅	-12.6743
▁면책	-12.6748
카제	-12.675
▁회교	-12.675
▁nie	-12.6755
▁악화시키	-12.6755
▁ten	-12.6755
▁사피	-12.6757
▁168	-12.6759
▁낮아지	-12.6761
▁아덴	-12.6762
▁제랄	-12.6763
▁430	-12.6765
▁치르고	-12.6766
▁메타	-12.6767
▁드레	-12.6768
▁캔버	-12.6769
▁스탠드	-12.6769
프링	-12.6772
▁비싸다	-12.6773
▁zoe	-12.6776
▁대국민	-12.6787
▁위급	-12.6789
벅	-12.6791
▁페터	-12.6795
▁여대	-12.6799
포스트	-12.6802
▁되찾는	-12.6804
▁입었을	-12.6806
▁알기	-12.6807
lb	-12.6807
ah	-12.6809
▁드러내고	-12.681
▁ir	-12.6811
▁흐리	-12.6812
▁내려가	-12.6814
▁끝냈다	-12.6816
▁내쉬	-12.6826
▁수상하기	-12.6827
복지	-12.6827
▁불공	-12.6828
페라	-12.6834
이치	-12.6838
▁느껴	-12.6839
발머	-12.684
com	-12.6842
▁홉킨	-12.6842
헬	-12.6846
▁사운드	-12.6846
ging	-12.6848
▁다마스	-12.685
그리	-12.6855
▁해운	-12.6862
▁기침	-12.6863
▁배수	-12.6864
요한	-12.6871
롤라이	-12.6874
▁줄였다	-12.6876
▁시크	-12.6879
▁꺾는	-12.6879
쾌	-12.6882
▁팩스	-12.6882
▁강하	-12.6883
▁우루	-12.6887
▁communication	-12.6888
▁열었	-12.6898
받았다	-12.6899
▁마울	-12.6903
알레그	-12.6904
▁선보	-12.6905
▁섰	-12.6905
70	-12.6909
▁료	-12.6911
▁메이드	-12.6913
실효	-12.6915
▁벗어나는	-12.6916
▁이니	-12.6916
▁넘었	-12.6917
▁대칭	-12.6919
래드	-12.6923
▁모라	-12.6927
▁안티	-12.6928
▁우디	-12.6929
▁직할	-12.6929
59	-12.6931
965	-12.6933
▁지쳤	-12.6934
era	-12.694
▁나타낸다	-12.6943
▁올라오	-12.6945
쿨	-12.6948
31	-12.695
▁102	-12.6953
산업	-12.6954
try	-12.696
▁ira	-12.6965
▁양파	-12.697
▁달라진	-12.6971
▁있기에	-12.6973
▁이끌어가	-12.6982
▁달렸	-12.6982
▁roo	-12.6989
▁불렸	-12.6989
▁맞섰	-12.6993
▁버티	-12.6995
▁나눴	-12.6996
▁ban	-12.6998
▁건강하다	-12.7001
계약	-12.7009
시켰다	-12.701
▁달아	-12.7011
▁넓게	-12.7013
▁받으라	-12.7014
툴	-12.7017
▁adh	-12.7017
▁아닌지	-12.7022
▁트레이	-12.7023
명예	-12.7032
▁돌이	-12.7032
▁오면	-12.7033
▁입방	-12.7038
아프	-12.704
▁형용	-12.7044
일본	-12.7044
▁크레스	-12.7049
▁않았어	-12.7049
by	-12.7052
▁문란	-12.7057
▁매립	-12.7063
▁극소	-12.7067
넥	-12.7068
976	-12.7072
▁맡겨	-12.7075
▁골라	-12.7077
▁뿌	-12.7079
▁생리	-12.7079
973	-12.7088
▁투구	-12.7091
▁몰두	-12.7092
▁lot	-12.7092
▁돌아가기	-12.7094
너트	-12.7102
▁베터	-12.7103
968	-12.7105
▁무스	-12.7106
▁드물다	-12.7107
▁주고받	-12.7108
자연	-12.7109
졌	-12.7111
안데르	-12.7111
▁점보	-12.7112
▁나오면	-12.7115
41	-12.7121
샤드	-12.7121
벡	-12.7123
69	-12.7125
모터스	-12.7125
00	-12.7126
▁충실	-12.7128
ter	-12.7131
센티	-12.7134
콜로	-12.7134
필요한	-12.7135
▁tour	-12.7136
▁보살	-12.7139
83	-12.7141
▁러스	-12.7142
os	-12.7145
▁셸	-12.7146
트래	-12.716
맷	-12.716
샴	-12.716
▁her	-12.7163
▁오고	-12.7168
▁개개	-12.7169
훈	-12.7172
▁초음	-12.7173
drid	-12.7173
대형	-12.718
사업	-12.7183
치킨	-12.7185
정치	-12.7187
들레	-12.719
ever	-12.7197
▁가져온	-12.7198
▁높아진	-12.7199
▁자가	-12.7204
리틀	-12.7207
amen	-12.7208
됐으	-12.7219
▁가져오	-12.7224
리히	-12.7225
▁팔리	-12.7231
▁카비	-12.7233
▁높인	-12.7233
▁시급	-12.7235
▁놓이	-12.724
tte	-12.7241
리샤	-12.7249
bay	-12.7249
08	-12.725
▁휘둘	-12.7255
▁슬퍼	-12.7256
적절한	-12.7267
▁늘어난다	-12.7269
▁재검	-12.7275
▁올레	-12.7277
ologic	-12.7278
▁bn	-12.7279
bout	-12.7279
안관	-12.7282
▁갈라지	-12.7292
▁페네	-12.7292
▁살려	-12.7296
ek	-12.7299
▁주었	-12.73
▁리퍼	-12.7303
루치	-12.7304
▁벼	-12.7305
arian	-12.7309
약성	-12.7312
▁분개	-12.7313
▁도매	-12.7313
ark	-12.7316
▁첩	-12.7319
▁man	-12.7324
▁페티	-12.7325
week	-12.7325
▁트렌	-12.7329
▁순서	-12.7331
hoo	-12.7335
▁됐었	-12.7339
▁mor	-12.7343
▁엘도	-12.7349
▁미인	-12.7352
▁펼쳐졌	-12.7352
자아이	-12.7356
▁hol	-12.7357
시스	-12.7364
뿌	-12.7365
▁잡혔	-12.7365
▁부서지	-12.7366
▁사유	-12.7366
▁캄	-12.7371
▁엄밀	-12.7372
부차	-12.7378
주자	-12.7379
스패	-12.7379
▁islam	-12.7391
▁지났다	-12.74
▁475	-12.7401
프로	-12.7402
울러	-12.7403
▁갤리	-12.7403
nk	-12.741
어트	-12.741
▁불과하	-12.7414
▁어렵지	-12.7414
▁찾아냈	-12.7421
▁실망했	-12.7422
sce	-12.7425
미레이	-12.7429
▁청원	-12.7434
▁휩싸였	-12.7441
▁bay	-12.745
▁에밀	-12.7451
▁나자	-12.746
있지	-12.7467
cio	-12.7474
ther	-12.7483
▁mar	-12.7484
프로그램	-12.7485
달라	-12.7491
▁설리	-12.7491
▁입는다	-12.7491
▁그만	-12.75
▁내보낸	-12.7508
▁사모	-12.7524
즈번	-12.7526
▁입는	-12.7529
▁숨졌으	-12.7529
▁버터	-12.7531
▁글로리	-12.7539
▁val	-12.7541
들어	-12.7543
▁낮다	-12.7546
살라	-12.7547
sion	-12.7548
추어	-12.7554
네티	-12.7556
▁아름답	-12.7557
▁gra	-12.7566
▁come	-12.7573
▁marin	-12.7576
▁cons	-12.7587
▁진압되	-12.7587
토시	-12.7592
▁스르	-12.7592
des	-12.7595
발견	-12.7598
▁아더	-12.7598
▁포레	-12.7599
▁자연스러	-12.7599
▁발광	-12.7605
▁헤라	-12.7608
▁적도	-12.7608
ino	-12.7611
▁마자	-12.7614
be	-12.7616
▁넣지	-12.7629
▁hop	-12.7629
보행	-12.7631
지를	-12.7633
wa	-12.7634
국민	-12.7637
페이스	-12.7639
36	-12.7639
▁실렸	-12.7642
▁헤어스	-12.7646
생각	-12.7647
▁넘겼	-12.765
린스	-12.765
▁용이하	-12.7661
▁비리	-12.7669
허가	-12.7674
▁indian	-12.7685
이츠	-12.7696
eri	-12.7698
▁핵폭	-12.7702
랜즈	-12.7706
der	-12.7707
▁키시	-12.7707
낮	-12.7718
▁잘려	-12.7719
rg	-12.7722
▁샨	-12.7723
▁태만	-12.7723
71	-12.7726
타미	-12.7727
▁성실	-12.7728
▁퀘	-12.7741
▁미디	-12.7745
▁상이	-12.7747
▁세련	-12.7747
▁유고	-12.7751
▁퐁	-12.7752
▁밍	-12.777
나지	-12.7771
▁지나갔	-12.7775
▁게티	-12.7779
▁알아내	-12.7782
민국	-12.7785
▁뉴스코	-12.7786
▁선보여	-12.7787
▁떼어	-12.7791
▁gs	-12.7813
86	-12.7814
▁don	-12.7814
ct	-12.782
ves	-12.7827
sci	-12.7829
▁앤트	-12.783
af	-12.7834
키지	-12.7834
ick	-12.7835
전문	-12.784
omen	-12.784
▁도약	-12.7845
▁가했	-12.7848
▁의약	-12.7852
▁나사	-12.7852
▁gua	-12.7856
▁듣는	-12.7868
비통	-12.7872
블랑	-12.7878
베라	-12.7884
내게	-12.7889
공정	-12.7896
ful	-12.7896
▁데드	-12.7898
라야	-12.7903
이러스	-12.7909
컬리	-12.7915
일부	-12.7921
eld	-12.7922
조차	-12.7922
▁열악	-12.7925
니치	-12.7926
투어	-12.7939
cnn	-12.7943
▁gu	-12.7943
▁들어가면	-12.7944
▁사와	-12.7946
수리	-12.7946
▁소프	-12.7949
▁연합국	-12.7953
ations	-12.7953
ive	-12.7954
▁현명하	-12.7958
▁슨	-12.7959
▁퍼붓	-12.796
복용	-12.7962
려져	-12.7967
▁라자	-12.7968
bar	-12.7969
▁일으킨다	-12.7969
▁237	-12.7979
▁질렀	-12.7979
▁결재	-12.7982
사실	-12.7984
▁아흐	-12.7985
ame	-12.7987
▁싫어	-12.7989
▁레포	-12.7992
▁퍼져있	-12.7995
▁냉정	-12.7996
pho	-12.7997
▁따라야	-12.8002
▁움직였	-12.8005
국제	-12.8006
▁향기	-12.8007
▁나날	-12.8009
리학	-12.8012
▁떠난다	-12.8012
▁바랐	-12.8017
▁쏟	-12.8019
수출	-12.802
▁갈리	-12.8024
슬로	-12.8024
lo	-12.8026
55	-12.803
▁보았습니	-12.8032
▁머물렀	-12.8033
재정	-12.8034
▁붙었	-12.8034
권력	-12.8035
▁스트라	-12.8041
▁불신	-12.8042
order	-12.8049
곳	-12.8051
▁134	-12.8052
▁엘스	-12.8053
▁발라	-12.8054
▁시스	-12.8054
보노	-12.806
▁편리	-12.8067
▁놀랐	-12.8067
▁두어	-12.8074
▁병들	-12.8079
ib	-12.8081
▁버나	-12.8082
▁뒤따	-12.8083
ring	-12.8085
▁신랄	-12.8086
97	-12.8089
ener	-12.809
▁139	-12.8091
aven	-12.8096
▁리카	-12.8102
▁흐른	-12.8103
▁sim	-12.8104
▁엄청나	-12.8106
▁삼키	-12.811
▁che	-12.8111
▁셜	-12.8115
염증	-12.8116
▁틀림	-12.8116
▁비겁하	-12.8118
붙였다	-12.8119
▁시에	-12.8121
▁카베	-12.8124
피터	-12.8125
▁모데	-12.8126
▁놓아	-12.8133
▁늘려	-12.8136
press	-12.8136
tric	-12.8144
ber	-12.8145
라우	-12.8147
빌리	-12.8151
▁크림	-12.8154
▁무적	-12.8158
브람	-12.8158
▁소용	-12.816
▁엎	-12.8162
뇨	-12.817
isco	-12.8173
▁두드러	-12.8175
hall	-12.8177
▁촛	-12.8179
▁휩	-12.8181
▁챔	-12.8181
government	-12.8181
ject	-12.8181
▁꼼꼼	-12.8181
▁컨츄리	-12.8181
estimate	-12.8181
▁만경봉	-12.8181
▁알깔드	-12.8181
▁헬름스	-12.8181
▁아길레	-12.8181
▁카네기	-12.8181
▁컨버터	-12.8182
▁파푸아	-12.8182
oprah	-12.8182
▁떠오른	-12.8182
▁탄크레	-12.8183
▁떠내려	-12.8183
▁캐세이	-12.8183
ative	-12.8183
▁영주권	-12.8183
▁귀엽	-12.8183
▁파킨슨	-12.8183
▁얻으려	-12.8184
▁앞당길	-12.8184
▁어수선	-12.8184
wood	-12.8184
▁킬링	-12.8185
▁얼어붙	-12.8186
▁융통	-12.8188
▁않느냐	-12.8188
▁불거진	-12.8188
how	-12.8188
▁루벤	-12.8189
▁붙잡았	-12.8189
▁카를	-12.819
tomo	-12.819
▁데려오	-12.8191
▁맥도널	-12.8191
▁의붓	-12.8193
▁송곳	-12.8193
▁서슴	-12.8194
▁오르내리	-12.8194
이스라엘	-12.8195
▁두자니	-12.8195
gone	-12.8196
▁어지럽	-12.8196
▁놔	-12.8197
요르	-12.8197
heu	-12.8197
▁뚱뚱한	-12.8198
▁부지런	-12.82
위구르	-12.8202
▁헤글	-12.8203
▁쟁점	-12.8203
▁쫓아가	-12.8203
▁생리학	-12.8203
▁왼손	-12.8204
▁늘려야	-12.8205
▁흉악	-12.8205
▁부추기	-12.8205
▁good	-12.8207
▁되었는지	-12.8208
▁al	-12.8209
▁울퉁불퉁	-12.8209
▁아랫	-12.8209
▁올라탔다	-12.8209
▁흡사하다	-12.8209
▁냉담	-12.8209
▁안타까워	-12.821
▁몽타	-12.8211
▁넘쳐나	-12.8211
sag	-12.8211
▁sweet	-12.8211
▁네브래스카	-12.8211
▁power	-12.8212
▁애쉬	-12.8212
hre	-12.8212
▁읽어	-12.8213
▁물러나겠다	-12.8213
▁story	-12.8213
▁disco	-12.8213
▁survey	-12.8213
▁minute	-12.8213
▁online	-12.8214
▁market	-12.8214
▁서성거	-12.8214
▁머물러	-12.8214
▁아틀레티	-12.8214
베니아	-12.8214
▁1958	-12.8215
▁council	-12.8215
▁picture	-12.8215
▁country	-12.8215
▁소리쳤다	-12.8217
▁technolog	-12.8217
▁446	-12.8219
▁어린아이	-12.822
▁앉아있었다	-12.822
▁있으니	-12.822
▁폭력조직	-12.822
▁tower	-12.8221
▁소홀	-12.8221
▁ka	-12.8221
▁산부인과	-12.8221
▁산둥	-12.8222
▁커져	-12.8222
▁3600	-12.8223
▁아이보리	-12.8224
kyo	-12.8226
뮬러	-12.8227
▁히로시	-12.8228
▁디스코	-12.8229
▁컨설	-12.8229
▁닿는	-12.823
▁토막	-12.823
▁올리는데	-12.8232
▁성숙	-12.8233
▁217	-12.8235
▁가처분	-12.8236
▁9500	-12.8236
▁라기	-12.8236
mission	-12.8236
▁4600	-12.8238
▁갈릴	-12.8241
▁나가는데	-12.8242
▁느껴진다	-12.8243
raft	-12.8244
▁물어봤	-12.8247
▁두렵	-12.8247
▁1625	-12.8247
▁bull	-12.8248
▁lau	-12.8248
▁비닐	-12.8249
▁물들이	-12.825
▁브레이브	-12.825
▁살펴보	-12.8252
▁172	-12.8253
▁잔학	-12.8253
▁빠져나간	-12.8255
▁클리어	-12.8256
▁닥치	-12.8256
▁따뜻하다	-12.8258
▁폐경	-12.8258
▁베른	-12.826
▁변환	-12.826
▁유기농	-12.826
▁없어진	-12.8262
▁따뜻함이	-12.8262
르드	-12.8264
▁물러서	-12.8264
▁용맹	-12.8265
▁선데이타임	-12.8266
▁프레임	-12.8268
▁228	-12.8268
▁머릿	-12.8268
▁이뤄진다	-12.8268
▁그려져	-12.8269
▁수수	-12.8272
있어	-12.8272
▁4100	-12.8272
리너	-12.8276
▁아니냐	-12.8277
▁나누었다	-12.8277
▁카오	-12.8278
▁지었	-12.8278
▁돋	-12.8279
▁에펠	-12.8281
▁피오르	-12.8284
32	-12.8284
▁뛰어든	-12.8284
csa	-12.8285
ous	-12.8285
▁되돌아가	-12.8285
▁내려가는	-12.8286
▁살펴	-12.8287
지긋	-12.8289
▁밟아	-12.8291
▁날아다니	-12.8292
▁640	-12.8292
▁빼앗기	-12.8293
▁늦어지	-12.8296
▁사귀는	-12.8296
▁베르디	-12.8297
▁낭비하	-12.8297
▁리턴	-12.8301
▁단념	-12.8302
게티	-12.8313
▁김영	-12.8314
wb	-12.8314
코브	-12.8315
▁po	-12.8315
▁잇따랐	-12.8316
▁좌시하지	-12.8316
▁다루기	-12.8318
▁기대하는	-12.832
▁달아났다	-12.832
타이	-12.8321
▁올랐으	-12.8322
▁히카	-12.8323
▁알아보	-12.8325
오거스	-12.8326
pice	-12.8327
▁군사법	-12.8328
▁앵	-12.8329
▁143	-12.8333
▁peac	-12.8333
▁흔든	-12.8335
딜레	-12.8343
▁force	-12.8349
▁부끄럽	-12.8349
▁141	-12.835
버렸다	-12.8351
▁밀어내	-12.8352
▁울렸다	-12.8354
▁르네	-12.836
▁인디아	-12.8362
▁생포	-12.8368
▁대포	-12.8369
▁늘리기	-12.8373
▁변하	-12.8375
마티	-12.8379
▁프러	-12.8384
▁풋	-12.8385
▁정보통신	-12.8387
페르	-12.8388
▁죽일	-12.8393
▁island	-12.8393
ific	-12.8394
▁sea	-12.8397
▁know	-12.8397
▁끊겼다	-12.8397
▁520	-12.8401
▁방북	-12.8402
▁저지르지	-12.8405
▁캐롤라	-12.8405
▁모였	-12.8405
브레스	-12.8405
▁요령	-12.8408
▁우마	-12.841
▁인디	-12.841
▁돌아간다	-12.8412
▁하디	-12.8412
나운	-12.8414
▁초보	-12.8416
▁몰았다	-12.842
▁베르니	-12.8421
atm	-12.8422
▁암모	-12.8422
▁buy	-12.8422
▁하기보다	-12.8429
▁181	-12.8431
▁묻지	-12.8438
▁나빠졌다	-12.8438
▁종착	-12.8439
▁수혜	-12.844
▁over	-12.8442
▁휩싸이	-12.8443
▁가능해졌다	-12.8448
75	-12.8452
▁읽기	-12.8453
▁아스톤	-12.8453
▁모조	-12.8455
▁빌린	-12.8456
▁말끔	-12.8465
혀있었다	-12.8471
▁올려놓	-12.8472
▁총사령	-12.8472
quen	-12.8477
▁보너	-12.8485
▁에스파	-12.8486
있지만	-12.8487
▁레리	-12.8488
▁맺기	-12.849
▁나눈다	-12.8493
▁묻혔다	-12.8494
▁수질	-12.8498
▁capab	-12.85
▁리즈	-12.8502
틀리	-12.8503
프레	-12.8509
▁야오	-12.8512
치사	-12.8513
▁홈즈	-12.8513
▁떠올	-12.8514
aba	-12.8516
▁브론	-12.8518
▁프론	-12.8519
▁pd	-12.8521
▁서있	-12.8521
▁진다	-12.8526
▁막아내	-12.8529
▁119	-12.8532
▁분주	-12.8534
gh	-12.8536
▁공문	-12.8536
▁151	-12.8537
▁tm	-12.8539
▁불합	-12.8539
▁익숙하	-12.8539
▁가리	-12.8543
▁닫았다	-12.8547
노넨	-12.8551
▁넘는다	-12.8551
▁내려와	-12.8553
끌려	-12.8559
파로	-12.8562
자기	-12.8566
▁mount	-12.8567
▁믿었다	-12.8568
▁폐쇄되	-12.8568
리면서	-12.8581
룩	-12.8581
▁데려	-12.8581
▁walk	-12.8582
네오	-12.8583
▁들어있었다	-12.8583
▁쿠스	-12.8591
▁lip	-12.8593
▁point	-12.8595
입니다	-12.8597
▁테레	-12.8597
▁780	-12.8604
대륙	-12.8605
df	-12.8605
데브	-12.8605
hone	-12.8607
▁싱어	-12.8607
▁신교	-12.8608
▁변할	-12.8615
인데	-12.8617
즈메	-12.8617
▁했어	-12.8621
▁jer	-12.8623
vide	-12.8627
▁크래	-12.863
▁법인	-12.8631
▁마르크	-12.8632
상대	-12.8637
▁수식	-12.8637
▁누워있	-12.8639
▁전산	-12.864
기상청	-12.8642
▁that	-12.8645
do	-12.8645
질라	-12.8646
결과	-12.8647
▁wiki	-12.8648
▁적자	-12.8649
▁난다	-12.8653
ko	-12.8657
스럽다	-12.8659
풀었다	-12.8661
▁마추	-12.8666
잇	-12.8668
▁실패했	-12.8674
▁갇혔다	-12.8675
▁신주	-12.8682
크루즈	-12.8684
▁떠돌아	-12.8684
▁걷어	-12.8685
셜	-12.8687
ear	-12.8688
▁들이었	-12.8691
▁나와있	-12.8696
▁퍼부	-12.8697
시피	-12.8698
물리학	-12.8699
▁남길	-12.8704
제국	-12.8705
▁선거인	-12.8706
▁놈	-12.8707
uelt	-12.8708
▁휘슬	-12.871
용지	-12.8712
▁오르지	-12.8713
함께	-12.8716
▁순결	-12.8718
누크	-12.872
48	-12.873
rage	-12.8743
▁겪어	-12.8744
ler	-12.8746
스탠	-12.8748
▁떨어진다	-12.8749
심해서	-12.8755
▁파고	-12.8757
계속	-12.8757
▁사이프	-12.8761
kw	-12.8761
조치	-12.8766
▁만들려	-12.8769
▁td	-12.8772
nce	-12.8773
as	-12.8774
▁대접	-12.8774
ii	-12.8778
▁유동	-12.8779
ute	-12.878
▁강수	-12.878
▁195	-12.8781
▁광선	-12.8784
▁매표	-12.8788
▁꾸려	-12.879
▁여겨졌	-12.8792
▁받으려	-12.8794
▁뤼	-12.8799
지라	-12.8802
▁bri	-12.8805
cann	-12.8807
ara	-12.8808
▁뮤	-12.8808
렌디	-12.8816
▁휴게	-12.8819
파키	-12.8822
드레스	-12.8822
▁스타트	-12.8838
치노	-12.8839
▁mus	-12.8846
wc	-12.8846
▁삼았	-12.8851
▁술라	-12.8854
▁아시	-12.8855
stic	-12.8863
모사	-12.8864
어필	-12.8867
▁차려	-12.887
▁타오	-12.8872
life	-12.8874
왕좌	-12.8875
▁아름답다	-12.8879
노예	-12.888
▁stor	-12.8882
▁count	-12.8885
▁bill	-12.8887
▁투우	-12.8895
▁치밀	-12.8897
졸	-12.8899
ver	-12.8906
▁sw	-12.8908
hemis	-12.8908
ros	-12.8912
▁970	-12.8914
▁알리스	-12.892
▁석회	-12.8923
승리	-12.8928
파티	-12.8932
▁심각하지	-12.8935
미타	-12.8937
▁폐쇄된	-12.8938
▁카미	-12.894
▁이스터	-12.8952
▁끊이	-12.8956
▁광동	-12.8961
▁02	-12.8962
▁높여	-12.8967
▁시어	-12.8968
레스티	-12.897
▁불거	-12.8971
ston	-12.8975
본다	-12.8976
53	-12.8979
▁인자	-12.8979
▁기괴	-12.8987
▁하레	-12.8992
토니	-12.8994
▁긋	-12.8998
마이	-12.9003
▁파파	-12.9006
렐레	-12.9008
▁펙	-12.9009
클린턴	-12.9011
파렌	-12.9012
궈	-12.9012
61	-12.9012
ash	-12.9028
▁fl	-12.9029
▁투명하	-12.903
▁승차	-12.9031
▁월트	-12.9031
광고	-12.9033
슈티	-12.9033
드레	-12.9036
커버	-12.9041
▁박혀	-12.9049
▁하버	-12.9051
play	-12.9064
fil	-12.9064
▁375	-12.9068
녹스	-12.9073
▁되겠다	-12.9079
프랑	-12.9084
새우	-12.9089
▁미흡	-12.909
캡	-12.9091
come	-12.9093
▁내려간	-12.9099
▁빠져들	-12.91
▁아야	-12.9101
셰르	-12.9103
▁unmi	-12.9103
▁버먼	-12.9114
쉴	-12.9116
틈	-12.9116
페소	-12.9121
헤인	-12.9122
▁에게까지	-12.9123
night	-12.9125
염소	-12.9126
헤르	-12.9137
르카	-12.9138
▁추기	-12.9139
▁실베스	-12.9144
에노	-12.9145
▁받으	-12.9145
월프	-12.9153
수염	-12.9154
훔	-12.9155
▁low	-12.9156
하이	-12.9159
▁시키자	-12.9163
▁내어	-12.9164
벌리	-12.9179
▁sh	-12.9179
ana	-12.918
▁알프	-12.9183
▁가나	-12.9185
▁화나	-12.9187
▁고귀	-12.9194
확산	-12.9194
▁반역	-12.9198
순환	-12.9199
이유	-12.92
▁만연하	-12.9201
▁빌에	-12.9204
▁중요하지	-12.9205
리타	-12.9206
▁시차	-12.9212
무장	-12.9226
▁ro	-12.923
았습니다	-12.9232
▁centr	-12.9233
▁나올지	-12.9237
▁col	-12.9245
▁pg	-12.9247
▁불러일으	-12.9254
바이러스	-12.9262
ab	-12.927
ent	-12.927
▁트럼	-12.9271
이기	-12.9272
금속	-12.9275
아몬드	-12.9275
과의	-12.9279
▁없었으	-12.9288
▁불린	-12.9292
▁주저	-12.9293
빌라	-12.9294
ral	-12.9295
ke	-12.9297
igh	-12.9309
860	-12.9311
▁성의	-12.9317
▁ah	-12.9318
▁길러	-12.9329
▁스와	-12.9336
무라	-12.9337
▁태어	-12.9339
rd	-12.9341
▁비정부	-12.9343
▁old	-12.935
▁시리	-12.9351
학원	-12.9353
ain	-12.9353
멘도	-12.9353
성애	-12.9354
▁모세	-12.9355
▁주권국	-12.9361
▁qui	-12.9363
났을	-12.9367
ier	-12.9368
▁if	-12.937
▁뭐라	-12.9371
줄이	-12.9372
▁행해졌	-12.9373
ight	-12.9381
내겠다	-12.9383
번호	-12.9385
▁compan	-12.9389
▁201	-12.9395
cla	-12.9398
퍼티	-12.9398
댈	-12.9405
▁148	-12.9407
▁리처	-12.9412
92	-12.9413
▁coo	-12.9416
▁해본	-12.9418
93	-12.942
▁원한	-12.9428
▁쐈	-12.9434
▁닮았	-12.9436
미나	-12.9438
▁콜라	-12.9439
▁쏟아지	-12.9441
list	-12.945
▁용감하	-12.9452
▁202	-12.9453
외과	-12.9454
달린	-12.9454
▁돌린	-12.9454
▁여세	-12.9459
주사	-12.9462
▁잠기	-12.9472
▁레프	-12.9473
▁영문	-12.9477
크고	-12.9484
▁pl	-12.9489
▁가져왔	-12.949
▁레크	-12.9495
▁깔려있	-12.9496
▁분명하	-12.9507
▁불결	-12.9512
bel	-12.952
▁267	-12.9523
▁오스트	-12.9524
아졌다	-12.9524
▁sch	-12.9525
ron	-12.9531
▁디어	-12.9531
▁산화	-12.9537
tain	-12.9538
▁되어있	-12.9539
▁콥	-12.954
▁pad	-12.9542
스리	-12.9545
▁터지	-12.9557
md	-12.9557
▁채워	-12.9564
▁남아있지	-12.9568
보일	-12.9569
▁막달	-12.9569
어날	-12.9569
▁희미	-12.9577
▁유시	-12.9578
라베	-12.958
▁시키면	-12.9583
▁조경	-12.9583
▁비열	-12.959
▁514	-12.9598
wt	-12.9598
▁내놨	-12.9604
이니아	-12.9612
레드	-12.9616
▁여긴	-12.9622
▁대퇴	-12.9622
▁가린	-12.9639
주인	-12.964
▁마구	-12.9644
온다	-12.9644
▁갖췄	-12.9645
서스	-12.9652
▁과민	-12.9654
treet	-12.9655
il	-12.9662
51	-12.9667
되지	-12.9669
▁자고	-12.9674
ann	-12.9675
▁늦어	-12.9676
cent	-12.9678
골라	-12.9679
▁생생	-12.9689
▁야한다	-12.969
스칼	-12.9696
water	-12.9696
스피어	-12.9701
▁신나	-12.9703
▁부러졌	-12.9706
라블	-12.9708
43	-12.971
ound	-12.9713
▁선교	-12.9715
▁gaz	-12.9716
키토	-12.9724
▁모호	-12.9727
창시	-12.9735
오렌	-12.9737
날로	-12.974
▁선보인	-12.974
상실	-12.9751
파니	-12.9752
리얼	-12.9757
nig	-12.9757
▁적신	-12.9762
62	-12.9764
변호	-12.9765
최고	-12.9766
ites	-12.9775
메다	-12.9776
▁타기	-12.9783
조기	-12.9784
포르	-12.9785
뤄야	-12.9793
▁벡스	-12.9794
실리	-12.9796
▁지켜봐	-12.98
een	-12.9803
▁멈췄	-12.9804
▁고수	-12.9805
방문	-12.9812
우기	-12.9814
tech	-12.9819
▁달려있	-12.9821
81	-12.9822
구조	-12.9824
▁부족했	-12.9826
▁달라지	-12.9838
▁일일	-12.984
88	-12.9844
랬다	-12.9844
own	-12.9846
정거리	-12.9846
▁묻혔	-12.9861
치오	-12.9862
▁괴롭	-12.9862
▁도리	-12.9863
▁성장했으	-12.9865
▁제제	-12.987
my	-12.9873
게이츠	-12.988
▁즐겼	-12.988
▁시킬지	-12.9886
리석	-12.9887
로즈	-12.989
▁기병	-12.9908
▁ya	-12.991
▁239	-12.9913
브로	-12.9914
켰다	-12.9917
ucc	-12.992
▁성공하는	-12.9935
▁같았	-12.9936
공군	-12.9938
ccess	-12.995
오르	-12.995
gan	-12.9954
07	-12.996
▁영사	-12.9963
리처	-12.9965
살바	-12.9967
일레	-12.9978
나오	-12.9983
글라	-12.9991
▁치러진다	-12.9999
va	-12.9999
받은	-13.0005
▁bl	-13.001
▁class	-13.001
따라	-13.0012
opp	-13.0016
▁마타	-13.0017
▁불타	-13.0019
아마	-13.0029
▁빌더	-13.0029
▁밝힌다	-13.0029
▁오류	-13.003
▁찾아오	-13.0033
▁fir	-13.0036
▁닿	-13.004
전화	-13.004
▁살바	-13.0049
erman	-13.005
됐	-13.0054
▁아드리	-13.0055
져지	-13.0058
▁프레스	-13.0063
▁온전	-13.0065
▁메흐	-13.007
라리	-13.0074
▁넘기는	-13.0076
▁넘어지	-13.0078
사우	-13.0082
▁무르	-13.0084
▁강화했	-13.0089
▁쓰려	-13.0096
▁fort	-13.0099
▁무책임하	-13.0103
카테	-13.0103
글러	-13.0106
tox	-13.0113
▁162	-13.0113
셨다	-13.0115
없다	-13.0116
그레	-13.0124
라디	-13.0124
▁jt	-13.0129
rm	-13.0131
심한	-13.0132
력한	-13.0132
시켜	-13.0133
▁roll	-13.0137
▁해봐야	-13.0138
▁눈부	-13.0139
▁바람직하	-13.0141
명인	-13.0143
▁떼지	-13.0149
cs	-13.0151
▁스트레이	-13.0153
분명	-13.0157
▁마차	-13.0157
▁터뜨렸	-13.0158
▁살아남았	-13.0158
▁성장했	-13.0163
▁갇	-13.0165
파스	-13.017
▁유사하	-13.0172
▁주내	-13.0173
릅	-13.0173
▁flight	-13.0178
췌	-13.018
▁environment	-13.018
ortun	-13.0181
▁current	-13.0181
▁industr	-13.0181
▁something	-13.0181
▁survive	-13.0181
▁tibet	-13.0181
▁떠들썩	-13.0181
▁코스타리카	-13.0181
▁depart	-13.0181
▁john	-13.0181
▁louis	-13.0181
▁protect	-13.0181
▁마케도니아	-13.0181
▁버뮤다	-13.0181
ization	-13.0181
▁educat	-13.0181
▁univers	-13.0181
resort	-13.0181
▁informa	-13.0181
▁europe	-13.0181
▁잉글리	-13.0181
▁view	-13.0181
▁천체물리학	-13.0181
▁뜨겁	-13.0181
▁like	-13.0181
▁thunder	-13.0181
▁나가사키	-13.0181
▁advance	-13.0181
▁christ	-13.0181
▁ground	-13.0181
▁prince	-13.0181
▁holly	-13.0181
▁시뮬레이	-13.0181
▁수력발전	-13.0181
front	-13.0181
▁death	-13.0181
▁treat	-13.0181
▁도와줄	-13.0181
▁멈춘	-13.0181
▁monte	-13.0181
▁앙코르	-13.0182
▁견과류	-13.0182
▁무시무시	-13.0182
▁시아누크	-13.0182
▁price	-13.0182
▁뉴사우스웨일즈	-13.0182
▁thai	-13.0182
▁베이촨	-13.0182
▁헌팅턴	-13.0182
▁data	-13.0182
▁니미츠	-13.0182
▁스탠포드	-13.0182
▁gov	-13.0182
▁껴안	-13.0183
▁치뤘	-13.0183
▁벵갈	-13.0183
▁가까워질	-13.0183
▁유효하다	-13.0183
▁포르투	-13.0183
▁넘겨졌다	-13.0183
▁물들	-13.0184
▁팔렸	-13.0184
tory	-13.0184
▁빨아들이	-13.0184
▁곰곰	-13.0184
▁부딪쳐	-13.0184
▁레임스	-13.0184
▁헬싱	-13.0184
▁짓겠다	-13.0184
▁무면허	-13.0185
▁많아졌다	-13.0186
▁티그리스	-13.0186
▁메니안	-13.0186
▁봤는지	-13.0186
버리힐	-13.0186
싱턴	-13.0188
▁나가겠다	-13.0188
▁찾아낸	-13.0188
▁갇혀있었다	-13.0188
▁아노	-13.0188
▁만들겠다	-13.0189
▁원촨	-13.0189
▁하노운	-13.0189
▁르몽	-13.019
▁프린스턴	-13.0191
▁보내왔다	-13.0191
▁아이템	-13.0191
▁감싸고	-13.0191
▁첫인상	-13.0192
▁불행하게	-13.0192
▁넣으려	-13.0193
▁붙잡혔다	-13.0194
body	-13.0194
▁1939	-13.0194
▁패트리어	-13.0194
뚱한	-13.0195
▁혹독	-13.0195
▁두드러진	-13.0196
▁vo	-13.0196
카야마	-13.0196
▁서스펜	-13.0197
▁자노	-13.0197
▁저질러	-13.0197
▁자랑거리	-13.0199
▁춤추	-13.0199
연구	-13.0199
▁내려다보	-13.02
▁유통업	-13.02
▁auc	-13.0201
▁폐막	-13.0201
▁스발바	-13.0201
▁andro	-13.0201
▁소셜	-13.0201
▁벌이겠다	-13.0202
▁airport	-13.0203
▁애덤	-13.0203
▁솟아	-13.0203
▁product	-13.0207
▁미쳐	-13.0207
포르티	-13.0207
▁깨어나	-13.0208
▁밟았다	-13.0209
▁아톰	-13.0209
▁불충분	-13.0209
▁super	-13.021
pedia	-13.0211
hua	-13.0212
▁분분하다	-13.0213
▁휴렛	-13.0213
젠테	-13.0214
▁떠돌	-13.0217
▁부끄러	-13.0217
yb	-13.0217
▁파딜	-13.0218
▁중성자	-13.0218
▁채워진	-13.022
▁스위트	-13.022
▁지저분	-13.0221
▁shoot	-13.0221
▁갈아타	-13.0221
▁앞당기	-13.0222
▁런닝	-13.0224
▁가로지르	-13.0224
▁느껴지는	-13.0225
▁마츠시	-13.0225
▁부쳐	-13.0226
▁4300	-13.0226
파예	-13.0226
dd	-13.0226
▁추잡	-13.0227
▁무르타	-13.0227
▁6400	-13.0228
▁고통스러웠	-13.0229
▁다름	-13.0229
▁주춤	-13.0229
▁캘리	-13.023
▁유모	-13.0232
▁빨강	-13.0233
▁친절하	-13.0233
▁일어서	-13.0233
▁좋아할	-13.0234
▁당혹해	-13.0235
▁뽑히	-13.0236
▁243	-13.0237
▁4400	-13.0237
트릿	-13.0239
▁chan	-13.024
로우	-13.0241
nois	-13.0241
▁3300	-13.0244
ada	-13.0244
▁두드리	-13.0244
▁틀림없	-13.0245
▁740	-13.0245
▁bang	-13.0245
▁trop	-13.0246
▁pw	-13.0247
▁허베이	-13.0249
▁입주	-13.025
투자	-13.025
▁3400	-13.0252
이언	-13.0253
▁was	-13.0254
▁209	-13.0255
▁채우기	-13.0255
▁밟은	-13.0258
▁쿠츠	-13.0258
▁하니야	-13.0258
▁있듯	-13.0259
▁보내면서	-13.026
▁2600	-13.0261
▁바이코	-13.0261
▁풍부하다	-13.0262
▁근대	-13.0263
▁포커	-13.0263
▁줍	-13.0264
▁모여든	-13.0265
key	-13.0267
▁츄리	-13.0269
▁유치하고	-13.0271
▁칙	-13.0272
대우	-13.0272
▁농림	-13.0272
▁hill	-13.0274
▁고마운	-13.0274
▁멀어졌	-13.0276
▁낮아졌다	-13.0276
▁축산	-13.0277
▁남아있었다	-13.0277
▁부룬	-13.0277
▁불편함	-13.0278
나테	-13.0279
▁크지	-13.0281
▁1910	-13.0282
▁바샤	-13.0285
▁챙기	-13.0287
▁넓히	-13.0287
▁질레스	-13.0289
▁흐른다	-13.029
▁빠뜨리	-13.0291
▁make	-13.0292
▁솟	-13.0292
▁진주	-13.0292
▁네버	-13.0292
▁알고있	-13.0293
▁전초	-13.0293
▁ho	-13.0293
▁들렀다	-13.0296
▁망설이	-13.0296
▁살아나	-13.0297
▁피렌	-13.0298
▁산타바	-13.0298
블릭	-13.0303
▁제헌	-13.0303
▁당했었다	-13.0304
▁되돌리	-13.0304
▁돌아가셨	-13.0309
▁도와준다	-13.0309
트리스	-13.031
▁했듯	-13.031
▁죽여	-13.0312
asa	-13.0312
▁314	-13.0314
▁sur	-13.0318
▁떠나라	-13.0319
▁4200	-13.0319
▁빌었다	-13.032
34	-13.032
▁납작	-13.0324
▁윌리	-13.0327
▁듀브	-13.0329
▁두려워하는	-13.0329
▁밀레	-13.033
▁jung	-13.0331
▁유리하다	-13.0332
▁medi	-13.0332
▁올라타	-13.0337
▁짓는다	-13.0339
▁헤타	-13.034
▁찔리	-13.0341
▁놔두	-13.0342
▁통렬	-13.0342
템포	-13.0343
▁오비	-13.0349
▁팰러	-13.0349
▁신페인	-13.0349
▁미안하다	-13.035
아드	-13.0354
▁샤피	-13.0357
▁싫다	-13.036
▁두려웠	-13.036
▁1250	-13.0363
▁알렸	-13.0363
▁희박하다	-13.0367
▁다녀오	-13.0368
ough	-13.037
▁매킨	-13.037
▁육식	-13.0371
브레라	-13.0371
▁gett	-13.0379
▁힐스	-13.0381
▁884	-13.0383
▁늘리려	-13.0384
어오는	-13.0384
▁ver	-13.0385
미노	-13.0386
▁리미	-13.0386
▁혼례	-13.0389
lash	-13.0389
쳐져	-13.039
▁다치	-13.039
han	-13.0394
ips	-13.0394
▁즐거워하	-13.0395
▁정치학	-13.0398
▁어두워	-13.0399
▁magi	-13.04
▁스패	-13.04
▁모으기	-13.0403
▁요양	-13.0403
▁듣는다	-13.0407
▁뽑혔다	-13.0408
▁황당	-13.0411
▁cross	-13.0413
다니	-13.0414
▁카퍼	-13.042
▁챙긴다	-13.042
▁커크	-13.042
▁buck	-13.0424
▁break	-13.0426
▁거슬리	-13.0427
▁외과의	-13.0428
에너지	-13.0435
세츠	-13.0437
었기	-13.0437
▁gi	-13.0438
▁정해져	-13.0438
▁옮기기	-13.0438
보프	-13.0438
▁페데	-13.044
▁실패하	-13.0442
▁자웅	-13.0444
▁베케	-13.0447
▁올리려	-13.0448
▁퇴적	-13.045
▁레베	-13.045
▁대등	-13.0452
▁기발	-13.0456
▁날아간	-13.0459
상원	-13.0462
▁804	-13.0465
세스	-13.0467
▁그렇지만	-13.0468
▁낮추기	-13.0471
▁뿌렸다	-13.0474
hip	-13.0477
▁340	-13.0477
▁판문	-13.0478
▁나면	-13.0479
▁토착	-13.0481
▁믿어	-13.0482
▁동일하다	-13.0483
▁마운	-13.0485
십니	-13.0485
▁샬리	-13.0487
바니아	-13.0488
▁람	-13.0498
▁맞먹는다	-13.05
▁133	-13.05
▁살피	-13.0504
▁다크	-13.0506
▁mobil	-13.0508
▁필요하기	-13.051
▁244	-13.0511
▁아드리아	-13.0513
▁불변	-13.0513
▁커질	-13.0516
▁망상	-13.0518
▁바칠	-13.052
▁후투	-13.0523
faw	-13.0523
▁홉스	-13.0525
▁부재	-13.0531
키르	-13.0532
▁cry	-13.0534
현상	-13.0535
▁몰려왔	-13.054
▁김지	-13.0541
줘	-13.0543
아기	-13.0547
턴트	-13.0548
▁ji	-13.0552
떨어진	-13.0552
요구	-13.0553
▁정족	-13.0554
▁심오	-13.0556
ot	-13.0561
ual	-13.0562
▁얻는다	-13.0565
itar	-13.0568
스쿠	-13.0568
▁늦었다	-13.057
▁멈췄다	-13.0573
▁일어나기	-13.0575
모니	-13.0576
▁저급	-13.0579
▁말았	-13.0581
▁브러	-13.0582
▁미완	-13.0583
내야	-13.0584
네소	-13.0585
질서	-13.0589
야마	-13.0589
▁코토	-13.059
▁돌았	-13.0591
▁자랄	-13.0593
▁인정받았다	-13.0594
▁풀리아	-13.0595
▁차이텐	-13.0597
666	-13.0598
우려	-13.0599
▁벗어나려	-13.0601
▁키우기	-13.0607
▁더해	-13.0611
올라	-13.0612
▁cap	-13.0613
▁에어로	-13.0617
인물	-13.0618
어설	-13.0619
▁애비	-13.0619
사리	-13.0622
▁보울	-13.063
하려는	-13.0631
▁두렵다	-13.0633
ie	-13.0633
안전	-13.0634
▁쌓이	-13.0634
▁느끼기	-13.0637
반대	-13.0638
▁깨웠	-13.0638
▁곱슬	-13.0639
▁나눠주	-13.0644
▁town	-13.065
컴퓨	-13.0659
▁부각시키	-13.066
물고	-13.0661
▁유명하지	-13.0662
▁기독	-13.0663
▁시더	-13.0666
▁주니	-13.0666
896	-13.0671
ack	-13.0671
▁들린다	-13.0673
계엄	-13.0673
▁circu	-13.0675
▁카운트	-13.0676
▁창작	-13.0678
▁이겨내	-13.0678
▁아로	-13.0681
▁지킨	-13.0682
사드	-13.0686
04	-13.0689
▁astron	-13.0692
▁증류	-13.0699
카니	-13.07
▁빠져나	-13.0705
혔	-13.0707
▁democra	-13.0709
pus	-13.0709
▁믿고있다	-13.071
▁맡겼	-13.071
▁어두	-13.0713
▁ans	-13.0713
▁끊는	-13.0713
▁222	-13.0717
하나	-13.0717
▁코코	-13.0719
아메리칸	-13.0722
▁pet	-13.0723
교리	-13.0725
▁세운다	-13.0728
▁떨어지면	-13.0729
▁타락	-13.0731
▁123	-13.0733
▁헤어지	-13.0734
▁바뀌어	-13.0736
▁배운	-13.0747
지나	-13.0748
ospi	-13.0752
▁탕	-13.0753
llow	-13.0763
▁par	-13.0764
즉	-13.0764
▁나갈지	-13.0774
▁의해서	-13.0779
▁부적합	-13.0779
ull	-13.0782
▁시키라	-13.0785
로렌스	-13.0786
▁세우기	-13.0787
▁벨로	-13.0789
▁증파	-13.0791
pain	-13.0791
▁나시	-13.0794
존슨	-13.0794
▁페트로	-13.0795
▁아니라면	-13.0796
▁따라가	-13.08
▁끊었다	-13.0801
티크	-13.0808
▁골목	-13.0814
▁토이	-13.0815
ry	-13.0818
보니	-13.0818
▁121	-13.0823
▁bell	-13.0824
▁simp	-13.0824
▁재경	-13.0826
브르	-13.0831
▁바이런	-13.0836
▁찾아왔다	-13.0837
▁훌륭하	-13.0839
장갑	-13.0845
흔	-13.0848
▁넣는다	-13.0851
367	-13.0852
▁졌	-13.0852
▁살고있다	-13.0853
드리	-13.0856
▁내려가면	-13.0857
수레	-13.0857
▁오페	-13.0859
▁호브	-13.0866
▁즐비하	-13.087
ray	-13.0871
리장	-13.0872
▁협동	-13.0874
▁좁아	-13.0878
▁백상	-13.0879
sche	-13.0881
road	-13.0889
뜨	-13.0895
▁사우	-13.0898
▁유색	-13.09
▁장마	-13.0903
▁비췄	-13.0904
▁과일	-13.0909
▁commi	-13.0909
▁wall	-13.0909
▁비추는	-13.091
▁과식	-13.0911
▁안호	-13.0911
▁라소	-13.0914
▁스러	-13.0916
▁뛰어나	-13.0917
clu	-13.0918
▁정직하	-13.0919
▁릿	-13.092
▁깔려	-13.0922
▁자마	-13.0924
▁ch	-13.0932
▁무법	-13.0934
dule	-13.0941
▁태웠	-13.0947
▁똑똑하	-13.0948
▁지름	-13.0955
▁퍼디	-13.0955
▁지주	-13.0959
▁report	-13.0963
▁미시	-13.097
▁ger	-13.0972
▁무브	-13.0977
리모	-13.0979
테로	-13.0982
servation	-13.0988
▁갈루	-13.0994
▁스페	-13.0995
혁	-13.0995
▁여겼다	-13.1
▁725	-13.1001
오고	-13.1002
▁per	-13.1004
▁para	-13.1005
따르	-13.1011
▁인격	-13.1011
▁미루	-13.1011
자원	-13.1013
저우	-13.1019
▁고가	-13.1021
▁존속	-13.1027
호흡	-13.103
94	-13.1032
▁수잔	-13.1038
▁벗어났	-13.1039
샤르	-13.1041
dition	-13.1043
쓸	-13.1044
▁세바스	-13.1044
서야	-13.1048
▁블랙스	-13.105
aff	-13.1052
▁루이지	-13.1053
ors	-13.1058
imate	-13.106
▁익숙	-13.1062
▁문제해결	-13.1065
누르	-13.1067
▁도우	-13.1075
▁가벼워	-13.1075
▁중개	-13.1076
▁판세	-13.1077
▁여긴다	-13.1079
q	-13.108
레그	-13.1082
메스	-13.1085
▁무정부	-13.1087
▁적벽	-13.1089
▁브런	-13.109
브리디	-13.1091
▁분노했다	-13.1094
▁초동	-13.1097
▁나오다	-13.11
▁들어가자	-13.11
▁열려있	-13.1103
▁파룬	-13.111
world	-13.1114
▁오른다	-13.1118
▁166	-13.1123
▁나빠	-13.1131
each	-13.1133
▁레일	-13.1136
수상	-13.1137
확	-13.1141
▁부적절하다	-13.1148
르바체	-13.1151
late	-13.1151
찾기	-13.1151
비브	-13.1154
래피	-13.1161
▁gd	-13.1162
▁spi	-13.1162
▁soft	-13.1164
정학	-13.1165
hs	-13.1168
▁노점	-13.1168
▁익숙하지	-13.117
에릭	-13.1173
리어	-13.1174
ve	-13.1175
gm	-13.1178
visi	-13.1178
메르	-13.1182
▁했었던	-13.1184
위생	-13.1191
리브	-13.1198
▁걸치	-13.12
▁도밍	-13.1203
스럽	-13.1204
rsa	-13.1207
▁성장한다	-13.121
었다면	-13.1213
꾸	-13.1215
▁붙는	-13.1219
▁cha	-13.1228
▁메레	-13.1238
▁분별	-13.124
어머니	-13.1246
차이나	-13.1249
▁되찾았	-13.1253
▁let	-13.1258
▁지각	-13.1267
▁관개	-13.1269
▁옮겼	-13.1274
▁pho	-13.1274
▁안사	-13.1277
미컬	-13.1291
레이트	-13.1294
dale	-13.1294
▁찍는	-13.13
▁비하	-13.1302
▁버려지	-13.1304
▁나가기	-13.1306
▁fund	-13.1306
▁근면	-13.1308
▁가디	-13.1311
▁해보라	-13.1311
▁진압했	-13.1312
▁sm	-13.1316
느리	-13.1317
▁164	-13.1317
▁찍고	-13.1318
가야	-13.1321
브랑	-13.1339
ial	-13.1343
뛰	-13.1345
▁지나자	-13.1346
▁자랐으	-13.1347
▁갖추어	-13.1347
▁선구	-13.1348
▁성장했다	-13.1348
shine	-13.1349
랄라	-13.1351
파이어	-13.1356
부여	-13.1356
▁실크	-13.136
▁해지	-13.1364
▁he	-13.1371
ese	-13.1374
767	-13.1378
드류	-13.1382
▁부러	-13.1385
뜨려	-13.1391
▁맥카	-13.1396
▁가한	-13.1397
타자	-13.1397
▁높이는	-13.14
▁sol	-13.1415
비난	-13.1416
▁먹었	-13.1424
걸음	-13.1425
▁mem	-13.1426
▁만들어진다	-13.1433
98	-13.1434
▁회복하는	-13.1434
동식	-13.1438
▁play	-13.144
멀	-13.1441
▁디바	-13.1442
대차	-13.145
▁무의미	-13.1453
▁디르	-13.1456
이든	-13.146
여름	-13.1461
▁토트	-13.1462
▁순환	-13.1463
루이	-13.1466
▁후세	-13.1466
식량	-13.1467
big	-13.1471
td	-13.1471
▁cor	-13.1471
salem	-13.1471
한국	-13.1474
▁sec	-13.1474
러질	-13.1475
▁체르	-13.1478
궐	-13.1479
▁군사정	-13.1479
▁실망한	-13.148
▁궈	-13.1485
청문	-13.1488
팜	-13.1488
붙이	-13.149
샘	-13.149
▁고막	-13.1496
▁슬퍼하	-13.1501
이슬람	-13.1505
엑	-13.1511
닭	-13.1517
대화	-13.1518
▁마지	-13.1521
▁행해	-13.1532
hp	-13.1544
베르티	-13.1548
▁갈라놓	-13.155
▁져	-13.1552
콰이어	-13.1553
▁허비	-13.1565
▁가문	-13.1569
▁분개하	-13.1575
955	-13.1576
메탈	-13.1576
build	-13.158
▁훔쳤다	-13.1581
▁레게	-13.1581
▁gf	-13.1585
▁rom	-13.1588
유엔	-13.159
▁236	-13.159
▁가서	-13.159
▁키부	-13.1591
안경	-13.1591
stra	-13.1591
런칭	-13.1593
▁줄인	-13.1599
물병	-13.1604
▁ds	-13.1606
▁내려다	-13.1614
▁자히	-13.162
피카	-13.162
67	-13.1621
제네	-13.1621
▁비데	-13.1626
▁비슷하	-13.1632
▁조용하	-13.1635
▁sf	-13.1645
예보	-13.1649
▁756	-13.1657
쿠르	-13.1658
▁cr	-13.166
▁ae	-13.1661
▁원했	-13.167
▁분주하	-13.1673
탄생	-13.1677
키기	-13.168
tc	-13.1689
▁조이	-13.169
사상	-13.1691
뮤	-13.1694
▁로체	-13.1699
▁scar	-13.17
ert	-13.1701
노동	-13.1704
경부	-13.1709
ian	-13.1725
팔로	-13.1732
당겨	-13.1735
분별	-13.1746
pac	-13.175
리비	-13.1754
로페	-13.1755
ag	-13.1757
실수	-13.1758
기후	-13.1765
rtl	-13.1769
▁야할	-13.1774
▁메사	-13.1775
라면서	-13.1776
▁똑똑	-13.1776
all	-13.1779
▁윈스	-13.1782
▁되었으	-13.1784
▁159	-13.1786
인터	-13.1789
▁에딘	-13.1803
비어	-13.1807
ire	-13.1811
▁미주	-13.1812
▁내려져	-13.1813
▁시공	-13.1816
▁299	-13.1823
▁여겼	-13.1826
▁할것이	-13.1835
▁겐	-13.1838
도밍	-13.184
▁men	-13.1846
아닌	-13.185
▁받아들여지	-13.1855
140	-13.1858
가르트	-13.1859
인터넷	-13.1861
않을	-13.1867
▁toy	-13.1872
yan	-13.1878
▁높기	-13.1881
▁섞여	-13.1885
▁줄어들었	-13.1893
▁꿈이었	-13.1894
38	-13.1897
카트	-13.1906
▁move	-13.1906
▁geo	-13.1909
▁def	-13.1909
▁mari	-13.1912
▁무모	-13.1912
▁앞서있	-13.1922
rp	-13.1929
▁담겼	-13.1931
서비스	-13.1935
▁강인	-13.1938
엔드	-13.1938
▁구이	-13.195
min	-13.1962
▁키프	-13.1965
아직	-13.1967
nd	-13.1969
mer	-13.1975
▁입으면	-13.1977
▁서리	-13.1979
내렸다	-13.1987
van	-13.1991
nger	-13.1998
과학자	-13.1999
브론	-13.2005
슈트	-13.2007
스케이	-13.201
▁어겼	-13.2012
▁옮긴	-13.2012
▁내려지	-13.2013
▁고스트	-13.2015
▁strai	-13.2016
▁월프	-13.2019
▁뛰어들	-13.2021
▁모여있	-13.2022
▁죽이	-13.2034
해졌	-13.2037
▁즐비	-13.2037
aint	-13.2046
베트	-13.205
▁회복해	-13.2066
let	-13.2069
▁많아지	-13.2076
▁날씬	-13.2088
▁지게	-13.2091
방학	-13.2097
bn	-13.2115
▁유교	-13.212
▁있었다면	-13.2122
▁맞으면	-13.2123
866	-13.2126
▁불공평	-13.2144
▁피노	-13.2146
노소	-13.2154
윈스	-13.2156
▁총무	-13.2158
▁찍혔	-13.2165
▁정해졌	-13.2173
▁이어졌	-13.2175
▁154	-13.2176
rol	-13.2177
▁207	-13.2181
ir	-13.2187
▁붓	-13.2187
레토	-13.2189
▁개주	-13.219
▁rain	-13.2196
▁앞당	-13.2199
▁트로	-13.2205
nz	-13.2208
▁주워	-13.221
엔도	-13.2215
▁가시	-13.2216
모터	-13.2221
▁해낸	-13.2226
under	-13.2226
▁마요	-13.2229
친다	-13.224
어지	-13.224
▁사립	-13.2243
블라	-13.2245
탬	-13.2248
▁궁금해	-13.2249
▁사물	-13.2257
58	-13.2257
▁바라본	-13.2264
▁466	-13.2268
▁whi	-13.2275
▁모스코	-13.2281
수익	-13.2285
렌지	-13.2287
▁ins	-13.2288
▁kill	-13.2292
▁맞먹는	-13.2297
카인	-13.2307
▁가운	-13.2309
isi	-13.2312
렸었다	-13.2317
사피	-13.2319
방전	-13.233
▁케미	-13.2333
▁안토	-13.2334
▁망설	-13.2335
▁성황	-13.2339
보면서	-13.2342
▁ena	-13.2344
▁뒀	-13.2348
디나	-13.2352
▁끊겼	-13.2354
먹는다	-13.2361
코트	-13.2361
▁기다렸	-13.2363
중단	-13.2368
▁깨끗하	-13.2372
▁여겨	-13.2373
▁항만	-13.2377
부담	-13.2377
나마	-13.2379
새로	-13.2384
루시	-13.2385
rti	-13.2388
▁오트	-13.2391
▁카사	-13.2394
▁놓였	-13.2396
▁초라	-13.2401
▁167	-13.2409
▁컸	-13.2409
신성	-13.2412
▁우아	-13.2416
▁샤이	-13.2417
ban	-13.2421
페스	-13.243
tac	-13.2436
구석	-13.2437
경쟁	-13.2438
▁187	-13.2439
▁맛보	-13.245
ood	-13.2452
▁배당	-13.2452
nos	-13.2453
드벤처	-13.2477
▁남겼	-13.2483
브라더	-13.2485
zon	-13.2485
▁해롭	-13.2492
▁셀레	-13.2498
▁어리	-13.25
▁받치	-13.2501
말론	-13.2503
▁해졌	-13.2518
▁코노	-13.2521
▁낳았	-13.2525
▁이루어졌	-13.2526
▁만족스러	-13.2533
▁정중	-13.2534
▁더럽	-13.254
일라	-13.2542
863	-13.2543
▁평화로	-13.2545
▁755	-13.2547
된다고	-13.2549
▁않고서	-13.2551
▁끼치	-13.2566
▁케어	-13.2567
퍼레이	-13.2582
▁빠져나오	-13.2588
▁세였	-13.259
▁palm	-13.2594
었으	-13.2594
ut	-13.2597
국회	-13.2597
렸을	-13.2607
▁쇠약	-13.2607
▁사들였	-13.2621
▁오르면	-13.2624
▁미르	-13.2629
▁채워져	-13.2633
니지	-13.2634
01	-13.2637
▁144	-13.2639
▁142	-13.2642
▁베트	-13.2653
▁외쳤	-13.2654
아가라	-13.2658
▁잊혀	-13.2662
▁낚	-13.2663
▁qu	-13.2667
촨	-13.267
▁데보	-13.2673
▁233	-13.2675
804	-13.2677
▁빅토리	-13.2678
살인	-13.2679
▁하와	-13.268
낌	-13.2681
inconven	-13.2681
▁account	-13.2681
▁chronicle	-13.2681
▁cruise	-13.2681
▁economic	-13.2681
▁independen	-13.2681
▁jihad	-13.2681
▁mirror	-13.2681
▁refuge	-13.2681
▁스트라디바리	-13.2681
▁아슬아슬	-13.2681
▁워밍업	-13.2681
▁젤웨거	-13.2681
▁파이낸셜타임	-13.2681
eopard	-13.2681
▁somebody	-13.2681
▁파슈툰	-13.2681
▁court	-13.2681
▁trans	-13.2681
▁quant	-13.2681
▁뉘우치	-13.2681
▁농림수산	-13.2681
▁평방킬로미터	-13.2681
▁impro	-13.2681
▁paul	-13.2681
▁흑색선전	-13.2681
▁macho	-13.2681
▁help	-13.2681
▁엠파이어	-13.2681
▁호치민	-13.2681
▁관현악	-13.2681
▁샌드위치	-13.2681
▁rocket	-13.2681
▁알아본다	-13.2681
▁오레곤	-13.2681
▁happy	-13.2682
▁흩어졌다	-13.2682
▁소프라노	-13.2682
▁데려갔다	-13.2682
▁샌드허	-13.2682
▁esca	-13.2682
▁마땅하다	-13.2682
▁알리안츠	-13.2682
▁연쇄살인	-13.2682
▁캄페	-13.2682
▁스레브레	-13.2682
▁웅크리	-13.2682
▁대상포진	-13.2682
▁todd	-13.2682
▁save	-13.2682
▁옳았다	-13.2682
▁never	-13.2682
▁weight	-13.2682
▁bomb	-13.2682
▁billy	-13.2683
▁divers	-13.2683
▁near	-13.2683
manche	-13.2683
▁데려갈	-13.2683
▁진시황	-13.2683
▁흘러나오	-13.2683
▁올림피아	-13.2683
피언스	-13.2683
▁시급하다	-13.2684
▁능숙	-13.2684
▁되돌아왔다	-13.2684
▁bloom	-13.2684
▁fight	-13.2684
▁리오데자네이	-13.2684
▁샬롯	-13.2684
▁fig	-13.2684
▁bot	-13.2684
▁닥쳐	-13.2685
▁괴롭힌	-13.2685
캐롤라이나	-13.2685
▁그만둔	-13.2685
라웨시	-13.2685
▁이뤄져	-13.2685
▁흥청	-13.2686
▁도망갈	-13.2686
▁비통함	-13.2686
ient	-13.2686
▁흘러나온	-13.2686
▁밝아지	-13.2686
ldl	-13.2686
▁관대함	-13.2687
▁ptw	-13.2687
▁폼페이	-13.2687
▁뛰어나왔	-13.2687
▁예카테	-13.2687
▁흘러내려	-13.2687
▁엄숙	-13.2688
▁부도덕	-13.2688
▁달려갔	-13.2688
▁앵무	-13.2689
▁regi	-13.2689
▁메콩	-13.2689
▁인디펜	-13.2689
▁petro	-13.2689
▁쟁탈	-13.269
▁일급	-13.2691
▁쏘였다	-13.2691
▁떠들어	-13.2691
▁8900	-13.2691
▁폐쇄조치	-13.2692
▁잠들었다	-13.2692
▁다우닝	-13.2693
▁뒤엎는	-13.2693
▁다가올	-13.2693
▁레닌	-13.2693
▁어찌	-13.2693
▁어긋나	-13.2694
▁relation	-13.2694
▁응급구조대	-13.2694
▁뒤따르	-13.2694
▁불투명	-13.2694
▁쓸모	-13.2694
▁잘랐다	-13.2694
▁560	-13.2695
▁브램	-13.2695
ody	-13.2696
립니다	-13.2696
oas	-13.2696
▁헌팅	-13.2696
▁ipod	-13.2696
▁dub	-13.2697
▁1951	-13.2698
dam	-13.2698
▁돋아	-13.2699
▁마땅	-13.2699
▁생겨난	-13.27
▁카멜	-13.27
olution	-13.2701
▁아드레	-13.2701
▁알리겠다	-13.2701
▁살아났다	-13.2701
▁죽이려	-13.2702
▁내려왔다	-13.2702
▁구부리	-13.2702
hur	-13.2703
▁엑슨	-13.2703
앨범	-13.2704
▁움직인다	-13.2706
▁쫓겨나	-13.2708
▁1770	-13.2709
▁나가노	-13.2709
▁6800	-13.271
▁드세이	-13.2711
pray	-13.2711
▁computer	-13.2713
▁불규칙	-13.2714
▁흥미롭게	-13.2715
▁보냈었다	-13.2715
▁coming	-13.2716
stick	-13.2716
▁2070	-13.2717
▁떼어내	-13.2717
▁드롭	-13.2718
▁않았습니다	-13.2718
▁베닝	-13.272
▁얻어지는	-13.272
▁spe	-13.272
▁어획	-13.2723
▁쓰였다	-13.2724
▁끼어	-13.2726
인민	-13.2727
▁조인	-13.2729
▁록키	-13.2729
▁가르친	-13.273
▁앨버	-13.273
▁온다	-13.2732
▁티엔	-13.2732
▁870	-13.2733
▁335	-13.2734
▁섹시함	-13.2735
gress	-13.2736
▁financ	-13.2737
▁카브레	-13.2739
nsf	-13.2739
▁탐색	-13.274
▁돋보이	-13.274
▁떠들	-13.2741
▁옳다고	-13.2741
▁스틸러	-13.2742
▁휘두	-13.2745
▁잠잠해	-13.2745
▁2024	-13.2747
▁마하라	-13.2748
▁나톨	-13.2748
▁가둬	-13.275
▁인플레	-13.275
▁페예	-13.2752
▁받았는지	-13.2752
▁쉬퍼	-13.2752
▁explore	-13.2753
shop	-13.2754
▁워리	-13.2754
▁먹여	-13.2756
있기	-13.2756
▁날카롭	-13.2756
fec	-13.2757
▁되기까지	-13.2757
▁프린터	-13.2757
조종	-13.2758
▁무서워	-13.2758
▁생겨났다	-13.276
▁train	-13.2761
▁되리라	-13.2761
▁셀린	-13.2761
▁난처해	-13.2762
▁고소했	-13.2763
▁mid	-13.2763
▁행복해	-13.2763
▁2780	-13.2764
▁찌르	-13.2765
▁소형차	-13.2767
▁날아올랐	-13.2767
▁비정	-13.2767
▁6200	-13.2767
▁그만뒀	-13.2767
▁사라졌고	-13.2768
▁넘어뜨렸	-13.277
icc	-13.277
▁grand	-13.2772
▁포르토	-13.2774
ppr	-13.2775
▁라이온	-13.2775
▁살아야	-13.2777
▁거쳤	-13.2777
▁강해졌다	-13.2778
▁묻혀있다	-13.2778
▁하이파	-13.2779
▁어지러	-13.2779
▁성공하	-13.278
▁울려	-13.278
▁빙설	-13.2781
▁부재자	-13.2782
▁스파크	-13.2782
ward	-13.2783
▁쿨리	-13.2783
▁저리	-13.2786
▁만족스럽	-13.2788
▁더워지	-13.279
▁네온	-13.2791
▁eurost	-13.2792
▁저지르기	-13.2794
▁법의학	-13.2795
▁1520	-13.2796
나잇	-13.2797
▁쉬었다	-13.2797
▁배워	-13.2799
▁트셔	-13.2799
▁아넬	-13.2799
▁아랍에미	-13.2801
▁괴롭혔다	-13.2801
▁엘버	-13.2802
▁1280	-13.2803
▁터트렸	-13.2807
▁익히	-13.2807
▁읽었	-13.2807
▁남아있을	-13.2808
▁헤스	-13.281
▁person	-13.281
▁특별하다	-13.2812
블로	-13.2814
▁블랑	-13.2818
▁이력서	-13.2819
▁곱	-13.282
▁멀었다	-13.282
▁복잡해진	-13.2821
▁구룡	-13.2821
▁베탕	-13.2825
웨인	-13.2827
▁인수전에	-13.2833
▁메노	-13.2836
시험	-13.2837
▁않았는데	-13.2838
▁약해진	-13.2839
시민	-13.284
▁들렸	-13.2841
티넨	-13.2847
▁멀어	-13.2853
▁빌려	-13.2855
▁legal	-13.2855
쉬워	-13.2857
▁잡아먹	-13.2857
thod	-13.2858
▁커졌	-13.2858
nau	-13.2858
마다	-13.2858
▁텐바	-13.2861
▁옮겨진	-13.2862
▁테츠	-13.2863
▁유픽	-13.2863
▁흩어지	-13.2868
▁감춰	-13.2868
정작	-13.2869
▁대까지	-13.287
sl	-13.2875
▁복잡하고	-13.2875
에라	-13.2878
▁해내	-13.2878
▁숙면	-13.2881
▁uta	-13.2882
이던	-13.2882
▁경솔	-13.2883
▁액티	-13.2883
▁harv	-13.2884
wake	-13.2886
▁삽	-13.2892
▁쫓기	-13.2895
▁잡혀있다	-13.2897
▁어드벤	-13.2897
▁174	-13.2897
일한	-13.2899
신교	-13.2901
▁제철	-13.2902
▁브릿	-13.2907
▁빼내	-13.2907
▁약해지	-13.2907
alia	-13.2908
▁끌어내리	-13.291
▁평행	-13.2918
▁기르고	-13.2918
anna	-13.292
▁cru	-13.2923
▁smi	-13.2925
힌다	-13.2926
500	-13.2926
▁잠겨있	-13.2927
▁nab	-13.2928
너리	-13.2932
700	-13.2934
▁감사하	-13.2936
▁여채	-13.2938
▁208	-13.2941
▁보여진다	-13.2941
부크	-13.2944
▁숨겼다	-13.2946
▁죄송하다	-13.2947
▁ala	-13.2951
▁rob	-13.2953
▁늦추지	-13.2954
▁가뒀다	-13.2954
▁집무	-13.2955
▁제설	-13.2956
▁짧다	-13.2958
▁토목	-13.2963
▁폴란	-13.2963
▁광란	-13.2963
ism	-13.2964
▁의심스	-13.2976
▁wear	-13.2976
▁엄연	-13.2976
per	-13.2977
972	-13.2978
ua	-13.2981
▁추하다	-13.2983
▁고령	-13.2983
▁tea	-13.2985
▁보내졌	-13.2986
▁오드	-13.2987
▁몰레	-13.2994
mand	-13.2997
▁풀어주기	-13.2999
▁ass	-13.3001
▁보네	-13.3002
▁패스트	-13.3003
▁엄청나다	-13.3006
ense	-13.3007
ill	-13.3014
▁맹장	-13.3015
▁나열한	-13.3017
▁분개한	-13.3022
▁안겨주	-13.3024
▁jun	-13.3026
▁215	-13.3027
▁파슈	-13.3028
▁파고들	-13.303
살해	-13.3034
▁근위	-13.3037
▁높았	-13.3037
▁솔레	-13.3038
트럼	-13.3038
살이	-13.3038
▁퍼붓는	-13.3038
▁163	-13.304
▁고통스럽다	-13.3046
umb	-13.3047
▁웬디	-13.3049
호주	-13.305
▁피우기	-13.3051
브루	-13.3052
ila	-13.3052
▁268	-13.3052
▁jul	-13.3053
ath	-13.3054
▁dif	-13.3055
▁liv	-13.3057
하겠다	-13.3057
케트	-13.3058
▁530	-13.3059
▁허난	-13.3059
▁바꾼다	-13.3061
▁끊기	-13.3068
쳐진	-13.3069
253	-13.3069
▁부당하다	-13.3069
▁자였	-13.3072
▁스커	-13.3072
▁배운다	-13.3073
▁wy	-13.3075
관광	-13.3076
▁좋아해	-13.3079
▁피웠	-13.308
03	-13.3081
티튜	-13.3083
▁ft	-13.3084
할만	-13.3086
pher	-13.3093
▁그리노	-13.3094
▁반사	-13.3097
베스트	-13.31
hi	-13.3104
▁뛰어다니	-13.3109
▁reli	-13.3109
▁기다린	-13.311
▁bloo	-13.3111
▁옷가	-13.3111
▁플랑	-13.3113
tra	-13.3113
▁헤아	-13.3116
▁행복하다	-13.3119
▁하사	-13.3123
▁알덴	-13.3123
▁pic	-13.3124
ska	-13.3126
▁중형	-13.3129
▁놓여있	-13.3131
▁작동시키	-13.3132
▁mars	-13.3135
▁김성	-13.3138
▁하자는	-13.3139
▁탁월	-13.3141
▁꾸며졌	-13.3144
우편	-13.3147
▁산호	-13.3149
▁객관	-13.3151
▁지켜보자	-13.3152
치하	-13.3157
rgin	-13.3158
▁171	-13.3162
▁눌	-13.3162
뉴욕	-13.3162
▁천문	-13.3166
▁였다면	-13.3171
▁내려놓	-13.3172
edia	-13.3173
▁떠나야	-13.3175
▁흘러내	-13.3175
▁발루	-13.3179
▁좋아진다	-13.318
가능성	-13.3183
▁빠지고	-13.3186
이용	-13.3186
ec	-13.3188
▁소사	-13.3188
▁머신	-13.3188
▁작다	-13.3193
▁타타	-13.3193
qui	-13.3194
워즈	-13.3194
스프레	-13.3196
절하	-13.3197
rena	-13.3198
▁안전모	-13.3198
▁덴다	-13.3202
▁떨어져있다	-13.3206
▁극우	-13.3208
ant	-13.3208
▁associate	-13.3209
단하다	-13.3212
▁샌드	-13.3212
▁목초	-13.3213
▁발기	-13.3215
정도	-13.3217
▁갔는지	-13.3218
▁폐회	-13.3221
▁213	-13.3223
▁심하	-13.3224
제작	-13.3225
리건	-13.3226
▁못마땅하	-13.3227
▁카프	-13.3227
▁활발하	-13.3227
▁장수	-13.3232
▁복음	-13.3232
▁소리치	-13.3239
아삭	-13.3246
▁격화	-13.3252
▁벌였으	-13.3252
▁되나	-13.326
▁외친	-13.3261
ten	-13.3261
로하	-13.3269
카이	-13.3271
▁protein	-13.3273
▁의심스러	-13.3276
▁일수	-13.3276
▁say	-13.3277
▁스칸	-13.3281
하길	-13.3283
있었	-13.3285
▁kc	-13.3285
▁ballo	-13.3286
▁팩커드	-13.3288
▁망쳐	-13.3292
▁위독	-13.3293
ethic	-13.3293
1914	-13.3302
▁싱크	-13.3307
▁board	-13.3311
▁털리	-13.3311
▁fit	-13.3312
▁몰아치	-13.3315
▁293	-13.3317
스피	-13.3318
▁pur	-13.3319
▁라커	-13.332
joins	-13.332
바다	-13.3323
해군	-13.3325
▁커먼	-13.3326
▁부러졌다	-13.3326
▁울었다	-13.3328
▁afl	-13.3328
▁pu	-13.3328
▁돼있지	-13.3329
르디	-13.3332
성사	-13.3333
▁sport	-13.3333
▁모자라	-13.3334
싶다	-13.3336
▁크셔	-13.3338
▁자랐다	-13.3338
▁알아봤다	-13.3339
▁부추	-13.3341
▁느껴졌다	-13.3341
▁필로	-13.3342
▁기이	-13.3344
▁rings	-13.3349
urge	-13.335
ding	-13.3351
체포	-13.3351
nes	-13.3353
드릭	-13.3357
ha	-13.336
▁상투	-13.3365
▁기다리다	-13.3365
바람	-13.3367
▁잊어버	-13.3367
▁끊었	-13.3367
▁나카	-13.3369
비디오	-13.3372
드런	-13.3373
▁넘기기	-13.3375
▁뜨이	-13.3376
▁wf	-13.3377
▁롤스	-13.3377
상아	-13.3382
and	-13.3382
▁neo	-13.3383
벌이	-13.3384
▁마취	-13.3385
▁hon	-13.3387
트워	-13.3388
king	-13.3389
테르	-13.3391
사르	-13.3393
▁버려졌	-13.3395
▁부름	-13.3399
ho	-13.34
이티	-13.3408
▁시엔	-13.341
np	-13.3425
▁게타	-13.3425
근무	-13.3426
tune	-13.3429
▁마리안	-13.3429
▁멈	-13.343
57	-13.3432
▁적어놓	-13.3435
넘	-13.3438
lim	-13.344
▁수신	-13.344
▁빌어	-13.344
지적	-13.3442
▁티라	-13.3448
▁sus	-13.3454
▁ar	-13.3463
▁였음	-13.3464
▁체이	-13.3466
마오	-13.3468
▁soci	-13.3472
▁고르지	-13.3475
▁스러워	-13.3478
▁station	-13.348
▁보여주려	-13.3481
▁사였	-13.3481
▁창의	-13.3482
▁메트	-13.3482
▁자이로	-13.3482
▁전도	-13.3484
port	-13.3486
▁덮치	-13.3488
▁109	-13.3488
아니	-13.3489
파룬	-13.3491
▁res	-13.3492
▁브리스	-13.3498
▁해있	-13.35
▁way	-13.3506
▁보내진	-13.351
▁궁금해하	-13.3514
▁이상하다	-13.3519
▁혼바	-13.352
▁tas	-13.3522
uit	-13.3522
▁넓혀	-13.3523
션스	-13.3523
타지	-13.3523
ano	-13.3527
경사	-13.3528
미오	-13.3531
▁쌓았	-13.3533
▁얼리	-13.3534
우고	-13.3534
트페	-13.3539
▁메우	-13.3539
▁격렬해	-13.3542
기까지	-13.3542
▁comm	-13.3543
▁타라	-13.3546
▁선거전	-13.3555
▁해켓	-13.3556
러져	-13.3566
▁불안정해	-13.3569
턴스	-13.3571
서방	-13.3576
▁깊어	-13.3579
▁301	-13.358
▁315	-13.3581
이네	-13.3581
nas	-13.3582
ks	-13.3587
▁hu	-13.3588
디야	-13.3598
▁살이었	-13.3599
▁march	-13.3601
팔레스타인	-13.3621
▁메티	-13.3622
▁다름없다	-13.3631
▁아이오	-13.3633
vis	-13.3635
▁씻는다	-13.364
▁샤히	-13.3642
▁리바이	-13.3647
관찰	-13.3647
▁노렸다	-13.3655
▁해롭다	-13.3661
plane	-13.3665
▁hot	-13.3666
▁탈리	-13.3668
▁열어주	-13.3669
▁내밀	-13.3669
▁세노	-13.3672
884	-13.3672
매니	-13.3674
ence	-13.3675
▁떠나려	-13.3675
인다	-13.3688
리우	-13.3689
ide	-13.369
▁obs	-13.3692
dm	-13.3695
▁ra	-13.3696
았었다	-13.3701
▁뒤졌	-13.3703
▁빌리지	-13.3705
▁숨쉬	-13.3706
▁lu	-13.3708
▁이노	-13.3714
▁부족하	-13.3719
sh	-13.372
▁라보	-13.3725
▁벅	-13.3727
밑	-13.3727
▁던	-13.3729
859	-13.3737
▁대대	-13.3743
▁맞았으	-13.3745
▁일어나자	-13.3751
▁이라면서	-13.3752
▁브론스	-13.3753
르셰	-13.3762
른다고	-13.3765
▁알린	-13.3765
011	-13.3769
▁유키	-13.3771
검문	-13.3772
다이	-13.3775
▁덜어	-13.3776
05	-13.3776
심리학	-13.3778
수정	-13.3783
할까	-13.3791
▁기립	-13.3801
너지	-13.3802
37	-13.3806
▁균일	-13.3807
스케	-13.3809
un	-13.3811
ather	-13.3816
하였다	-13.3821
▁dec	-13.3825
val	-13.3831
52	-13.3837
루히	-13.3843
▁낄	-13.3848
▁먹다	-13.3848
azi	-13.3849
▁발광하	-13.3849
워터	-13.3852
▁쫓아	-13.3859
▁송신	-13.3864
스텐	-13.3866
극장	-13.3868
▁신입	-13.3873
▁꺼려	-13.3876
▁enter	-13.3877
▁warn	-13.3882
▁걸어가는	-13.3889
▁tra	-13.3892
▁맞는다	-13.3898
▁방울	-13.39
카를로	-13.3902
등교	-13.3908
썼다	-13.3912
▁안디	-13.3912
▁temp	-13.3918
▁쌓였다	-13.3919
▁거두었	-13.3923
▁사키	-13.3928
▁완고	-13.3936
기보다	-13.3936
▁온화	-13.3937
▁발디	-13.3938
▁올가	-13.3939
▁쇠퇴하	-13.3944
보낼	-13.3955
▁받았었	-13.3958
▁ic	-13.396
열린	-13.3963
▁콰이어	-13.3969
라트	-13.3972
독일	-13.4003
▁해야하는	-13.4014
▁뒤져있	-13.402
▁yam	-13.4021
480	-13.4024
▁nu	-13.4028
▁세스	-13.4029
▁우후	-13.4034
vastati	-13.4038
▁패서	-13.4044
재산	-13.4045
▁코리	-13.4046
▁나하	-13.4048
▁bue	-13.405
▁바덴	-13.4052
먹이	-13.4053
sit	-13.4053
▁구내	-13.4055
되어	-13.406
쓴	-13.4068
▁구강	-13.4077
▁맡는	-13.4082
▁와치	-13.4085
▁자랐	-13.4092
카야	-13.4093
▁되든	-13.4116
▁정시	-13.412
바겐	-13.412
241	-13.412
▁학생회	-13.4122
atch	-13.4125
ella	-13.4131
▁굴리	-13.4133
▁맞기	-13.4141
▁01	-13.4144
할리	-13.415
▁떠밀	-13.4152
▁sho	-13.4153
음주	-13.4154
▁나타내기	-13.416
▁명확하	-13.4163
들여	-13.4167
ifa	-13.4174
ble	-13.4182
▁오슬	-13.4183
▁나아	-13.4196
▁군주	-13.4199
남동	-13.42
▁시종	-13.4202
▁빠를	-13.4206
▁sing	-13.4207
뿐	-13.4209
▁pos	-13.4211
76	-13.4212
바토	-13.4213
illi	-13.4213
lm	-13.4214
▁페퍼	-13.4217
▁겪지	-13.4219
벗	-13.4227
소지	-13.4229
보고서	-13.4232
긋	-13.4232
주기	-13.4239
▁키웠	-13.424
air	-13.4244
성공	-13.4248
▁당하기	-13.4248
▁밀렸	-13.4252
▁생화	-13.4264
▁비쳐	-13.4269
연재	-13.4272
있고	-13.4272
▁일었	-13.4283
이로	-13.4283
득점	-13.4299
uj	-13.43
nl	-13.4301
▁가르쳤	-13.4307
▁저주	-13.4308
wan	-13.4309
▁sk	-13.431
tn	-13.4316
▁날렸으	-13.4319
▁물으면	-13.4324
▁다투	-13.4327
▁잔인하	-13.4332
▁lev	-13.4334
▁선견	-13.4341
리블	-13.4345
▁루치	-13.4348
▁miss	-13.4348
▁올프	-13.4351
인정	-13.4358
린이	-13.4358
ech	-13.4359
▁깨기	-13.436
fc	-13.4362
▁이어진다	-13.4373
진행	-13.4374
맞은	-13.4377
펙	-13.4378
▁fish	-13.4385
▁jew	-13.4388
다운	-13.439
▁dig	-13.4391
쓰겠다	-13.4393
르부	-13.4395
▁알리려	-13.4398
▁매디	-13.4401
게라	-13.4401
▁싸여	-13.4402
▁보내주	-13.4404
tt	-13.4408
베어	-13.4409
▁소박	-13.4409
▁여하	-13.4416
폴레	-13.4424
▁192	-13.4425
이었	-13.4434
▁드렸	-13.4438
wide	-13.4441
으름	-13.4442
공포	-13.4443
방위	-13.4449
▁비슷해	-13.4454
▁풀렸	-13.446
봐	-13.4462
▁war	-13.4468
▁입상했	-13.4469
▁분명해	-13.4472
we	-13.4473
▁map	-13.4477
▁377	-13.4479
▁쉬웠	-13.4482
▁리포	-13.4488
▁막연	-13.449
▁차도	-13.4492
▁lif	-13.4493
▁fts	-13.4494
▁580	-13.4494
300	-13.4494
조디	-13.4496
▁가져오는	-13.4498
▁난폭하	-13.4501
신사	-13.4502
▁부트	-13.4503
▁가져온다	-13.4507
▁알아내는	-13.4513
▁너그	-13.4513
▁유선	-13.4515
▁비오	-13.4517
▁벌어지지	-13.4518
그린	-13.4528
여지	-13.4534
▁로맨	-13.4534
수사	-13.4539
▁stu	-13.454
▁주어져	-13.4552
▁거두었다	-13.4554
▁620	-13.4557
잠수	-13.4562
킴	-13.4563
▁473	-13.4569
ace	-13.457
▁aaa	-13.4586
처리	-13.4589
▁같지	-13.4592
▁고통스러워	-13.4594
튀	-13.4596
박사	-13.4606
he	-13.4607
▁차이니	-13.4607
▁막혀	-13.4607
▁사할	-13.4611
끝	-13.4614
959	-13.4619
▁미연	-13.4619
ture	-13.4622
▁불기	-13.4627
▁단순하	-13.4628
라과	-13.4635
win	-13.4636
▁chp	-13.4636
onic	-13.4645
▁메니	-13.4647
▁나디	-13.4649
그러	-13.4654
카운	-13.4655
▁어려웠	-13.4655
▁프루	-13.4658
watch	-13.4665
▁캐이	-13.4665
face	-13.4665
▁은하	-13.4666
ven	-13.4667
재현	-13.4668
▁일용	-13.4669
나왔다	-13.4674
▁바란	-13.4675
▁틀리	-13.4675
hran	-13.4677
▁625	-13.4682
▁싸웠	-13.4683
▁집전하	-13.4686
셈	-13.4687
▁안데르	-13.4688
girls	-13.4689
▁돼있어	-13.4693
떠	-13.4695
내면	-13.4695
국기	-13.4698
붐	-13.47
66	-13.4702
▁들였	-13.4702
ins	-13.4703
시키고	-13.4704
들었을	-13.4705
ger	-13.4705
스퍼	-13.4712
▁chu	-13.4714
더블	-13.4718
해지	-13.4719
▁패트리	-13.4721
▁화려하	-13.4721
▁자아냈	-13.4724
▁죽였는	-13.4724
foot	-13.4724
배리	-13.4727
ze	-13.4731
ach	-13.4733
개척	-13.4734
슬로바키아	-13.4735
▁달려들	-13.4735
르브	-13.4749
gra	-13.476
▁군기	-13.4764
cur	-13.4765
덱	-13.477
▁mill	-13.4772
제도	-13.478
onal	-13.4781
파이스	-13.4781
▁가로막	-13.4784
▁178	-13.4785
벵골	-13.4788
urs	-13.4789
▁편리하	-13.4798
르켓	-13.4804
▁bro	-13.4804
▁미지	-13.4805
하수	-13.4805
캘	-13.4806
mur	-13.4808
ni	-13.4811
report	-13.4817
▁885	-13.4818
꼽히	-13.4821
오그	-13.4826
▁188	-13.4828
▁비요	-13.483
꼽	-13.4834
왔	-13.4842
▁고른	-13.4842
▁lan	-13.4848
▁wal	-13.4848
▁가이	-13.4861
언론	-13.4865
state	-13.4873
▁루세	-13.4874
rw	-13.4875
nch	-13.4877
▁쉽에	-13.488
ons	-13.488
찔	-13.4884
받으려	-13.4885
프로세	-13.4886
슈마	-13.4889
빈스	-13.489
▁그리워	-13.4893
페린	-13.4901
▁치켜세	-13.4902
▁올라가기	-13.4907
sec	-13.4908
터키	-13.4909
▁적응하는	-13.4915
치니	-13.4916
od	-13.4921
아바	-13.4923
▁양제	-13.4923
쿠사	-13.4928
▁야히	-13.493
▁가면	-13.4934
음료	-13.4935
▁bel	-13.4935
느껴	-13.4936
▁씻는	-13.4945
▁올라가면	-13.4949
bur	-13.4949
▁cu	-13.4949
▁차오	-13.4955
▁찾아왔	-13.4957
멕	-13.4959
rog	-13.4964
햇	-13.4965
▁샤하	-13.4966
▁덮여	-13.4966
가라	-13.4971
▁bu	-13.4975
▁컬리	-13.498
홉	-13.4982
iba	-13.4983
▁않으	-13.4985
당수	-13.4986
▁bol	-13.4986
루지	-13.4988
났었다	-13.4995
종려	-13.5008
▁제스	-13.5014
의정	-13.5022
테스	-13.5024
▁his	-13.5025
sco	-13.5026
행성	-13.5027
kin	-13.5033
▁잘리	-13.5035
▁다각	-13.5036
▁청결	-13.5036
라치	-13.5039
으로부터	-13.504
chae	-13.5043
▁디오	-13.5045
멈	-13.5046
▁갖추었	-13.5048
몬트	-13.505
nc	-13.5051
▁산자	-13.5052
▁마론	-13.5056
▁ris	-13.5057
▁불가능해	-13.5057
284	-13.5067
들었다	-13.5074
여러	-13.5081
준다	-13.5083
▁체커	-13.5084
▁일어나면	-13.5087
no	-13.5095
enger	-13.5097
▁유능하	-13.5097
005	-13.5098
ico	-13.5098
▁말린	-13.5099
방울	-13.5104
서핑	-13.5113
첼로	-13.5114
▁ta	-13.512
저리	-13.5122
▁박지	-13.5126
실시	-13.5128
붕괴	-13.513
▁짖	-13.5132
▁벌어진다	-13.5132
▁democrat	-13.5137
▁무도	-13.5142
롭지	-13.5143
▁584	-13.5143
▁누워	-13.5144
ema	-13.5144
작업	-13.5147
250	-13.515
주택	-13.5151
만이	-13.5155
▁좋아졌	-13.5165
내용	-13.5168
▁로슈	-13.5172
트린	-13.5176
화장	-13.5183
메가	-13.5187
하일	-13.519
않은	-13.5191
팔레	-13.5194
갈아	-13.5196
▁유쾌하	-13.5197
테레	-13.5198
▁해줘	-13.5205
스킨	-13.5206
rds	-13.5206
▁305	-13.5207
▁정정	-13.5207
activ	-13.521
▁도스	-13.5213
▁담기	-13.5217
▁reco	-13.5218
이세	-13.5222
▁매도	-13.5226
▁unit	-13.5227
▁먹거	-13.5228
▁다름없	-13.524
인지	-13.5241
각장애	-13.5251
앞서	-13.5251
▁급수	-13.5261
▁풍부하	-13.5263
▁aa	-13.527
▁툰	-13.5272
itt	-13.5282
슈타	-13.5284
pi	-13.5284
▁eco	-13.5284
었다는	-13.5289
▁스러웠	-13.5299
▁이렇	-13.53
안정	-13.5301
노피	-13.531
▁쓸려	-13.5313
매우	-13.5313
▁글라스	-13.5316
▁삼자	-13.5322
▁cam	-13.5323
받을	-13.5323
▁whe	-13.5324
겠는	-13.5325
넌지	-13.5331
책임	-13.5334
▁여겨진	-13.5351
▁신학	-13.5362
lan	-13.5363
▁end	-13.5367
pda	-13.5373
▁156	-13.5375
map	-13.5377
▁918	-13.5381
▁미쳤	-13.5381
▁다루어	-13.5386
▁가난하	-13.5387
▁해냈	-13.5389
▁좋아진	-13.5395
사이클	-13.5395
레고	-13.54
▁int	-13.5401
▁agr	-13.5405
하려	-13.5408
▁채려	-13.5414
켜야	-13.542
세력	-13.542
▁danc	-13.5431
▁사열	-13.5436
ile	-13.5436
▁ser	-13.5437
문화	-13.5439
▁그리니	-13.5442
▁포지	-13.5443
▁주려	-13.5446
놨	-13.5449
▁다라	-13.5456
▁인정받지	-13.5463
로메	-13.5464
▁튀어	-13.5464
▁bae	-13.5465
▁밑바	-13.5471
▁산동	-13.5471
664	-13.5473
▁도망쳤	-13.5475
주관	-13.5479
hell	-13.549
가진	-13.5493
▁득	-13.5497
합의	-13.5508
▁identi	-13.5508
▁울었	-13.5511
▁내려오면	-13.5511
▁뿌렸	-13.5512
▁매끄러	-13.5514
▁183	-13.5516
워질	-13.5524
사귀	-13.5525
바덴	-13.5534
▁셀리	-13.5534
▁hote	-13.5534
내준	-13.5535
▁dm	-13.5536
아브	-13.5538
▁모여들었	-13.5542
uch	-13.5546
▁당당	-13.5547
조지	-13.5548
모토	-13.555
어졌을	-13.555
▁다닌	-13.5552
▁원하	-13.5559
출연	-13.5565
르테	-13.5566
치키	-13.5567
▁나니	-13.5568
rus	-13.557
▁치러졌	-13.5575
tes	-13.5578
▁드러난	-13.559
▁터트	-13.5601
▁챙긴	-13.5606
▁다가갔	-13.5611
▁럭	-13.5611
퓨	-13.5612
다음	-13.5622
▁불경	-13.5622
even	-13.5625
가치	-13.5626
▁제다	-13.5627
▁277	-13.5633
▁클라이	-13.5638
▁mc	-13.5639
않는다	-13.5639
▁el	-13.5646
▁얼어	-13.5647
▁안식	-13.5651
ores	-13.5663
▁파시	-13.5669
▁유용하	-13.5674
nami	-13.568
▁루피	-13.5682
▁보여줘	-13.5684
▁내줘	-13.5685
스베이	-13.5685
▁말고	-13.5689
쳤	-13.569
▁코타	-13.5706
▁ni	-13.5707
▁돌렸	-13.5709
▁가깝	-13.572
영화제	-13.572
리랑	-13.5724
▁256	-13.5729
▁럼	-13.573
중절	-13.5731
▁화창	-13.5743
▁kar	-13.5747
▁야키	-13.5747
뤘	-13.5747
ell	-13.5753
음식	-13.5767
▁헤지	-13.5775
▁sta	-13.5782
▁마르셀	-13.5783
▁배웠	-13.5786
레버	-13.5791
▁바뀌면	-13.5801
▁팜스	-13.5804
▁bir	-13.5804
배드	-13.5806
▁자는	-13.5812
▁늘어나면	-13.5813
▁les	-13.5821
▁우승하	-13.5823
▁186	-13.5825
170	-13.5827
▁더비	-13.5828
▁482	-13.5828
▁뒤집어	-13.5833
▁6900	-13.5838
▁다가왔	-13.5838
▁양원	-13.5838
려다	-13.5839
▁따냈	-13.584
▁드러났	-13.584
▁리시	-13.5843
▁터졌	-13.5843
대체	-13.5846
▁돼있었	-13.5848
jn	-13.5853
▁막히	-13.5854
▁적응하	-13.5855
포인	-13.5861
▁지켰	-13.5867
오스	-13.5868
카프	-13.587
▁어세	-13.5871
344	-13.5875
▁지을	-13.588
스포츠	-13.5885
▁길다	-13.5891
▁대마	-13.5896
▁펼	-13.5897
ew	-13.5898
▁흩어	-13.5907
박물	-13.5911
▁따뜻함	-13.5911
▁205	-13.5918
iu	-13.5923
▁들일	-13.5924
▁성장하	-13.5925
mo	-13.5931
▁강력했다	-13.5931
플리	-13.5936
berg	-13.594
dard	-13.5943
omon	-13.5947
패니	-13.5949
▁sco	-13.595
▁삼가	-13.5956
▁auto	-13.5957
워하지	-13.596
mage	-13.5961
트레	-13.5962
velop	-13.5963
▁슬프	-13.5965
▁죽였	-13.597
uation	-13.597
▁느껴지	-13.5973
▁청각	-13.5974
yama	-13.5975
▁뚱뚱	-13.5978
▁5400	-13.5979
▁샀	-13.5984
sus	-13.5985
없다고	-13.5987
개혁	-13.5988
회보	-13.5995
▁뜯어	-13.5996
house	-13.5999
눠	-13.6001
oh	-13.6002
hab	-13.6009
▁내사	-13.6013
▁움켜	-13.6014
▁adventure	-13.6014
▁authorization	-13.6014
▁champions	-13.6014
▁citizen	-13.6014
▁horses	-13.6014
▁pregnanc	-13.6014
▁problem	-13.6014
▁tepozt	-13.6014
▁꼼	-13.6014
▁머뭇거리	-13.6014
▁입헌군주	-13.6014
▁핍박	-13.6014
▁advertis	-13.6014
▁hypo	-13.6014
▁perform	-13.6014
▁tweet	-13.6014
ultim	-13.6014
▁excel	-13.6014
▁psycholog	-13.6014
▁롬바르디	-13.6014
▁맞닥뜨	-13.6014
▁미들즈브	-13.6014
▁솔트레이크	-13.6014
▁이하선염	-13.6014
▁주저앉	-13.6014
▁consider	-13.6014
▁retail	-13.6014
▁future	-13.6014
▁reptil	-13.6014
▁complete	-13.6014
▁laborator	-13.6014
▁severe	-13.6014
▁높아짐에	-13.6014
▁electr	-13.6015
▁politic	-13.6015
▁매끄럽	-13.6015
▁47760	-13.6015
▁발가벗	-13.6015
▁산토리니	-13.6015
▁half	-13.6015
▁hunt	-13.6015
▁villa	-13.6015
▁ocean	-13.6015
▁blonde	-13.6015
▁비례대표	-13.6015
▁빼앗으려	-13.6015
▁쌀쌀	-13.6015
▁smart	-13.6015
▁들썩이	-13.6015
▁airline	-13.6015
▁resistan	-13.6015
▁배고픔	-13.6015
▁아프톤블	-13.6015
▁massac	-13.6015
▁끊으려	-13.6015
▁premi	-13.6015
jewel	-13.6015
▁말루쿠	-13.6015
▁arab	-13.6015
▁쓸쓸	-13.6015
▁tact	-13.6015
▁bfm	-13.6015
▁freak	-13.6015
▁battle	-13.6015
▁cedar	-13.6015
▁귀찮	-13.6015
▁dress	-13.6016
▁csi	-13.6016
▁51922	-13.6016
▁괴로워	-13.6016
▁marri	-13.6016
rup	-13.6016
▁요동치	-13.6016
▁활발해지	-13.6016
▁files	-13.6016
▁구에레	-13.6016
▁놔둔	-13.6017
▁앗아가	-13.6017
▁gru	-13.6017
▁멍청	-13.6017
▁숨져있었다	-13.6017
▁산타클라	-13.6017
▁therap	-13.6017
▁사로잡혀	-13.6018
▁ostrac	-13.6018
▁없앨	-13.6018
▁stop	-13.6018
▁슈왈	-13.6018
▁뽑겠다	-13.6018
▁치르겠다	-13.6018
▁기울이겠다	-13.6018
▁냉철	-13.6018
bras	-13.6019
▁모리타니	-13.6019
▁기울여	-13.6019
▁받아들이겠다	-13.6019
▁되살리	-13.6019
▁tri	-13.602
▁every	-13.602
▁줄이겠다	-13.602
▁셔틀	-13.602
flag	-13.602
▁악화시킨	-13.6021
clear	-13.6021
▁만다린	-13.6021
▁데려왔	-13.6021
▁밟혀	-13.6021
▁컨튜리	-13.6021
▁fall	-13.6021
▁die	-13.6022
oq	-13.6022
eau	-13.6022
ect	-13.6022
박수	-13.6022
▁alta	-13.6022
▁우승하는	-13.6022
▁보살피	-13.6022
nick	-13.6022
▁아이러니	-13.6022
▁barbar	-13.6022
▁fail	-13.6023
special	-13.6023
의식	-13.6023
▁스며든	-13.6023
▁전립선	-13.6023
▁expectation	-13.6023
▁프랫	-13.6023
▁우아함	-13.6024
▁받아들여졌다	-13.6024
▁플레이보이	-13.6024
▁강화하겠다	-13.6025
▁베풀었다	-13.6026
▁빨라진	-13.6026
▁flights	-13.6026
▁초조함	-13.6026
▁삼켰	-13.6027
▁1378	-13.6027
▁1694	-13.6027
▁내야겠다	-13.6027
▁넘겨준	-13.6027
▁멸치	-13.6028
▁화끈	-13.6028
▁들떠있	-13.6028
▁뛰어났	-13.6029
타기	-13.6029
▁앞장섰	-13.603
▁창백하	-13.603
epo	-13.603
▁몰리노	-13.603
▁농수산	-13.603
▁견줄만	-13.6031
elf	-13.6032
▁mercur	-13.6033
▁niger	-13.6033
▁외톨	-13.6034
▁kitch	-13.6036
liv	-13.6038
▁시켰는지	-13.6038
▁빠르다	-13.6038
▁8700	-13.6039
끌	-13.6039
▁viol	-13.6039
▁드라마틱	-13.6039
▁씻어	-13.6039
▁강인함	-13.604
▁버리겠	-13.604
▁sth	-13.604
▁침착함	-13.604
▁침례교	-13.604
▁어려웠던	-13.6041
▁갇히	-13.6042
▁시끄럽	-13.6042
▁막겠다	-13.6042
▁jpm	-13.6042
▁따뜻해지	-13.6042
▁돋우	-13.6043
▁1848	-13.6043
▁어우러	-13.6043
▁파이퍼	-13.6043
▁4900	-13.6044
▁285	-13.6044
▁7800	-13.6044
▁블링	-13.6044
▁벗어나는데	-13.6045
조브	-13.6045
▁항에따	-13.6045
▁놓아두	-13.6045
▁ado	-13.6046
▁나아졌다	-13.6046
ridge	-13.6046
▁machine	-13.6046
가로	-13.6047
▁갓난아	-13.6047
▁콩코	-13.6048
▁해주겠다	-13.6049
▁찾아보기	-13.605
▁돌아다닌다	-13.605
▁장사	-13.6051
▁도망친	-13.6051
▁마세요	-13.6055
▁merv	-13.6056
▁brad	-13.6057
▁퀴즈	-13.6058
▁하셨다	-13.6058
▁림프	-13.6059
▁뜯어내	-13.6059
▁도요	-13.6059
▁만들어져	-13.6059
▁1680	-13.606
▁늘린다	-13.6061
▁메트로	-13.6061
▁걷는데	-13.6061
▁나일	-13.6062
bron	-13.6062
▁콤비	-13.6065
▁스톡	-13.6065
▁부쳐진	-13.6065
남부	-13.6065
▁1931	-13.6066
▁크라이스트	-13.6066
ird	-13.6068
▁난징	-13.6068
▁뛰어내리	-13.6069
▁쿼데	-13.607
▁건드리	-13.607
▁interest	-13.6071
▁명백하	-13.6071
▁더듬	-13.6071
▁태평	-13.6073
▁가득했	-13.6073
sony	-13.6074
▁솔직함	-13.6074
▁움츠	-13.6074
▁가까워지	-13.6074
▁슈테	-13.6075
▁speci	-13.6076
▁구급대	-13.6076
arje	-13.6076
▁두드렸	-13.6076
▁따르겠다	-13.6077
▁number	-13.6078
▁sole	-13.6078
▁레모	-13.608
resc	-13.608
▁아틀랜	-13.6081
▁3700	-13.6081
▁석기	-13.6081
▁automo	-13.6083
▁치닫	-13.6083
▁guy	-13.6085
▁똑같아	-13.6085
▁아리안	-13.6086
▁좁혀졌다	-13.6087
path	-13.6088
▁바닷가	-13.6088
▁레흐	-13.6089
▁부적당	-13.6091
▁생겨났	-13.6091
▁헤어졌다	-13.6093
▁archi	-13.6093
▁잔잔	-13.6094
▁들어준다	-13.6094
lu	-13.6096
▁많아진	-13.6097
▁매달린	-13.6097
▁mad	-13.6099
▁1915	-13.61
▁몰더	-13.6101
▁쫓기다	-13.6101
상공	-13.6102
▁줄지어	-13.6103
▁떠안	-13.6103
▁니트로	-13.6103
▁히어로	-13.6103
▁가르쳐주	-13.6104
▁적응하려	-13.6104
▁구석기	-13.6105
di	-13.6106
▁생겨나	-13.6107
▁estate	-13.6107
▁내보내기	-13.6108
▁대담하	-13.6108
▁빗나갔	-13.611
▁몰려든	-13.611
▁불었	-13.611
▁억울	-13.6111
오른	-13.6113
▁threat	-13.6113
▁벨라루	-13.6114
▁1260	-13.6114
▁들이라면	-13.6117
yy	-13.6117
▁펜티	-13.6118
▁부딪히	-13.6118
mine	-13.612
▁성가시	-13.6121
▁card	-13.6121
ruden	-13.6121
tma	-13.6121
wl	-13.6122
▁3800	-13.6122
▁촉절	-13.6123
▁앨러	-13.6125
졌고	-13.6127
▁산호세	-13.6127
피테	-13.6127
▁친해	-13.6129
▁괜찮아	-13.6134
lope	-13.6136
▁잘라내	-13.6136
▁살아남아	-13.6138
▁틀었	-13.6143
▁긴박	-13.6144
arge	-13.6145
bse	-13.6146
▁부풀	-13.6148
600	-13.6149
pei	-13.615
▁670	-13.6153
▁glen	-13.6154
▁1450	-13.6155
이븐	-13.6155
▁스노우보	-13.6156
hive	-13.6157
▁444	-13.6158
▁고모	-13.6159
▁1850	-13.6159
cine	-13.6159
▁쇠약해	-13.6161
▁담기는	-13.6161
▁들려왔	-13.6162
내버	-13.6162
동강	-13.6162
사법	-13.6163
▁boy	-13.6164
▁캐러	-13.6164
▁1350	-13.6166
▁넣으	-13.6167
▁놓여진	-13.6167
▁작동시킨	-13.6168
▁1620	-13.6169
아미노	-13.6169
▁몰았	-13.6169
▁해치려	-13.6172
▁옮겨지는	-13.6172
▁최우	-13.6172
thing	-13.6173
ming	-13.6173
▁침울	-13.6174
심사	-13.6174
▁돌봐주	-13.6174
리셔	-13.6175
흡	-13.6176
russel	-13.6178
▁상실했다	-13.618
▁되어가는	-13.6182
▁680	-13.6182
물었다	-13.6186
▁넥스	-13.6186
▁부르니	-13.6189
▁스코티	-13.619
▁599	-13.619
▁퍼졌다	-13.619
▁254	-13.619
poe	-13.6192
rican	-13.6192
▁물어본다	-13.6193
▁느냐	-13.6194
core	-13.6197
▁맥아	-13.6197
▁좁히	-13.6198
▁stand	-13.62
▁퍼루	-13.6201
▁치였	-13.6201
▁sensi	-13.6201
▁시보	-13.6205
rsp	-13.6207
▁드러낸	-13.6209
외교	-13.621
▁약해졌다	-13.621
▁되새	-13.6211
래트	-13.6211
브랄	-13.6211
웹	-13.6212
▁있었겠	-13.6213
트레인	-13.6215
▁동일했	-13.6216
▁262	-13.6218
▁넘겨줬	-13.622
▁들어서자	-13.6221
▁itune	-13.6222
acute	-13.6224
▁twit	-13.6224
▁밀려나	-13.6226
▁hand	-13.623
▁하와이주	-13.6231
▁끌어안	-13.6232
▁232	-13.6233
▁147	-13.6234
▁다투지	-13.6234
▁down	-13.6236
▁진압됐	-13.6237
▁물어보	-13.6237
▁disc	-13.624
▁싸우다	-13.6241
▁에스코바	-13.6241
▁말라리	-13.6243
▁vari	-13.6244
▁hall	-13.6244
▁워러	-13.6244
▁일으키려	-13.6245
▁장로	-13.6247
dis	-13.625
나야	-13.6252
▁나뉘어졌	-13.6252
▁무궁	-13.6253
▁가져간다	-13.6254
▁river	-13.6255
▁얻어내	-13.6255
몬스	-13.6256
▁채광	-13.6256
▁720	-13.6256
미나리	-13.6257
▁묶였다	-13.6259
한데	-13.626
▁가하지	-13.626
▁불공평하다	-13.6263
▁메흐메	-13.6263
▁730	-13.6266
ders	-13.6267
▁넘쳤다	-13.6269
▁merc	-13.6269
으로서	-13.6271
▁1911	-13.6272
scat	-13.6273
▁132	-13.6274
▁들렸을	-13.6275
▁변했	-13.6276
브라운	-13.6276
936	-13.6277
▁맞추는	-13.6279
▁cf	-13.628
▁발데	-13.628
▁crest	-13.6281
▁mart	-13.6283
▁오갔다	-13.6283
▁592	-13.6285
▁걸어가	-13.6286
▁타니에	-13.6286
▁툴스	-13.6289
▁나와있었다	-13.6291
▁불쾌해	-13.6292
▁ann	-13.6297
▁캐비	-13.6298
▁quarte	-13.6301
▁거쉬	-13.6301
▁710	-13.6301
▁훔쳐가	-13.6302
▁1150	-13.6302
판매	-13.6303
▁만들어졌는	-13.6304
▁나아질	-13.6305
▁히츠	-13.6305
▁찾아보	-13.6308
▁예링	-13.6311
▁알가	-13.6311
▁부렸다	-13.6313
▁쿠디	-13.6313
▁proces	-13.6313
▁간사	-13.6314
팰트	-13.6315
미탈	-13.6316
▁잃었을	-13.6319
▁다다르	-13.632
▁치러지지	-13.6321
양성	-13.6323
화상	-13.6323
▁굳혔	-13.6323
▁classic	-13.6326
ourne	-13.6327
▁490	-13.6331
▁유용하다	-13.6334
이파이	-13.6338
▁안토노	-13.6339
▁버림	-13.6342
티컷	-13.6348
rts	-13.6349
▁137	-13.6352
▁들어있었	-13.6353
벨리	-13.6354
티앤	-13.636
주요	-13.6363
971	-13.6366
▁알려야	-13.6367
▁건너가	-13.6367
flic	-13.6369
▁테이크	-13.6371
격해지	-13.6374
▁하이브	-13.6374
▁확고하	-13.6375
▁멀어지	-13.6376
▁앤드루	-13.6376
entific	-13.6379
▁되어가	-13.6379
▁참담	-13.6379
▁들어오기	-13.6379
▁심해졌다	-13.6381
▁info	-13.6382
▁베버	-13.6382
▁캐나	-13.6383
▁175	-13.6385
▁겔레	-13.6386
▁낮추어	-13.6387
▁믿었	-13.6388
▁김미	-13.6391
▁비범	-13.6391
▁넨	-13.6392
달렸다	-13.6392
▁대홍	-13.6394
▁꾸러	-13.6395
식품	-13.6396
▁girl	-13.6399
▁쿠오	-13.64
▁캐터	-13.6401
▁돌아서	-13.6402
추가	-13.6402
하겠	-13.6403
▁해로	-13.6404
3510	-13.6404
▁없애려	-13.6405
트비	-13.6406
▁296	-13.6406
▁fly	-13.6409
▁틀렸다	-13.6412
▁유명해지	-13.6413
unch	-13.6415
상한	-13.6416
rpo	-13.6418
했습니다	-13.6422
▁sin	-13.6423
▁퍼블리	-13.6424
▁캐치	-13.6425
▁가라앉는	-13.6425
▁펼치기	-13.6426
가리	-13.6426
▁잘츠	-13.6426
▁critic	-13.6426
▁잠재우	-13.6427
조정	-13.6428
란젤	-13.6429
itzer	-13.6431
▁탄산	-13.6433
pul	-13.6433
▁152	-13.6434
▁compe	-13.6436
빠질	-13.6445
▁듀란	-13.6448
▁libr	-13.6452
fir	-13.6455
▁옳다	-13.6456
▁피우고	-13.6456
▁행복하	-13.6459
▁빈약	-13.646
▁군용차	-13.6461
하려고	-13.6462
▁닥쳤	-13.6463
▁덕성	-13.6466
spira	-13.6467
▁갖추려	-13.6469
▁천황	-13.647
▁토스카	-13.6471
라기	-13.6472
루어	-13.6473
▁north	-13.6474
눌리	-13.6475
▁기다	-13.6475
▁유연합	-13.6476
▁애로	-13.6477
▁굳히	-13.6479
▁cau	-13.648
ome	-13.648
▁1020	-13.648
▁그리스어	-13.6481
▁빗대	-13.6482
▁나갔으	-13.6483
▁322	-13.6485
공화	-13.6487
틸라	-13.6489
▁뛰었	-13.6489
▁속이	-13.649
▁포켓	-13.649
▁부치	-13.6494
대인	-13.6494
far	-13.6495
▁웨이크	-13.6497
▁선불	-13.6499
▁맞다	-13.6501
▁해서였다	-13.6506
▁강화한	-13.6507
▁적어지	-13.651
콘드리	-13.6511
▁받아들인다	-13.6512
▁gen	-13.6512
▁애썼	-13.6519
리커	-13.652
레어	-13.6521
▁레티	-13.6522
지기	-13.6522
▁묶이	-13.6523
▁이름이었	-13.6523
▁마야	-13.6527
▁닿았다	-13.6527
▁데이타	-13.6528
▁리알	-13.653
▁사귄	-13.6531
▁기대하기	-13.6531
▁머그	-13.6531
▁부딪쳤다	-13.6538
1927	-13.6539
▁clos	-13.6541
여정	-13.6542
▁응구	-13.6543
▁난처했	-13.6544
악화	-13.6545
▁봐주	-13.6546
증가	-13.6546
ock	-13.6546
밀히	-13.6547
린더	-13.6548
용의	-13.6549
라토리	-13.655
▁610	-13.6559
▁실패하면	-13.656
▁키쇼	-13.6563
비시	-13.6563
top	-13.6565
▁찌는	-13.6572
다녔다	-13.6574
패커	-13.6575
▁샌버	-13.6578
예술	-13.6585
▁갈아입	-13.6585
기기	-13.6587
▁옮겨가	-13.659
▁써주	-13.6591
▁알겠	-13.6591
▁인민대	-13.6591
졌는지	-13.6592
ez	-13.6595
▁내몽	-13.6597
▁언더	-13.6597
▁파묻	-13.6599
독립	-13.6602
▁박진	-13.6602
▁태연	-13.6602
▁칸타	-13.6603
▁272	-13.6603
▁well	-13.6606
eon	-13.6609
남성	-13.6611
▁붙인다	-13.6612
▁차분	-13.6612
▁ea	-13.6613
트하	-13.6621
▁찾아온다	-13.6622
▁깨는	-13.6623
▁950	-13.6627
▁ku	-13.6627
▁치카	-13.6635
아서	-13.6635
iom	-13.6637
▁mary	-13.6638
range	-13.6642
▁263	-13.6645
▁알려줘	-13.6647
▁철책	-13.6649
▁즐기려	-13.6652
틀란	-13.6656
▁가라	-13.6657
망쳐	-13.6658
▁마주쳤	-13.666
▁토프	-13.6664
▁어려워지	-13.6665
▁놀기	-13.6669
▁227	-13.667
▁모른	-13.6672
rate	-13.6687
▁맵	-13.6689
▁물렸다	-13.669
lace	-13.6691
▁떨어	-13.6691
▁eff	-13.6691
▁튀어나	-13.6695
[...]
